#version: 0.2 - Trained by `huggingface/tokenizers`
Ġ Ġ
ĠĠ ĠĠ
Ġ t
Ġ a
ĠĠĠĠ ĠĠĠĠ
h e
i n
Ġ o
r e
Ġt he
o n
e r
Ġ c
Ġ s
e n
a t
Ġ p
e d
i t
i s
Ġo f
o r
ĠĠĠĠĠĠĠĠ ĠĠĠĠĠĠĠĠ
a n
i on
Ġ d
Ġa n
Ġ f
Ġ b
Ġ in
Ġ w
e s
- -
a l
en t
Ġt o
in g
a r
Ġ re
Ġ m
i c
Ġan d
Ġt h
c t
r o
Ġ n
Ġ e
a s
o u
l e
-- --
Ġ h
Ġ 1
m ent
Ġo r
Ġ l
s t
i l
at ion
v e
Ġ (
o t
i d
c e
Ġth at
Ġb e
ĠĠĠĠĠĠĠĠĠĠĠĠĠĠĠĠ ĠĠĠĠĠĠĠĠĠĠĠĠĠĠĠĠ
. .
Ġ u
o m
Ġd e
u r
Ġc on
Ġs u
Ġ 2
i m
Ġf or
s e
l y
â Ģ
Ġa s
c h
ĠĠ Ġ
at e
Ġ is
Ġp ro
Ġs e
u t
Ġs t
i f
p p
an t
o l
Ġ g
Ġn ot
t er
Ġo n
he r
i g
Ġe x
Ġ v
---- ----
Ġc om
it h
0 0
a b
d er
a y
Ġb y
Ġu n
Ġw ith
ct ion
a in
l l
Ġc ou
Ġ r
q u
Ġan y
Ġs h
i r
Ġa pp
g e
Ġ j
Ġ he
Ġ it
re d
r i
v er
Ġa t
es t
.. ..
_ _
s u
o w
Ġ 3
it y
en d
Ġd is
a d
es s
Ġa g
t her
Ġth is
i ve
Ġw h
re s
a m
e ct
Ġw as
ar t
n t
u d
i es
Ġp er
r t
al l
Ġcom p
o c
Ġw e
e t
v id
u l
u n
Ġa d
l a
o s
Ġsu ch
u s
or t
l d
Ġcou rt
at ed
ic e
ĠĠĠĠĠĠĠĠ ĠĠĠĠ
Ġ 4
i al
r a
as e
f f
p t
Ġ y
ab le
e m
Ġcon t
Ġin c
0 1
is t
an d
ar d
-------- --------
o d
Ġp art
c c
' s
Ġde f
u st
âĢ Ļ
Ġo ther
ar y
Ġ 5
il l
ic h
ro m
Ġc h
it ion
re e
Ġsh all
p er
t h
an ce
i v
Ġsu b
Ġh a
Ġf a
Ġun der
Ġf rom
Ġn e
Ġ le
Ġ \
Ġa l
Ġn o
Ġ1 9
Ġt r
l o
Ġa m
Ġ Â
a ge
Ġ âĢ
Ġa re
o re
Ġp l
h t
b er
Ġre s
an s
en ce
Ġa ll
Ġwh ich
ĠĠĠĠ Ġ
ment s
ĠĠĠĠĠĠĠĠĠĠĠĠĠĠĠĠĠĠĠĠĠĠĠĠĠĠĠĠĠĠĠĠ ĠĠĠĠĠĠĠĠĠĠĠĠĠĠĠĠĠĠĠĠĠĠĠĠĠĠĠĠĠĠĠĠ
i p
t e
ic t
ation s
Ġha ve
i re
âĢ Ŀ
m in
.... ....
) .
er v
Ġapp e
or d
Ġw he
__ __
Ġst ate
Ġthe re
Ġc la
u m
Ġcom m
Ġ 6
ĠĠĠĠ ĠĠĠ
i e
Ġre qu
ig ht
f or
Ġre p
Ġse c
e c
ĠâĢ ľ
er s
Ġh is
Ġag ree
ĠĠĠĠ ĠĠ
Ġ i
Ġp ur
ain t
Ġcla im
Ġm ay
n e
Ġc o
Ġ k
Ġ 7
2 0
Ġre c
Ġa cc
p on
ou ld
a c
i ed
Ġin d
Ġh as
an y
Ġit s
a g
Ġc ase
Ġ "
Ġs erv
r u
l ic
s on
Ġp re
Ġse ction
Ġof f
Ġa ct
Ġ if
Ġ 8
a k
Ġ 9
ig n
Ġ ve
ou nt
l ud
ion s
if f
u re
1 9
Ġf in
Ġst at
u e
Ġas s
Ġy ou
im e
i b
Ġm e
er al
a w
Ġagree ment
Ġre g
il ity
end ant
Ġa b
Ġo b
Ġe m
Ġcomp any
Ġc a
for m
Ġs p
d u
Ġpro vid
Ġw ill
Ġ im
a ch
i z
Ġdef endant
u se
Ġd o
Ġa r
ic al
Ġ2 01
Ġ ent
en s
Ġ2 00
) ,
Ġl aw
Ġex p
Ġt er
Ġe vid
Ġ 0
it ed
Ġcon s
Ġ1 0
ĠĠĠĠĠĠĠĠ Ġ
it ies
Ġp ay
ol l
Ġt ime
Ġf il
Ġis su
t ed
Ġ en
Ġ $
an c
e e
Ġd oc
lo y
---------------- ----------------
un d
Ġre l
Ġd ate
is s
p loy
t y
Ġevid ence
. ,
Ġhe re
ĠÂ §
u al
Ġdis t
Ġ1 1
Ġde c
Ġb o
Ġr ight
Ġve ter
Ġh ad
ĠĠĠĠĠĠĠĠ ĠĠ
Ġbe en
at ing
ou t
Ġin v
Ġj ud
aint iff
Ġg o
r ant
ff ect
Ġad d
er t
Ġpl aintiff
Ġw ould
as on
Ġem ploy
v is
p os
Ġl i
Ġm at
a re
Ġs o
if ic
Ġse e
at ive
res ent
Ġper son
f ter
Ġ qu
p ect
om e
ou s
Ġp r
Ġin t
Ġc l
or s
Ġ [
ĠĠĠĠĠĠĠĠĠĠĠĠĠĠĠĠĠĠĠĠĠĠĠĠĠĠĠĠĠĠĠĠ ĠĠĠĠĠĠĠĠĠĠĠĠĠĠĠĠ
Ġat t
res s
re st
Ġwe re
Ġdis c
e red
Ġc or
m it
e f
Ġtr ans
1 0
r ict
ro w
Ġt ri
Ġinc lud
ad e
Ġdoc u
en c
j ect
ra ct
Ġre ason
is e
Ġin te
Ġserv ice
Ġl o
Ġfil ed
am e
in e
Ġe v
Ġm ar
Ġ1 2
s o
Ġth an
a il
e ar
ab ility
Ġb ut
or y
i i
c a
ing s
Ġveter an
if ied
Ġappe al
o se
Ġpro per
Ġm an
u g
l ig
Ġ2 0
re n
Ġsu pp
Ġe ach
Ġfa ct
........ ........
ĠĠĠĠĠĠĠĠ ĠĠĠ
Ġapp lic
Ġc ir
Ġbo ard
i le
Ġsec ur
Ġim p
f ore
or k
e l
____ ____
Ġre m
c ess
2 1
Ġam ount
ri b
t he
Ġon e
Ġre v
Ġrec ord
ire ct
Ġinte rest
Ġ id
Ġ ro
a x
Ġ .
Ġm ot
Ġcon c
Ġa fter
Ġtri al
ter min
Ġp ri
t s
Ġp age
i a
oc k
i red
Ġu s
Ġin ter
r it
u b
n d
ist r
as s
Ġa c
p h
Ġrep ort
Ġ1 3
Ġor der
Ġe ffect
ut ion
on e
ĠÂ ·
Ġal so
Ġde termin
Ġa ut
00 0
Ġstat es
an k
a id
Ġre ce
Ġres pect
as ed
Ġin form
Ġre f
c ed
1 1
Ġo ut
Ġsp ec
Ġa ction
Ġter m
Ġt est
Ġd es
Ġy ear
Ġthe ir
Ġg en
Ġ her
Ġwhe n
Ġu pon
Ġc ert
ĠĠĠĠĠĠĠĠĠĠĠĠ Ġ
Ġin st
Ġd irect
ĠĠĠĠĠĠĠĠĠĠĠĠ ĠĠ
Ġm ade
ol d
it s
Ġapp ro
Ġam end
se l
o f
Ġt e
oll ow
Ġcon st
ce pt
ut e
Ġj ur
Ġappe ll
ie w
Ġ *
Ġf ollow
Ġs c
Ġf und
l i
su l
a ct
he d
l ed
on d
Ġd id
Ġd ay
Ġse t
in c
w n
as t
Ġ1 5
an ge
Ġthe y
Ġne w
o p
Ġ -
Ġb en
Ġdist rict
p or
Ġpart y
Ġoff ic
h or
Ġa ff
ak e
Ġ est
Ġf e
Ġun ited
Ġde p
Ġex ec
le ct
) (
is ion
at es
8 0
Ġc an
Ġt ax
Ġl im
Ġprovid ed
Ġf ir
Ġex t
ca use
r y
w e
Ġm ore
Ġag ent
on g
i od
Ġwhe ther
o in
os s
Ġinform ation
en der
em ber
n ow
Ġbe cause
du ct
Ġm ust
ce ed
Ġpur su
Ġdocu ment
Ġper iod
Ġcou n
Ġwh o
ac k
1 5
Ġ1 4
ĠĠĠĠĠĠĠĠĠĠĠĠ ĠĠĠ
Ġc red
g u
Ġv al
o st
Ġfor m
Ġinv est
Ġres pon
Ġag ain
. \
Ġjud g
Ġaut hor
en se
c on
Ġ19 9
ur ing
Ġg u
Ġben ef
Ġb or
Ġh ow
Ġob lig
Ġon ly
in ess
Ġproper ty
Ġb us
Ġappell ant
Ġcou nt
ic es
Ġle g
. "
Ġb ank
ic i
Ġo ver
Ġclaim s
Ġpl an
iss ion
Ġs he
Ġe qu
Ġrequ ired
o g
Ġad min
Ġnot ice
Ġpursu ant
Ġo p
Ġcont ract
) ;
Ġex am
Ġst ock
Ġgen eral
Ġcons id
Ġm r
Ġfin d
ain ed
Ġg rant
Ġtr ust
Ġo wn
g ed
Ġp ol
Ġm ed
Ġre sul
re at
Ġpart ic
ib le
ou r
Ġfir st
Ġpro vis
Ġre t
Ġ1 8
if y
Ġmot ion
Ġpri or
Ġbor row
Ġbus iness
a p
re t
2 5
le ment
Ġp ub
Ġ1 6
pt ion
Ġthe se
c k
ver n
Ġadd ition
Ġ3 8
Ġacc ount
Ġo ur
Ġdo es
re nt
Ġin s
Ġrequ est
Ġbe fore
Ġwith out
Ġjudg ment
Ġt w
Ġfa il
ul t
mit ted
Ġf ur
Ġacc ord
id ent
v ing
l is
Ġd en
Ġl ender
Ġw ork
Ġsh ould
y s
Ġadmin istr
3 0
er ial
Ġch ar
Ġagain st
Ġrep resent
n ess
w ard
Ġexec ut
et ition
Ġsh a
Ġpur ch
Ġcon d
Ġsub ject
Ġd uring
Ġf ed
Ġcred it
v ed
Ġcon f
ar ing
1 2
al ly
Ġgo vern
ou g
iz ed
o k
Ġpart ies
ou nd
Ġ1 7
ol der
Ġc as
c om
ction s
m an
Ġm on
Ġapplic able
Ġmat erial
Ġwith in
Ġ er
Ġrev iew
ro ug
il d
Ġsecur ities
Ġs al
Ġs y
1 4
Ġpro ceed
id e
Ġfin anc
b t
1 3
Ġrequ ire
Ġcir c
Ġwhe re
Ġw rit
Ġsha res
i ous
Ġp ar
Ġo per
Ġcomm it
Ġcond ition
m ed
Ġdec ision
enc y
Ġg ro
e ver
Ġinclud ing
1 8
Ġint o
Ġcon ne
h ip
Ġr u
Ġcont ro
Ġright s
Ġfollow ing
Ġbe l
Ġv i
Ġconne ction
1 6
Ġexam in
Ġp h
1 7
ict ion
Ġp etition
g r
od e
Ġw ar
Ġc ol
l ess
u p
Ġcoun sel
ation al
Ġ3 0
Ġc al
t o
k e
Ġreg ul
Ġpub lic
Ġk now
Ġu se
Ġsupp ort
Ġrece iv
Ġal le
Ġre st
Ġru le
Ġsub st
Ġcou ld
or ne
Ġv a
Ġsh ow
ver s
Ġa v
Ġlo an
Ġn um
it e
Ġp resent
Ġcor por
er c
Ġissu e
5 0
Ġfur ther
Ġpay ment
Ġper form
2 2
Ġthe n
Ġh im
Ġca p
e ren
Ġs ign
Ġfed eral
o ve
f t
m ber
Ġar gu
Ġbe t
c v
Ġborrow er
Ġc ur
Ġc ar
ver y
Ġop in
Ġatt orne
g es
it al
Ġhow ever
in d
Ġtw o
k et
Ġter min
f er
a ir
Ġqu est
Ġo cc
Ġterm s
Ġd i
st and
l us
. âĢĿ
Ġfinanc ial
2 3
w ise
Ġn on
Ġ2 4
Ġd ue
Ġconst it
su re
oin t
Ġ &
Ġev ent
Ġcomp l
Ġs ame
Ġre le
2 01
c ent
ur n
ate ly
Ġc r
roug h
e x
f ul
Ġb ased
Ġco st
Ġresul t
h ib
Ġth ose
Ġvi ol
Ġmat ter
Ġab out
art ment
Ġent it
Ġc ode
Ġin j
2 4
9 9
m iss
Ġmed ical
p ri
ab lis
Ġs ent
Ġstate ment
Ġcl ass
Ġcont in
Ġother wise
t en
Ġm ember
Ġass ign
Ġyou r
im in
Ġwh at
l es
Ġ2 3
b y
a pp
we en
Ġnum ber
Ġth rough
ain ing
Ġdis ability
Ġcomm ission
Ġf ore
Ġhe aring
Ġ ed
p ar
Ġdef in
anc es
Ġex cept
Ġne cess
Ġdefendant s
Â ·
Ġbet ween
Ġconsid er
m e
Ġpartic ip
Ġcomm on
Ġest ablis
Ġreg ard
Ġas se
Ġ2 5
a v
Ġsu m
inc ip
n er
on y
Ġde bt
Ġs im
Ġp res
Ġb as
h ing
Ġserv ices
Ġm ake
Ġreason able
end ed
Ġpr incip
s id
Ġst and
Ġa rt
Ġind i
Ġr ating
Ġpol ic
ra ph
ific ation
Ġme ans
Ġj ust
Ġwar rant
Ġper cent
ie f
Ġprovid e
Ġn or
i x
Ġdep artment
Ġday s
i o
g o
p r
Ġg iv
Ġfor th
il y
ent ion
Ġadministr ative
is d
Ġopin ion
Ġ19 8
Ġgovern ment
ĠĠĠĠĠĠĠĠĠĠĠĠĠĠĠĠĠĠĠĠĠĠĠĠĠĠĠĠĠĠĠĠĠĠĠĠĠĠĠĠĠĠĠĠĠĠĠĠĠĠĠĠĠĠĠĠĠĠĠĠĠĠĠĠ ĠĠĠĠĠĠĠĠĠĠĠĠĠĠĠĠĠĠĠĠĠĠĠĠĠĠĠĠĠĠĠĠĠĠĠĠĠĠĠĠĠĠĠĠĠĠĠĠĠĠĠĠĠĠĠĠĠĠĠĠĠĠĠĠ
Ġexecut ive
p l
ab ly
n ot
Ġcount y
Ġinst ru
Ġs ome
Ġoblig ations
Ġle t
g an
Ġm in
2 6
it her
v en
4 0
2 00
ag es
Ġca use
Ġcontro l
................ ................
ot h
ens es
Ġprovis ions
Ġjud ge
oug h
Ġs aid
Ġmon th
2 7
Ġattorne y
= "
e p
Ġyear s
u res
Ġeffect ive
c rib
Ġval ue
Ġd ut
ve lo
se c
Ġoffic er
Ġ2 6
Ġh old
Ġv er
at er
Ġthe m
at or
Ġc le
n ing
at eral
Ġsecur ity
Ġl oc
eren ce
Ġb u
Ġcorpor ation
Ġa ward
Ġlim it
Ġcon duct
Ġm o
Ġaddition al
stand ing
Ġ2 8
Ġp la
u ly
Ġjur y
Ġsu ff
Ġpre v
Ġjur isd
Ġf ound
________ ________
al th
velo p
n s
Ġquest ion
ur ance
7 5
Ġhe ld
k s
Ġwe ll
e es
Ġnecess ary
Ġadd ress
gr am
Ġtrans a
ic le
it le
Ġsu p
19 9
Ġfa c
2 9
Ġme an
Ġdocu ments
x e
s s
Ġex ist
il ities
Ġbe ing
ent s
Ġp oss
Ġer r
Ġreceiv ed
p e
Ġsubst ant
at h
2 8
Ġan n
Ġsub sid
ical ly
Ġus ed
Ġp ort
ow er
Ġ2 1
ur y
ot her
Ġpro b
t on
Ġsec ond
vid ual
ar m
Ġjurisd iction
Ġtrans fer
0 3
Ġp aid
Ġr ul
ĠĠĠĠĠĠĠĠĠĠĠĠĠĠĠĠ Ġ
Ġp e
Ġamend ed
Ġappeal s
Ġch ild
Ġemploy ee
su m
Ġsubsid i
Ġcur rent
u ll
Ġde l
Ġoff ice
re g
Ġu p
Ġrecord s
Ġpro cess
Ġplaintiff s
at ure
ial ly
Ġnot e
-------------------------------- --------------------------------
ul ar
Ġb oth
Ġrel ated
Ġcomp le
Ġd am
Ġindi vidual
Ġne ed
Ġde velop
g er
Ġl oss
t al
Ġh ig
Ġid ent
Ġw a
Ġse ll
oc i
Ġind ic
Ġsh are
Ġt itle
Ġde m
Ġlet ter
Ġpro gram
Ġamend ment
Ġ2 7
Ġob t
3 3
ĠĠĠĠĠĠĠĠĠĠĠĠĠĠĠĠ ĠĠ
Ġmar ket
Ġd iff
st em
Ġc oll
pos es
age ment
o h
Ġappro pri
Ġcompl aint
Ġnot es
iz ation
Ġav ail
Ġcomp ens
Ġaccord ance
Ġden ied
Ġe ar
Ġex erc
Ġext ent
Ġb r
Ġde ce
Ġocc ur
ect ed
Ġt reat
Ġs er
Ġstate ments
t ing
Ġ ----------------------------------------------------------------
ici ent
Ġcert ain
Ġdist rib
6 0
Ġinc re
Ġsub se
c es
Ġl and
Ġpro ced
Ġauthor ity
Ġemploy ment
im ony
Ġr ate
Ġ---------------------------------------------------------------- ----------------
Ġn ame
Ġleg al
Ġins urance
Ġsy stem
us ed
Ġwrit ten
u red
Ġ2 9
Ġst ated
Ġth ir
Ġt ak
Ġab ove
Ġbas is
Ġinc ome
. )
un e
Ġl l
Ġinv ol
r on
Ġt en
Ġlim ited
Ġex hib
Ġc ust
Ġrespon d
Ġm et
i or
c y
Ġdes ign
Ġass ist
t il
3 4
v ant
Ġpur poses
Ġent ered
Ġpur p
Ġcontin u
f e
Ġs ur
Ġwh ile
a ult
Ġpolic y
ĠĠĠĠĠĠĠĠĠĠĠĠĠĠĠĠ ĠĠĠĠ
ch ange
ag raph
Ġtest imony
Ġde li
Ġf l
Ġman agement
Ġfe es
un der
Ġasse ts
ant s
ve l
Ġgo od
Ġac qu
ol og
Ġp le
pos ed
Ġb ar
Ġp at
Ġb ack
ar ant
Ġex c
x t
Ġs ch
Ġsum m
Ġl ess
Ġthere fore
Ġthere of
Ġcle ar
Ġc t
Ġconst ru
Ġass oci
Ġto tal
Ġd r
Ġm y
it ness
0 4
crib ed
Ġe le
Ġin it
ion al
Ġm aint
Ġne g
ĠĠĠĠĠĠĠĠĠĠĠĠĠĠĠĠ ĠĠĠ
Ġpurch ase
Ġ end
Ġj an
Ġall ow
for ce
Ġc ity
Ġavail able
Ġcomm un
Ġinter n
h older
Ġsal e
Ġli ability
Ġ2 2
Ġag re
Ġli ke
Ġl ong
Ġhere in
5 5
Ġentit led
Ġth ree
Ġpri v
Ġcon v
il i
are nt
Ġdece mber
Ġapplic ation
j ud
te e
Ġfact s
em pt
Ġgiv en
u c
Ġtermin ation
Ġstand ard
at ory
Ġpro duct
Ġret urn
Ġcirc um
Ġcondition s
in ce
Ġf ile
Ġm er
Ġ )
Ġbenef its
7 7
Ġstat ute
0 9
Ġissu ed
Ġse pt
Ġlaw s
Ġj une
w ith
Ġexp enses
Ġgu arant
ar s
ter n
Ġex change
em n
Ġinclud e
Ġev en
il ar
Ġco p
Ġsu per
5 4
Ġme et
Ġch ange
o od
Ġdis miss
Ġp ost
Ġcost s
Ġt ra
ic k
Ġhe alth
al u
Ġprincip al
Ġe lect
Ġor d
Ġcircum st
Ġcoll ateral
er ic
Ġag g
* *
Ġ3 1
Ġexamin ation
us s
Ġs at
qu ent
Ġh older
Ġv ot
e ll
Ġappropri ate
Ġrequire ments
u it
0 2
at her
Ġgrant ed
in k
Ġdetermin ed
Ġtreat ment
Ġbenef it
Ġconc lus
Ġcap ital
Ġen g
Ġmar ch
Ġm od
Ġveter ans
Ġsim ilar
3 8
Ġl ic
Ġ q
Ġo pp
if e
ar ge
Ġaccord ing
Ġpay ments
Ġfund s
Ġf ull
7 6
lud ing
is c
âĢ Ķ
Ġperform ance
Ġcompens ation
Ġrest rict
Ġcas h
Ġcas es
Ġw itness
ar ies
is f
0 5
Ġn et
i an
4 8
0 6
Ġcert ific
ĠĠĠĠĠĠĠĠĠĠĠĠĠĠĠĠ ĠĠĠĠĠĠĠ
l and
p a
Ġj uly
ig in
3 6
Ġqu al
Ġca re
u ary
Ġe ither
Ġe ff
p ro
Ġun til
Ġconc er
Ġs m
Ġpurp ose
Ġun less
Ġac cept
Ġc he
Ġl it
Ġev alu
Ġc ent
Ġbe h
ut ed
4 6
v al
Ġb ro
Ġerr or
4 5
Ġl ist
Ġex per
3 5
ers hip
Ġinvest ment
ag n
Ġgro up
Ġemploy ees
Ġexp ress
Ġexhib it
Ġfail ure
Ġs ince
7 8
os ed
Ġm a
Ġpro m
Ġcirc uit
Ġcommit tee
Ġin f
Ġprovis ion
Ġact iv
is h
Ġor igin
ig ation
end s
Ġde em
Ġa ffect
Ġse par
Ġrespon s
Ġsc he
Ġsat isf
Ġa pr
ir m
i ent
Ġtrust ee
ou se
Ġalle ged
Ġjan uary
Ġll c
Ġdefin ed
la w
Ġte x
iv es
< /
Ġapp ly
Ġind emn
at a
Ġf r
ib ility
Ġc all
Ġcor re
Ġregard ing
19 8
o b
Ġag ency
Ġc re
ret ion
al f
Ġn ow
Ġsept ember
Ġpr ice
Ġthir d
end ing
âĢ ľ
Ġm ill
ĠĠĠĠĠĠĠĠĠĠĠĠĠĠĠĠ ĠĠĠĠĠ
Ġa ug
3 1
Ġp os
Ġde t
Ġse ver
Ġrem and
o ol
Ġb re
Ġdut y
Ġpurch as
Ġdef ense
Ġde pos
Ġc iv
Ġm ak
Ġact ual
w h
Ġdisc retion
in s
Ġre al
Ġinj ury
0 7
w ay
Ġcons ent
Ġcircumst ances
Ġreason ably
cc ess
od y
Ġmember s
ut es
Ġpetition er
o ver
3 9
Ġo ct
os ing
Ġapr il
med i
Ġp ract
Ġen force
re me
p ort
Ġe t
Ġp en
Ġtest ified
ar ch
Ġdef ault
Ġle ft
Ġp ower
Ġ3 6
ver age
i ver
Ġrul es
7 9
Ġo ption
Ġan other
Ġs a
Ġam eric
Ġhere by
Ġpla ce
Ġp a
4 9
Ġreg istr
Ġg r
Ġlo ans
0 8
ĠĠĠĠĠĠĠĠĠĠĠĠĠĠĠĠ ĠĠĠĠĠĠ
Ġt ake
Ġ z
ain s
Ġve t
Ġth us
p le
Ġexerc ise
ii i
Ġr a
Ġsuff icient
Ġ ir
Ġb l
Ġissu es
or n
ru pt
Ġsumm ary
Ġfin al
ens ion
Ġr is
Ġconsid ered
Ġad v
Ġy ork
Ġreg ist
Ġdam ages
Ġconc lud
Ġset t
l ine
Ġpro t
Ġs en
Ġre du
ive ly
Ġdisc uss
Ġ( âĢľ
Ġbel ow
r ic
Ġ ill
l ied
Ġdi agn
k ing
Ġdes cribed
âĢĿ )
Ġart icle
Ġpartic ular
ad ing
ic ial
o ber
Ġpar agraph
Ġh and
ĠÂ ¶
5 6
Ġch an
Ġad vis
3 7
is on
Ġaug ust
Ġrele vant
is es
Ġpro du
Ġan al
a fter
c ri
Ġpro f
m s
Ġb ur
Ġ x
Ġn ational
Ġw ay
Ġhig h
nt he
Ġdetermin ation
Ġspec ific
Ġm ost
Ġoblig ation
Ġbel ie
Ġdevelop ment
Ġoct ober
Ġt y
Ġcan not
Ġdis p
Ġor gan
Ġha ving
Ġso le
Ġdetermin e
Ġpart n
Ġ #
Ġimp ro
Ġle ast
Ġfe b
is ing
Ġph ys
Ġinc ur
p s
ver se
op le
r ing
Ġsu ccess
Ġm ort
6 6
en ue
Ġref er
4 4
he s
i res
c l
g in
Ġf ee
Ġregul ations
le y
Ġc it
Ġfa ir
Ġnot ed
Ġspec ial
Ġdeem ed
Ġfil ing
go ing
Ġtransa ction
Ġm is
b it
ap ter
Ġab s
Ġno ve
n o
b ur
Ġsec ret
Ġp arent
ow n
Ġprovid es
ab ilities
Ġnove mber
led ge
p art
k ed
d e
oh n
Ġdisc lo
5 8
7 4
5 9
Ġpre m
s p
Ġparticip ant
un ction
s w
ru ary
g ress
Ġt re
Ġaff ili
Ġmean ing
du le
Ġsup reme
Ġdirect or
Ġ1 00
Ġle ase
m ission
iz e
j e
Ġd ated
imin al
er g
Ġrel ief
Ġcons ist
Ġperson al
Ġamount s
im es
Ġexp l
ch n
a ve
Ġmonth s
et y
Ġconsider ation
Ġoffic ers
sel f
Ġconstit ution
j ust
ur al
Ġim medi
Ġproceed ing
Ġoff er
Ġviol ation
Ġit em
Ġauthor ized
Ġfeb ruary
Ġsche dule
Ġbe c
se e
Ġprev ious
Ġargu ment
is ed
Ġass ess
th ough
Ġmort g
Â §
al s
Ġper mitted
ie ld
Ġl ater
Ġst r
Ġcr iminal
Ġfa v
Ġsent ence
ut ions
ĠĠĠĠĠĠĠĠĠĠĠĠĠĠĠĠ ĠĠĠĠĠĠĠĠ
end ent
in es
Ġtak en
Ġde g
one y
k now
Ġal though
Ġh ome
s erv
Ġfail ed
Ġcorre ct
Ġbank rupt
Ġhere under
ol id
Ġdebt or
Ġle vel
Ġdirect ors
Ġcop y
Ġman ag
' t
Ġde ath
Ġinterest s
Ġj ohn
inc luding
Ġpe ople
Ġcont ained
ĠĠĠĠĠĠĠĠĠĠĠĠĠĠĠĠ ĠĠĠĠĠĠĠĠĠĠ
Ġpos ition
Ġper mit
Ġgro und
ort h
st ate
s h
7 0
ess ion
Ġrel ating
Ġb ri
Ġh ist
is l
Ġ /
Ġb ond
Ġs w
Ġ201 0
Ġrequest ed
6 8
i am
Ġout standing
ac hed
Ġagree ments
Ġcomp et
Ġsch ool
Ġb al
Ġsecret ary
Ġbankrupt cy
v es
7 1
Ġ es
Ġb ill
Ġob ject
Ġinit ial
Ġg reat
Ġman ner
p ay
j or
n c
Ġe l
Ġ4 9
6 9
Ġfind ings
ident ial
im um
ĠĠĠĠĠĠĠĠĠĠĠĠĠĠĠĠ ĠĠĠĠĠĠĠĠĠ
Ġfav or
Ġ201 1
Ġact s
Ġbeh alf
li ance
Ġ --
un ity
Ġloc al
Ġcust om
Ġ20 20
e rent
Ġfind ing
h old
Ġv ar
Ġf ra
Ġrem ed
e ase
7 3
Ġcor p
ar ily
Ġch apter
Ġcertific ate
Ġl ast
Ġte chn
Ġi i
Ġperson s
Ġ4 5
or der
il it
Ġestablis h
Ġaction s
Ġest ate
d en
Ġexamin er
y er
Ġregistr ation
Ġequ ity
Ġport ion
Ġspec if
Ġleg isl
ĠĠĠĠĠĠĠĠĠĠĠĠĠĠĠĠ ĠĠĠĠĠĠĠĠĠĠĠ
Ġrespond ent
Ġsubsidi aries
Ġd ata
Ġorigin al
Ġ200 9
oug ht
Ġcl osing
Ġalle g
ent ial
l er
Ġrece ive
ne w
og n
" >
Ġestablis hed
Ġsub mitted
Ġequ al
Ġve h
Ġf ut
Ġrel ations
Ġproceed ings
Ġpay able
Ġres ol
Ġma jor
Ġdec l
Ġd iv
Ġc rit
l le
ĠĠĠĠĠĠĠĠĠĠĠĠĠĠĠĠĠĠĠĠĠĠĠĠĠĠĠĠĠĠĠĠ ĠĠĠ
Ġd a
Ġ3 9
Ġcourt s
Ġinclud ed
Ġspec ified
olog y
Ġj oint
20 20
\ '
ment al
ut ory
Ġsubsidi ary
o id
Ġciv il
Ġspecif ically
Ġind e
Ġs ix
Ġpro ject
Ġf am
Ġm s
u nt
o very
Ġcont r
Ġrele ase
Ġpro sec
Ġann ual
n a
Ġdiff erent
Ġl an
holder s
Ġissu er
Ġ4 8
Ġclaim ant
n ed
4 3
st r
Ġemploy er
Ġtax es
s pect
4 1
um b
Ġad o
Ġa ud
Ġreason s
Ġval id
Ġsign ific
Ġs ay
all en
Ġm oney
Ġtex as
Ġrece i
7 2
Ġ <
ĠĠĠĠĠĠĠĠĠĠĠĠĠĠĠĠ ĠĠĠĠĠĠĠĠĠĠĠĠĠĠ
Ġ200 2
Ġlimit ation
om m
Ġth ink
pos ition
bit r
Ġh ar
Ġent ire
Ġsubse quent
Ġass ert
Ġ200 7
Ġincur red
6 5
ĠÂ§ Â§
.. .
Ġent ity
ro ss
Ġent er
x im
e qu
Ġbri ef
Ġrespon se
it ive
Ġm em
Ġagg reg
Ġp ain
Ġreport ed
Ġcommun ic
1 00
Ġrec ogn
Ġsell er
Ġp oint
Ġfollow s
Ġs it
Ġord in
Ġpro posed
Ġan sw
Ġl ab
Ġchar ge
3 2
ne e
ive red
Ġ201 4
Ġre ad
ou rt
g g
Ġfore going
a h
Ġpres ident
Ġare a
Ġatt empt
Ġe very
Ġar bitr
Ġpol ice
Ġknow ledge
Ġcomp liance
Ġ201 2
Ġcont rib
4 7
Ġcou r
Ġv ol
Ġinst it
Ġst ud
Ġdel ivered
Ġsal es
Ġ5 10
Ġpresent ed
4 2
Ġhere of
Ġcomple te
ac y
b e
Ġd on
Ġ201 3
Ġdistrib ution
Ġris k
Ġgeneral ly
Ġimmedi ately
Ġst re
Ġconstit ute
Ġlender s
Ġtransa ctions
ĠĠĠĠĠĠĠĠĠĠĠĠĠĠĠĠ ĠĠĠĠĠĠĠĠĠĠĠĠ
a ce
Ġrecei pt
Ġf ul
ate g
Ġinc or
Ġref erence
Ġex cess
d ay
Ġ3 5
w he
Ġte le
Ġaccording ly
Ġre d
Ġv iew
Ġdis order
Ġacc ess
, "
Ġsy m
Ġin su
ys is
ra w
Ġd ri
Ġver y
Ġn ature
Ġassign ment
al e
Ġconclus ion
Ġown er
Ġoper ations
Ġpriv ate
Ġch allen
Ġsup ra
Ġsignific ant
Ġaggreg ate
Ġcons olid
ro und
Ġappe lle
Ġ200 8
Ġg ive
Ġad just
Ġf ire
ir med
ron ic
ort s
Ġdirect ly
i er
Ġrequ ires
Ġmortg age
Ġreport ing
, âĢĿ
Ġinter p
Ġpurchas er
Ġne ver
Ġopp ort
Ġcour se
Ġsupp lement
ĠĠĠĠĠĠĠĠĠĠĠĠĠĠĠĠ ĠĠĠĠĠĠĠĠĠĠĠĠĠ
Ġagre ed
Ġp ass
Ġsent enc
n ected
Ġhist ory
Ġfut ure
Ġele ction
Ġcla use
Ġentit lement
Ġch ief
as es
Ġmill ion
u ro
a der
Ġadd ed
Ġ 01
Ġdis ease
Ġf ive
isc al
ul ation
ĠĠĠĠĠĠĠĠĠĠĠĠĠĠĠĠĠĠĠĠĠĠĠĠĠĠĠĠĠĠĠĠĠĠĠĠĠĠĠĠĠĠĠĠĠĠĠĠĠĠĠĠĠĠĠĠĠĠĠĠĠĠĠĠ ĠĠĠĠĠĠĠĠĠĠĠĠĠĠĠĠĠĠĠĠĠĠĠĠĠĠĠĠĠĠĠĠ
on s
Ġactiv ities
Ġ0 6
Ġhere to
ic ip
Ġobt ain
Ġexecut ed
r al
Ġche ck
Ġsett lement
6 7
Ġind ep
Ġl ife
Ġsu it
Ġwrit ing
Ġl ight
Ġac know
Ġa ir
Ġproced ures
Ġfac ility
Ġassign ed
âĢĿ ),
Ġcon gress
l ing
Ġpr im
âĢ ĵ
Ġoffic ial
Ġlic ense
row n
Ġ0 9
Ġgu il
t ies
Ġe lig
Ġ200 6
Ġad verse
Ġh ouse
am es
c o
Ġca used
Ġevalu ation
Ġreport s
Ġg et
Ġpartn ership
Ġresul ts
in ation
Ġdeli very
ar ter
est ed
Ġl ine
Ġjust ice
Ġpro te
ru ct
Ġconstru ction
Ġfore ign
Ġob je
Ġthere to
ic s
con t
Ġ5 0
il le
pt om
Ġproduct s
Ġf iscal
Ġstat utory
Ġ4 0
Ġref lect
om p
Ġsubse ction
Ġfra ud
Ġanal ysis
l f
Ġm ich
y ing
i um
ĠĠĠĠĠĠĠĠĠĠĠĠĠĠĠĠ ĠĠĠĠĠĠĠĠĠĠĠĠĠĠĠ
Ġappro val
8 8
Ġoccur red
Ġcoun ter
Ġw est
Ġpre jud
Ġbre ach
Ġmak ing
Ġten ant
Ġm c
ly ing
air s
if orn
00 00
Ġcol lect
ru g
Ġcont em
os p
Ġbu ild
iforn ia
ify ing
Ġdut ies
Ġdis ch
Ġdem and
an g
Ġfor ce
Ġargu es
Ġr ather
Ġm ult
b o
Ġstre et
Ġ200 5
Ġequ ip
Ġagre es
Ġdefin ition
Ġo mitted
Ġint ent
u f
an e
ag ed
ĠĠĠĠĠĠĠĠĠĠĠĠĠĠĠĠĠĠĠĠĠĠĠĠĠĠĠĠĠĠĠĠ ĠĠĠĠĠĠ
a ff
Ġsever al
Ġm ight
Ġp ot
Ġsepar ate
Ġbec ome
Ġsubstant ial
Ġres id
Ġindep endent
Ġimp ort
Ġassist ance
Ġsym ptom
Ġs ou
Ġed uc
ge ther
Ġcon sum
Ġcom b
i ation
h od
on str
Ġl ack
Ġmatter s
Ġli qu
Ġintern al
Ġcal ifornia
Ġst e
Ġchild ren
v ir
re ad
Ġ201 8
Ġam ong
ber t
Ġproceed s
u ch
Ġex ceed
Ġh our
w w
Ġint ended
Ġsub mit
pt ions
w est
Ġd ou
iv ed
Ġw ant
Ġs an
Ġad equ
Ġoff ense
Ġdisclo sure
ĠĠĠĠĠĠĠĠĠĠĠĠĠĠĠĠĠĠĠĠĠĠĠĠĠĠĠĠĠĠĠĠ ĠĠĠĠ
ĠâĢ ĵ
Ġy es
Ġ201 5
s y
8 9
x c
i ence
ĠĠĠĠĠĠĠĠĠĠĠĠĠĠĠĠĠĠĠĠĠĠĠĠĠĠĠĠĠĠĠĠ ĠĠ
Ġt imes
k er
Ġwa iver
Ġconf idential
su b
Ġincor por
Ġde al
er ve
Ġsec ured
Ġincre ase
Ġpre ced
Ġdem onstr
Ġfind s
ent ry
t t
l p
Ġado pt
w are
Ġb ase
Ġneg lig
Â ¶
Ġw r
Ġveh icle
Ġs ol
Ġrelations hip
Ġexist ing
Ġaff irm
6 4
Ġoper ating
i vers
Ġf our
Ġm ail
Ġcontin ue
Ġcent er
Ġrefer red
it ing
in a
com p
ĠĠĠĠĠĠĠĠĠĠĠĠĠĠĠĠĠĠĠĠĠĠĠĠĠĠĠĠĠĠĠĠ Ġ
6 3
Ġop en
Ġinvol ved
Ġh osp
ent ly
c r
Ġ201 9
Ġd rug
Ġ6 0
Ġbelie ve
Ġb rown
Ġm or
Ġregul ation
Ġd oll
w ork
Ġm any
Ġposs ession
Ġk e
Ġrev enue
Ġrepresent ative
Ġapp lied
Ġ ,
Ġpen al
ent ure
Ġstat us
Ġne xt
Ġcal c
Ġrec omm
Ġw ater
5 1
Ġ200 0
Ġcol le
Ġprevious ly
Ġindic ated
Ġcon vers
Ġrem o
Ġind ust
Ġ200 3
Ġv ict
Ġw ord
gu age
vir on
ful ly
Ġrequire ment
c ol
Ġhold ing
Ġobt ained
m al
Ġprob le
ac ity
our ces
l ict
> <
y l
Ġpro hib
Ġmeet ing
Ġqu arter
Ġprote ction
Ġli en
Ġf re
Ġser ies
Ġtr ue
Ġequip ment
Ġlan guage
Ġ201 6
Ġp ut
in ed
with standing
x a
Ġfam ily
Ġchan ges
b ted
o per
us es
Ġd er
Ġb est
Ġact ive
Ġsh ort
Ġbal ance
it or
Ġg e
Ġappro xim
Ġun ion
6 1
Ġh arm
a u
Ġgo ing
Ġlit igation
ĠâĢ Ķ
ĠĠĠĠĠĠĠĠĠĠĠĠĠĠĠĠĠĠĠĠĠĠĠĠĠĠĠĠĠĠĠĠ ĠĠĠĠĠĠĠĠ
Ġpage id
Ġto gether
ĠĠĠĠĠĠĠĠĠĠĠĠĠĠĠĠĠĠĠĠĠĠĠĠĠĠĠĠĠĠĠĠ ĠĠĠĠĠĠĠ
re c
Ġproced ure
Ġo h
6 2
Ġopport unity
Ġs ing
Ġknow n
ver t
Ġsuper vis
Ġexc lus
li er
bur se
Ġe con
Ġcomm erc
Ġrestrict ed
Ġhosp ital
is ition
Ġne ither
Ġproper ly
Ġappell ate
Ġchar ges
Ġful ly
Ġ5 9
5 3
l ord
ar k
Ġliqu id
Ġ200 4
Ġecon om
n m
Ġappro ved
= =
Ġper t
Ġto ld
Ġjud icial
Ġprot ect
Ġ '
Ġfact ors
Ġde v
Ġincre ased
Ġco verage
Ġenforce ment
er ia
5 2
Ġansw er
Ġcontem pl
Ġown ed
at ives
s c
o ot
hing ton
Ġmet hod
5 7
Ġaccount s
is ter
b b
Ġconv iction
Ġas ked
Ġty pe
Ġwill iam
Ġdi vid
n f
as ter
Ġconcer ning
Ġen viron
Ġsign ed
Ġs oc
enc ies
Ġsc hed
Ġcon sul
Ġmajor ity
Ġcontr ary
Ġhe ad
Ġan t
Ġme as
Ġdeli ver
k h
Ġ `
Ġcont act
Ġregist rant
os is
Ġcomp ly
ne l
ir ing
Ġh y
Ġv ir
Ġclear ly
Ġnot withstanding
Ġw al
d a
Ġameric an
Ġl a
Ġcomp an
Ġrem ain
em ption
an a
Ġquest ions
Ġguil ty
Ġbur den
Ġab ility
Ġexp ense
Ġar r
Ġlo ok
Ġgu id
Ġcontract s
ig h
Ġi ii
Ġv is
ren ce
b r
Ġsubstant ially
Ġvict im
Ġpro spect
Ġar ising
Ġinde bted
Ġacqu isition
Ġassoci ation
cri ption
Ġc lo
Ġm un
Ġposs ible
Ġaut om
Ġim m
Ġcrit eria
u ck
Ġland lord
Ġcommission er
Ġo k
Ġun re
Ġdet ail
Ġm ax
nt h
Ġphys ical
Ġrev ol
Ġ200 1
Ġinterp ret
k i
Ġcap acity
ent al
en ed
ilit ary
Ġ201 7
Ġcontro ll
Ġwe e
Ġrespect ive
n is
Ġserv ed
Ġc ross
Ġappelle e
Ġintern ational
Ġs ought
Ġsen ior
Ġ( "
Ġlab or
t r
Ġse x
Ġdetermin ing
is ions
Ġsu gg
Ġindebted ness
âĢĿ ).
Ġs old
Ġal tern
Ġf if
Ġconf lict
ĠĠĠĠĠĠĠĠĠĠĠĠĠĠĠĠĠĠĠĠĠĠĠĠĠĠĠĠĠĠĠĠ ĠĠĠĠĠ
Ġt urn
Ġelig ible
Ġacknow led
ve red
Ġd ed
am p
Ġn orth
Ġun it
Ġre nt
Ġassoci ated
b al
Ġd own
Ġco ven
Ġthere after
Ġlike ly
Ġus ing
Ġ4 2
Ġdo ct
Ġdel ay
Ġaff irmed
ra v
Ġremand ed
ou n
m on
ul ated
Ġab use
Ġclaim ed
Ġaff airs
Ġbu yer
o ff
Ġcont ends
Ġli abilities
ind ing
u ation
9 8
Ġattorne ys
Ġshow n
Ġcompan ies
uf act
Ġserv ic
Ġg a
Ġpolic ies
Ġf ree
Ġ5 8
Ġre se
r imin
Ġ0 4
Ġfa ith
Ġpre c
Ġpro of
Ġconstitution al
te x
Ġst ep
Ġconsolid ated
Ġth reat
Ġimpro ve
Ġwas hington
Ġdiv ision
Ġd om
Ġadministr ation
Ġd an
Ġch air
................................ ................................
con nected
Ġdec id
Ġm and
l ies
Ġconv ict
t le
p age
Ġident ified
Ġconsist ent
Ġm ilitary
Ġimp air
ĠâĢ ĺ
roug ht
n in
op e
Ġco vered
Ġim posed
Ġf ourt
Ġimp lement
Ġoper ation
n b
Ġ# :
Ġacc ru
Ġstandard s
Ġcommun ity
Ġappe ar
Ġre im
Ġgreat er
Ġm iss
ĠĠĠĠĠĠĠĠĠĠĠĠĠĠĠĠĠĠĠĠĠĠĠĠĠĠĠĠĠĠĠĠ ĠĠĠĠĠĠĠĠĠ
Ġregist ered
s ide
Ġnot hing
Ġchar ged
Ġord ered
th ing
Ġprem ises
Ġrep la
Ġexec ution
Ġman ufact
Ġab le
d ef
Ġaffili ates
9 7
ro du
Ġissu ance
act er
Ġwith d
Ġm ur
Ġdoc ket
Ġalleg ations
Ġf el
Ġwho le
Ġf unction
Ġinclud es
Ġme re
Ġmaint ain
Ġallow ed
Ġtr ade
Ġb rought
Ġdepos it
Ġsymptom s
Ġcr ime
Ġh on
Ġbuild ing
Ġgovernment al
5 00
Ġ ________________
Ġ0 7
Ġexpress ly
Ġatt ached
Ġp sy
Ġexper t
Ġsoc ial
Ġas su
Ġw or
Ġdecl ar
Ġun its
Ġsa f
Ġst ill
Ġar rest
Ġcontinu ed
Ġdesign ated
Ġprev ent
Ġpract ice
Ġpl ans
Ġprovid ing
ĠĠĠĠĠĠĠĠĠĠĠĠĠĠĠĠĠĠĠĠĠĠĠĠĠĠĠĠĠĠĠĠĠĠĠĠĠĠĠĠĠĠĠĠĠĠĠĠ ĠĠĠĠ
. Â·
g ing
Ġcontempl ated
Ġmanag er
Ġrevol ving
Ġpsy ch
d ict
re en
Ġcl er
Ġapp oint
b s
Ġdou bt
Ġresult ing
at ic
Ġcommerc ial
in o
Ġas sum
enc ed
Ġaccount ing
c f
Ġpat ent
Ġcorpor ate
i ary
Ġinvest ments
ĠĠĠĠĠĠĠĠĠĠĠĠĠĠĠĠĠĠĠĠĠĠĠĠĠĠĠĠĠĠĠĠ ĠĠĠĠĠĠĠĠĠĠĠĠ
ri al
Ġother s
n g
ĠĠĠĠĠĠĠĠĠĠĠĠĠĠĠĠĠĠĠĠĠĠĠĠĠĠĠĠĠĠĠĠ ĠĠĠĠĠĠĠĠĠĠĠĠĠĠ
Ġthere in
Ġbe gin
Ġsu st
Ġse arch
Ġ :
v a
f ol
Ġk nee
it ation
ve y
Ġmaterial s
Ġprof ess
Ġsm ith
Ġdis position
Ġsection s
Ġorgan ization
Ġeff orts
iv al
Ġvot ing
im ate
Ġapproxim ately
Ġ7 8
Ġre vers
. [
Ġm uch
Ġdisp ute
ot t
Ġf ar
Ġver dict
jud ic
Ġsched ul
Ġit self
Ġs k
Ġobje ction
ĠĠĠĠĠĠĠĠĠĠĠĠĠĠĠĠĠĠĠĠĠĠĠĠĠĠĠĠĠĠĠĠĠĠĠĠĠĠĠĠĠĠĠĠĠĠĠĠ ĠĠ
Ġprom pt
Ġlimit ations
Ġ3 4
Ġoh io
as h
Ġen c
ĠĠĠĠĠĠĠĠĠĠĠĠĠĠĠĠĠĠĠĠĠĠĠĠĠĠĠĠĠĠĠĠĠĠĠĠĠĠĠĠĠĠĠĠĠĠĠĠ Ġ
Ġcon se
Ġrespons ible
Ġmem or
Ġconc ur
Ġsu sp
Ġt em
Ġconclud ed
read y
Ġ3 3
Ġpl ed
s a
ĠĠĠĠĠĠĠĠĠĠĠĠĠĠĠĠĠĠĠĠĠĠĠĠĠĠĠĠĠĠĠĠ ĠĠĠĠĠĠĠĠĠĠ
Ġholder s
e ad
as k
Ġ9 0
Ġcommit ted
Ġsing le
Ġv ac
Ġl ow
Ġagent s
Ġnot ify
Ġqu ot
ĠĠĠĠĠĠĠĠĠĠĠĠĠĠĠĠĠĠĠĠĠĠĠĠĠĠĠĠĠĠĠĠ ĠĠĠĠĠĠĠĠĠĠĠ
Ġsaf ety
ĠâĢ ¢
Ġear lier
Ġvar ious
Ġinvest igation
Ġchar acter
Ġd uly
ph as
Ġded u
id a
i ate
ar c
Ġown ership
Ġasse t
Ġf ix
res pon
Ġind irect
Ġmot her
om et
Ġshow ing
ĠĠĠĠĠĠĠĠĠĠĠĠĠĠĠĠĠĠĠĠĠĠĠĠĠĠĠĠĠĠĠĠ ĠĠĠĠĠĠĠĠĠĠĠĠĠĠĠ
Ġfact ual
Ġcompet ent
Ġl ower
Ġconduct ed
Ġpot ential
Ġ0 5
Ġactual ly
Ġgiv ing
erg y
Ġj e
9 4
at ors
Ġav oid
u es
, \
Ġdeg ree
Ġdis s
em ploy
en ess
in t
Ġf lo
Ġtele ph
n y
Ġ {
b a
Ġ ess
Ġn at
Ġob serv
Ġext ension
Ġcurrent ly
ee p
Ġsm all
Ġocc up
n es
Ġbond s
Ġhe lp
Ġj ob
Ġal ready
ĠĠĠĠĠĠĠĠĠĠĠĠĠĠĠĠĠĠĠĠĠĠĠĠĠĠĠĠĠĠĠĠ ĠĠĠĠĠĠĠĠĠĠĠĠĠ
Ġqual ified
ĠĠĠĠĠĠĠĠĠĠĠĠĠĠĠĠĠĠĠĠĠĠĠĠĠĠĠĠĠĠĠĠĠĠĠĠĠĠĠĠĠĠĠĠĠĠĠĠ ĠĠĠ
Ġform er
Ġent ry
Ġhold ings
Ġimp act
Ġdisch arge
Ġactiv ity
) ).
Ġ1 01
Ġu l
Ġtime ly
oin ted
h a
Ġmult ip
Ġeduc ation
Ġconclud e
Ġvot e
Ġo ptions
Ġg as
Ġhig her
l in
n p
eren ces
ord in
Ġd ra
Ġro ad
Ġsp e
Ġameric a
Ġcom ment
c ing
qu ot
Ġoff ered
Ġloc ated
Ġbo ok
Ġp ending
Ġo w
Ġinstru ctions
Ġclo se
Ġ6 8
Ġwitness es
Ġfor ward
Ġ199 9
Ġport fol
Ġwe ight
y ond
Ġp ast
Ġint rodu
Ġ ended
ic les
Ġth ough
Ġe uro
r is
Ġexam ple
Ġ â
ri es
s ign
f erence
ad a
pl ay
Ġneglig ence
Ġint ention
Ġagg rav
Ġdec isions
Ġd one
r s
Ġinc ident
Ġwork ing
our ce
Ġen sure
t d
c he
x x
Ġ9 9
Ġrepresent ation
re v
Ġbenef ici
d o
Ġvol unt
Ġdisc overy
id av
r q
ut or
it able
Ġ3 2
ici ency
Ġsole ly
Ġwh y
Ġcall ed
Ġp ow
Ġacqu ired
Ġinvest ig
Ġprogram s
Ġb la
Ġmed ic
on es
Ġp un
n and
Ġimport ant
. '
Ġcler k
Ġexp ected
Ġrem aining
an ch
le x
Ġdismiss ed
Ġli able
b or
Ġunder stand
Ġ0 8
ĠĠĠĠĠĠĠĠĠĠĠĠĠĠĠĠĠĠĠĠĠĠĠĠĠĠĠĠĠĠĠĠĠĠĠĠĠĠĠĠĠĠĠĠĠĠĠĠ ĠĠĠĠĠ
Ġcommit ment
Ġbe yond
iv ing
Ġrepresent ations
Ġer red
Ġperform ed
lis hed
Ġs l
Ġn one
Ġadministr ator
le t
Ġlist ed
te xt
Ġout side
Ġaff idav
Ġad mitted
n h
Ġguarant or
Ġorder s
Ġordin ary
Ġaud it
Ġa verage
Ġh um
Ġden ial
Ġacc ident
Ġple a
Ġun d
Ġtak ing
en um
Ġl ay
Ġinsu red
Ġinstru ment
law are
Ġ10 6
Ġfac ilities
Ġdam age
Ġevent s
Ġre n
Ġappellant s
Ġcar ry
Ġle ave
Ġrese arch
Ġ7 9
Ġarr ange
Ġpr ison
Ġmin imum
Ġre ject
Ġmax imum
Ġsou th
Ġall oc
Ġ199 7
o pp
Ġaff ord
Ġdisc rimin
Ġret ire
y ear
Ġconsul t
Ġro b
Ġportfol io
ge t
Ġarbitr ation
ex t
Ġcomple ted
Ġfl or
Ġen ergy
a red
er ted
Ġ3 7
ug h
Ġconvers ion
Ġreim burse
Ġtrans port
Ġpre p
Ġhour s
Ġitem s
Ġres erv
Ġrecomm end
Ġreview ed
st on
Ġde laware
Ġpriv ile
Ġassess ment
Ġrepresent ed
Ġk ind
Ġres ources
par agraph
Ġf al
ro ll
icip al
Ġinstru ction
Ġacc omp
Ġnor mal
Ġabs ence
Ġra ised
Ġr at
re l
Ġaffect ed
Ġm ut
Ġst aff
Ġsugg est
Ġeconom ic
Ġprofess ional
Ġind enture
Ġmemor and
Ġm ental
Ġdef er
Ġgro ss
Ġreg ional
Ġu t
Ġ4 4
Ġany thing
Ġsatisf ied
Ġground s
Ġconf irm
re p
Ġb on
Ġ6 9
Ġcust ody
ch an
Ġsub d
ter s
ent h
Ġunder lying
Ġchair man
Ġl ot
Ġa ge
Ġprejud ice
Ġre vis
Ġfund ing
Ġsentenc ing
Ġmun icipal
hold ing
Ġadequ ate
Ġrel i
Ġtr aining
Ġteleph one
Ġse lect
enc es
Ġ199 8
Ġflor ida
Ġproper ties
Ġde b
/ /
fer red
Ġsystem s
Ġ8 8
Ġ4 6
Ġr ange
Ġcre ated
Ġdiff ic
Ġdisc l
pa red
Ġ" [
201 7
Ġfir m
w l
Ġ %
Ġst ri
Ġtr ad
Ġm al
Ġw il
Ġun f
Ġact ing
Ġpercent age
Ġth ings
Ġconstru ed
am ed
Ġimpair ment
Ġtre as
Ġpart ner
Ġon ce
ut ing
Ġc ard
se ction
er ation
Ġadv ance
Ġshow s
Ġ iv
al ed
ve re
Ġco oper
Ġfail s
Ġeng aged
Ġadopt ed
Ġ9 8
re es
Ġlong er
Ġthan k
Ġ ...
Ġappe ars
Ġb inding
Ġaltern ative
Ġelect ronic
Ġb ody
n ame
re m
Ġindividual s
Ġg un
ual ly
Ġad judic
we ll
respon d
m b
Ġphys ici
ĠĠĠĠĠĠĠĠĠĠĠĠĠĠĠĠĠĠĠĠĠĠĠĠĠĠĠĠĠĠĠĠĠĠĠĠĠĠĠĠĠĠĠĠĠĠĠĠ ĠĠĠĠĠĠ
ag ree
Ġfin ally
ur ity
Ġ8 9
Ġ0 2
Ġcount ry
Ġpre sum
Ġar m
i at
Ġcommunic ations
Ġequ ival
Ġsur v
Ġsee king
Ġfa ce
Ġstand ing
it ution
Ġ 00
Ġun p
Ġle ader
se t
Ġstat utes
Ġinst ead
Ġtermin ated
Ġinstit ution
Ġexist ence
Ġp o
Ġword s
l s
Ġfourt h
l u
Ġ0 3
a el
Ġexc lud
. ]
Ġto ok
il ateral
Ġlic ens
Ġdecid ed
Ġrep e
Ġdiscuss ed
Ġp red
om in
Ġmore over
ost ic
c le
la im
Ġtermin ate
ter m
Ġtransfer red
iz ing
Ġmot or
Ġretire ment
Ġt al
or gan
Ġbro ad
Ġcar ri
Ġch o
Ġcont ain
Ġshare holders
Ġwh om
Ġpre pared
Ġem erg
Ġ199 6
Ġpurch ased
Ġdirect ed
Ġsim p
f ed
Ġst art
Ġrecogn ized
Ġrec ent
Ġser ve
g al
Ġ1 20
Ġc e
f r
Ġw ife
Ġmemorand um
Ġt able
ur ch
c ert
Ġremed ies
Ġem ail
en ance
Ġf all
Ġb ound
Ġexp o
Ġwh ose
Ġprodu ction
Ġsee k
Ġman if
Ġple ad
r ist
Ġr ates
Ġwithd raw
Ġde ed
Ġdiagn ostic
Ġdoll ars
Ġ4 7
Ġun able
Ġdebt ors
Ġwor ld
e ffect
Ġprompt ly
Ġst ruct
Ġl arge
Ġcl in
Ġaccept ed
Ġstr ateg
Ġfal se
Ġreturn ed
Ġo il
Ġj ames
Ġp an
Ġg lo
Ġexcept ion
Ġf ather
end ar
Ġcert ified
Ġs omet
Ġ5 3
or m
Ġa p
Ġpro ve
Ġapp lies
Ġjohn son
? \
Ġsuccess or
Ġtre ated
Ġrequest s
Ġpa per
a ction
Ġperiod s
Ġbe com
Ġenviron mental
Ġneg ot
Ġinterpret ation
Ġ |
Ġro bert
Ġinst all
um n
Ġmer its
Ġr ich
Ġr un
Ġremed y
Ġregul atory
Ġneed ed
Ġcontinu ing
Ġm id
Ġrec overy
Ġu r
Ġmar k
Ġrestrict ions
Ġmak es
Ġcounter part
Ġregul ar
ts d
Ġrul ing
Ġcal endar
Ġfire arm
Ġdis abilities
Ġbla ck
Ġwarrant s
) :
Ġco ver
Ġin qu
Ġf ield
phas is
Ġwr ong
Ġge or
m ore
Ġmaint enance
Ġ{ Â¶
Ġun ivers
Ġmer ger
Ġsubst ance
Ġwas h
Ġprincip les
r ight
ther n
Ġrec over
Ġ5 6
Ġoffer ing
serv ice
Ġa f
n am
en g
Ġbo x
Ġsupplement al
Ġprim ary
oin ts
a a
in ent
Ġsc ope
Ġst ay
Ġemploy ed
p ir
Ġinform ed
er ce
Ġexpo sure
Ġ8 0
i ents
Ġp tsd
Ġn y
ĠĠĠĠĠĠĠĠĠĠĠĠĠĠĠĠĠĠĠĠĠĠĠĠĠĠĠĠĠĠĠĠĠĠĠĠĠĠĠĠĠĠĠĠĠĠĠĠĠĠĠĠĠĠĠĠĠĠĠĠĠĠĠĠĠĠĠĠĠĠĠĠĠĠĠĠĠĠĠĠĠĠĠĠĠĠĠĠĠĠĠĠĠĠĠĠĠĠĠĠĠĠĠĠĠĠĠĠĠĠĠĠĠĠĠĠĠĠĠĠĠĠĠĠĠĠĠĠ ĠĠĠĠĠĠĠĠĠĠĠĠĠĠĠĠĠĠĠĠĠĠĠĠĠĠĠĠĠĠĠĠĠĠĠĠĠĠĠĠĠĠĠĠĠĠĠĠĠĠĠĠĠĠĠĠĠĠĠĠĠĠĠĠĠĠĠĠĠĠĠĠĠĠĠĠĠĠĠĠĠĠĠĠĠĠĠĠĠĠĠĠĠĠĠĠĠĠĠĠĠĠĠĠĠĠĠĠĠĠĠĠĠĠĠĠĠĠĠĠĠĠĠĠĠĠĠĠ
v iew
Ġincorpor ated
c il
Ġcon n
ak ing
g h
Ġ7 5
Ġinvol ving
Ġrespons ibility
ce ment
Ġconclus ions
Ġth om
ĠâĢľ [
Ġ4 1
d c
u h
f ord
er y
Ġgrant ing
Ġre nd
Ġresol ution
Ġ199 5
Ġ row
Ġexpl ained
Ġpla ced
Ġm ove
8 5
Ġcontrol s
Ġargu ed
Ġcoven ants
Ġty p
Ġrepresent atives
Ġa ware
Ġl ou
Ġfinanc ing
Ġen act
Ġ4 3
Ġdoct r
Ġproble ms
Ġv ice
> </
Ġp et
Ġhum an
Ġass erted
Ġd ire
v an
Ġm cc
Ġbegin ning
Ġdo ing
Ġcre ate
âĢ Ĳ
Ġindic ate
Ġc ateg
Ġredu ction
Ġf arm
Ġli ens
at t
__ _
Ġper man
Ġpert inent
Ġmin or
Ġj r
Ġto wn
i pp
us ing
ĠĠĠĠĠĠĠĠĠĠĠĠĠĠĠĠĠĠĠĠĠĠĠĠĠĠĠĠĠĠĠĠĠĠĠĠĠĠĠĠĠĠĠĠĠĠĠĠ ĠĠĠĠĠĠĠ
Ġmich ael
Ġdes cription
Ġk eep
Ġre new
Ġident ify
Ġtax pay
ro g
is a
Ġser ious
Ġcit iz
ous ly
Ġr ad
Ġf ri
Ġwee k
Ġtem por
v i
Ġne ar
Ġimpro per
Ġparticip ation
Ġlegisl ature
Ġinj ur
Ġperson nel
Ġpreced ing
Ġletter s
ent y
t ime
Ġor al
Ġda vid
Ġinvest or
1 01
is m
en e
Ġl td
9 3
Ġent ities
Ġrec on
Ġpow ers
Ġe as
Ġre ve
9 0
Ġh ard
Ġb ud
: //
Ġdiscuss ion
ub lic
Ġw is
ren cy
Ġamend ments
Ġdiagn osis
Ġin sure
Ġprem ium
Ġcom e
er ing
Ġal ign
Ġsimp ly
Ġm it
Ġ5 5
Ġgu ard
Ġest im
n w
Ġexper ience
Ġul t
Ġaddress ed
Ġw l
Ġy et
n et
Ġw at
Ġaffili ate
Ġc ited
n on
b ut
Ġtechn ology
enc ing
Ġ510 3
Ġpl us
Ġprior ity
Ġsupport ed
Ġcontroll ed
Ġfl ow
Ġs ide
Ġaccru ed
ct ed
m a
Ġmonth ly
Ġservic er
Ġcomp ut
se y
Ġcertific ates
Ġare as
Ġf oot
Ġsex ual
Ġ7 0
Ġnot ices
ic o
Ġbr ing
Ġden ying
Ġviol ated
Ġloss es
Ġacc ur
og raph
Ġpartn ers
g round
Ġpre ferred
Ġtra ff
Ġm aster
Ġwh ite
ff icient
Ġguid el
Ġmultip le
d q
Ġreceiv ing
Ġele ments
Ġcop ies
Ġren der
Ġaffidav it
effect ive
app ro
ron t
Ġsu re
Ġag encies
Ġb ilateral
b and
anc ed
Ġt arge
Ġrend ered
Ġmod ified
9 5
Ġm il
al id
Ġpract ices
Ġpenal ty
he re
Ġgovern ing
Ġw ent
Ġh ous
Ġaward s
Ġg row
Ġ199 1
Ġcont ent
Ġsuper ior
Ġsign ature
Ġg reen
Ġatt rib
Ġwarrant ed
d f
Ġdoctr ine
Ī Ļ
Ġcomm erce
Ġopin ions
Ġdis play
miss ible
Ġindust ry
Ġind ict
Ġcoun cil
Ġsp ine
m l
Ġhon or
Ġprosec ution
Ġpre l
o red
pay ment
Ġcustom er
Ġinv alid
Ġ ille
Ġcontract or
Ġthom as
9 6
Ġa ch
Ġborrow ing
Ġb all
Ġissu ing
. âĢĻ
Ġinc ent
o y
n pro
Ġdesign ed
Ġres erve
ĠĠĠĠĠĠĠĠĠĠĠĠĠĠĠĠĠĠĠĠĠĠĠĠĠĠĠĠĠĠĠĠĠĠĠĠĠĠĠĠĠĠĠĠĠĠĠĠ ĠĠĠĠĠĠĠĠ
Ġcont ext
Ġinjur ies
Ġpol it
Ġmere ly
Ġa id
m o
Ġprel imin
Ġnat ural
Ġfe et
Ġmur der
Ġb i
Ġprob ation
b ased
Ġv est
sign ed
Ġst ip
we alth
Ġcredit ors
ail y
l q
11 1
Ġchallen ge
em phasis
n re
Ġm ag
qu e
Ġm ass
Ġprospect us
Ġtr ading
r ison
Ġapp ointed
Ġ5 1
cri pt
w rit
Ġthir ty
Ġprom ot
Ġredu ced
Ġdef ect
Ġre op
i ated
Ġple ase
Ġpro pos
Ġshe et
Ġm ain
or ies
Ġpsych iat
am s
Ġwa ived
Ġsubd iv
Ġunre ason
go v
Ġmr s
ress ion
Ġremo val
" )
Ġfix ed
Ġapp arent
Ġthere by
Ġs ource
n ings
Ġ6 5
Ġprelimin ary
Ġmot ions
Ġdec la
f ield
Ġlit tle
ist ent
Ġst op
ers on
Ġhim self
Ġf oc
Ġloc ation
Ġcommon wealth
Ġlegisl ative
quot ing
ca a
h am
Ġe lement
Ġex empt
Ġwe a
Ġqual ity
Ġdeg rees
Ġglo bal
ne x
Ġch ronic
Ġ5 4
Ġm art
Ġmaint ained
Ġ199 4
d oc
Ġcolle ction
Ġphysici an
Ġexp ir
Ġ20 21
p o
col umn
ĠĠĠĠĠĠĠĠĠĠĠĠĠĠĠĠĠĠĠĠĠĠĠĠĠĠĠĠĠĠĠĠĠĠĠĠĠĠĠĠĠĠĠĠĠĠĠĠ ĠĠĠĠĠĠĠĠĠ
Ġde le
Ġj ones
r ation
Ġatt ack
Ġ5 2
wh ich
w ide
Ġsit uation
Ġ7 7
Ġwarrant ies
Ġn amed
d s
Ġte ll
Ġse lf
Ġle ad
Ġgr and
Ġd aily
Ġexist s
Ġrequ iring
Ġfur nis
s hip
con duct
ok e
Ġindirect ly
Ġh ab
app ell
l or
com m
Ġvar i
Ġ9 7
Ġcol name
Ġh tt
id ge
um p
Ġm ention
v ille
Ġhe ard
Ġ6 6
% ,
ab les
Ġl es
Ġc ance
Ġcert ification
Ġno v
ino is
Ġdiscl osed
Ġdepos ition
Ġha pp
8 6
Ġd il
Ġassist ant
Ġto day
Ġcl ient
Ġj ack
Ġdeclar ation
Ġtest ing
Ġc od
Ġun law
Ġappoint ment
Ġneed s
Ġro om
l der
Ġdan ger
Ġt ort
ove red
Ġcor respond
nt o
at ter
Ġre in
Ġdes crib
Ġb lo
Ġ199 3
ĠĠĠĠĠĠĠĠĠĠĠĠĠĠĠĠĠĠĠĠĠĠĠĠĠĠĠĠĠĠĠĠĠĠĠĠĠĠĠĠĠĠĠĠĠĠĠĠ ĠĠĠĠĠĠĠĠĠĠ
Ġbenefici ary
8 4
way s
Ġcomplaint s
c laim
Ġm ary
Ġadjust ment
Ġhe n
Ġk new
pon s
Ġsepar ation
Ġfin ance
Ġe ver
whe re
n it
s d
8 1
Ġear ly
Ġliquid ation
Ġocc as
iz es
Ġb er
Ġcustom ers
su s
Ġ________________ ________________
Ġsa fe
ask a
e v
y y
Ġsub s
Ġre ach
Ġcont ains
he n
Ġfif th
Ġpar k
Ġdec ree
Ġa round
Ġwilliam s
a f
Ġg ave
Ġdismiss al
Ġoccur rence
* ]
ut y
Ġconvict ed
Ġdis ab
** **
Ġvir gin
Ġunder signed
Ġinstru ments
o le
Ġg l
Ġach ie
Ġatt ention
Ġh us
Ġinj unction
Ġb id
Ġinte gr
Ġ198 3
th at
Ġapplic ant
Ġ9 4
Ġill inois
Ġaward ed
e as
Ġeng ine
Ġaggrav ated
Ġborrow ers
Ġtw enty
b le
Ġunder t
Ġsen ator
Ġdetermin es
g ue
Ġexpir ation
Ġexper i
iz ations
Ġt im
Ġemerg ency
Ġprovid er
Ġinqu ir
as ing
est ic
Ġs ite
Ġinsu fficient
âĢ ¦
Ġext ended
Ġpl ain
Ġbecom es
Ġshare holder
ne y
Ġequ itable
Ġj u
Ġpolit ical
8 2
Ġtra vel
Ġinv ent
anc y
al d
iv eness
Ġas k
Ġargu ments
Ġcredit or
ific ations
st e
Ġc am
Ġf id
a cc
Ġlou is
s ed
ad o
Ġexp ect
Ġsal ary
Ġbec ame
Ġ11 100
Ġprosec utor
Ġcont ention
ac hes
Ġtr uck
b l
Ġdiscrimin ation
n n
Ġfact or
van ia
== ==
Ġinc ons
Ġcommit ments
Ġfel ony
Ġconstit utes
Ġbud get
o res
Ġd est
Ġrevers ed
Ġsatisf y
Ġschedul ed
Ġg ain
15 9
Ġstock holders
Ġwork ers
Ġmanufact ure
Ġm us
Ġo ld
Ġconse qu
Ġequival ent
Ġsupp ly
Ġal ong
ns yl
und red
d is
Ġfail ing
Ġj oin
Ġsu ite
Ġsuff ered
Ġviol ations
Ġcon vey
Ġfe w
Ġcomp ar
Ġauthor ities
Ġp ension
Ġse em
nsyl vania
Ġs her
et ary
Ġatt ach
Ġincent ive
Ġsust ained
Ġmod ification
Ġtempor ary
Ġguidel ines
om a
Ġd raw
Ġhe ar
Ġp ack
Ġr ail
m od
) )
it is
Ġse vere
Ġcent ral
8 7
Ġdec re
Ġnet work
Ġunivers ity
201 9
Ġw ood
he ld
Ġmat urity
Ġtransport ation
Ġbe gan
Ġguarant y
Ġexclus ive
nth at
er ated
Ġdis agree
Ġen h
Ġposs ess
Ġst ress
Ġmar ri
ig nee
Ġmo ved
Ġredu ce
Ġassert s
su pp
Ġille gal
Ġhus band
Ġaddition ally
Ġcomp on
Ġinvest ors
s g
Ġproble m
Ġacknowled ges
Ġbro ker
Ġ9 5
w kh
us al
Ġg ar
ent ially
Ġto o
Ġfavor able
Ġpen nsylvania
Ġd c
Ġj er
Ġ8 5
Ġtaxpay er
g en
if ies
if t
ld r
Ġparticip ate
Ġfor fe
Ġprot ected
Ġmut ual
ad d
ec ess
Ġsubsequent ly
re w
Ġvalid ity
Ġrich ard
Ġh undred
Ġabs ent
se p
Ġsol ic
Ġmaterial ly
Ġp m
Ġass ault
Ġrec ip
Ġf ood
Ġar ch
Ġred emption
Ġl ib
Ġcomm ence
Ġident ification
Ġris ks
% )
Ġrel ative
Ġbl ock
Ġrespect s
Ġpre ference
Ġde ad
Ġph one
ct ive
Ġv ide
Ġes c
Ġmanif est
c iting
oc ation
m ar
Ġdistrib utions
Ġreimburse ment
Ġind ex
Ġmis conduct
Ġf un
Ġindic ates
Ġindemn ification
Ġobt aining
Ġn av
th is
Ġm ess
Ġc y
k y
Ġres ident
Ġvirgin ia
8 3
Ġinst ant
Ġp oints
y es
e a
Ġ9 1
qu al
Ġafford ed
Ġll p
Ġthere under
19 99
ce ler
quent ly
Ġhous ing
olog ical
whe ther
m ail
Ġcommunic ation
ig ence
c b
c ome
p at
Ġcur rency
Ġg ra
Ġre organ
Ġ7 1
Ġro le
Ġtreas ury
Ġch rist
m er
Ġe ight
m en
Ġc ame
Ġresul ted
Ġinde ed
Ġcom ments
r ay
Ġsee ks
is hed
ich ol
rel ated
ber g
p ite
ol ute
Ġsec ure
Ġmeas ure
Ġs am
r ul
Ġstr ong
Ġlim its
Ġdiagn osed
Ġke y
Ġt ro
n of
Ġunp aid
a ut
Ġpetition ers
Ġ5 7
Ġrel ied
Ġjudg es
Ġpan el
t ion
i k
Ġconsum er
Ġgood s
Ġrecord ed
10 2
Ġexpress ed
ing u
Ġtax able
Ġs aw
Ġ ................................................................
y e
b ank
Ġs il
h u
] ,
9 1
Ġg ot
________ ____
c ra
Ġn ation
Ġperman ent
Ġwhere as
Ġthe ory
Ġattempt ed
Ġfr ank
Ġauthor ization
Ġinf ring
v est
Ġcount s
ain e
9 2
Ġestablis hing
Ġn ichol
Ġstat ing
Ġex emption
Ġ199 2
Ġunder standing
Ġtrust ees
in line
re y
Ġsatisf act
Ġindict ment
Ġl ar
ut able
Ġins pe
Ġ6 3
ĠĠĠĠĠĠĠĠĠĠĠĠĠĠĠĠĠĠĠĠĠĠĠĠĠĠĠĠĠĠĠĠĠĠĠĠĠĠĠĠĠĠĠĠĠĠĠĠ ĠĠĠĠĠĠĠĠĠĠĠ
Ġregard less
Ġal one
Ġprodu ce
Ġ9 6
Ġrow sep
Ġav enue
Ġso ft
Ġ6 7
Ġref used
Ġ7 4
Ġ6 1
Ġwith holding
Ġto ward
Ġrep ay
Ġprec lud
Ġsubdiv ision
Ġs av
Ġprivile ge
Ġinvol ve
Ġdoll ar
Ġar gue
Ġpsychiat ric
b ar
z ard
Ġparticular ly
Ġra ise
Ġdom estic
Ġcont ing
Ġpresum ption
Ġadvis ed
Ġcl ar
Ġr iver
or ter
Ġer isa
Ġpres ence
Ġrating s
Ġtechn ical
ill ed
lis h
Ġtraff ic
ag ing
Ġcol or
w ood
Ġm en
ort ed
Ġassign s
ol ly
Ġe p
Ġbet ter
Ġe ast
ig an
Ġdevelop ed
k ins
Ġ9 3
Ġv ers
Ġguarant ee
Ġ6 2
Ġ199 0
Æ ļ
Ġad mission
rep resent
Ġresid ual
Ġcar ol
per son
Ġess ential
con s
Ġback ground
Ġexec ute
tern al
ro ad
Ġ198 6
"> <
is su
Ġchan ged
Ġpl ant
Ġl ie
Ġtrans cript
ut h
Ġam b
Ġh om
Ġabs olute
ing ly
Ġcit ation
Ġcomb ination
s im
Ġd ates
m c
Ġdiffic ult
Ġca uses
Ġneg ative
Ġdes pite
Ġsupport ing
Ġnot ified
Ġobject ive
Ġdec ide
. âĢĶ
Ġdemonstr ate
Ġdefer red
Ġalle ges
Ġunlaw ful
Ġrem ains
ab et
en ing
Ġresid ence
ro p
y al
h ouse
30 3
ous and
Ġsubst it
Ġthrough out
Ġform s
bo ard
Ġ 000
n al
ĠĠĠĠĠĠĠĠĠĠĠĠĠĠĠĠĠĠĠĠĠĠĠĠĠĠĠĠĠĠĠĠĠĠĠĠĠĠĠĠĠĠĠĠĠĠĠĠĠĠĠĠĠĠĠĠĠĠĠĠĠĠĠĠ ĠĠĠĠ
Ġ15 0
re he
Ġv an
Ġ >
Ġal ter
Ġexhib its
q w
Ġ7 3
Ġinquir y
Ġda vis
ig u
Ġm ach
Ġdist in
ak er
Ġ ~
os es
Ġlicens ed
Ġle ar
Ġsecond ary
Ġ8 1
Ġflo or
Ġown ers
Ġpres cribed
Ġrepresent s
w a
Ġh ill
con st
Ġaffirm ative
Ġcon vert
Ġn ames
Ġcontrib ution
Ġdocument ation
st er
' m
d d
Ġ8 3
x y
g l
Ġ7 6
Ġmill er
Ġbel ief
Ġf la
Ġnum er
Ġph ot
Ġtest ify
Ġl y
Ġprodu ced
Ġpub lished
Ġfore c
Ġart icles
Ġsuccess ors
g ment
h ood
Ġ6 4
Ġ10 7
Ġdisclo se
Ġdri ve
Ġli ber
Ġto p
Ġrele ased
der s
Ġball ot
lic it
Ġsomet hing
Ġassu me
00 5
Ġconcer n
Ġappro ach
Ġproced ural
Ġpr ices
Ġreview ing
it ee
Ġsimilar ly
ens ive
n or
Ġb ad
Ġ( $
Ġw all
Ġdep uty
v ious
Ġreg ister
Ġexp ed
g s
Ġconsum m
el le
Ġth ousand
Ġrest ated
Ġinsure r
Ġfollow ed
Ġfurnis hed
Ġh am
Ġprob able
ra p
Ġremo ved
Ġobserv ed
Ġmod ify
ĠĠĠĠĠĠĠĠĠĠĠĠĠĠĠĠĠĠĠĠĠĠĠĠĠĠĠĠĠĠĠĠĠĠĠĠĠĠĠĠĠĠĠĠĠĠĠĠ ĠĠĠĠĠĠĠĠĠĠĠĠ
Ġimm unity
eng th
v w
Ġc ell
Ġfurther more
Ġc at
Ġun sec
ra j
Ġm ist
i j
Ġshow ed
Ġaccept ance
Ġad vert
Ġconcer ns
v h
Ġwork ed
Ġdis pos
Ġcons pir
Ġsell ing
ĠĠĠĠĠĠĠĠĠĠĠĠĠĠĠĠĠĠĠĠĠĠĠĠĠĠĠĠĠĠĠĠĠĠĠĠĠĠĠĠĠĠĠĠĠĠĠĠ ĠĠĠĠĠĠĠĠĠĠĠĠĠ
Ġeuro pe
Ġpl ay
appell ant
Ġofficial s
Ġsatisfact ory
Ġth ought
Ġte xt
Ġdire ction
b ack
ue l
Ġok ay
Ġevid ent
ist s
g ia
Ġw ind
Ġf lex
Ġr ational
d i
j l
Ġsw ing
Ġexerc ised
Ġinter view
Ġprohib ited
Ġ19 34
Ġac celer
Ġbank s
Ġpreced ent
Ġpay ing
Ġart h
Ġ9 2
Ġ4 09
Ġprof it
Ġmon t
Ġv oid
a z
Ġa ri
Ġg old
Ġtarge t
Ġ8 4
Ġm ind
Ġb ure
Ġel imin
Ġv ia
Ġad mit
Ġel se
Ġle v
Ġv ested
Ġc f
Ġindemn ified
201 8
el s
Ġcontrib utions
Ġbenef icial
Ġf ig
Ġ il
Ġso on
Ġreject ed
Ġsp ace
Ġparent s
Ġj ose
Ġapplic ations
Ġ198 9
ĠĠĠĠĠĠĠĠĠĠĠĠĠĠĠĠĠĠĠĠĠĠĠĠĠĠĠĠĠĠĠĠĠĠĠĠĠĠĠĠĠĠĠĠĠĠĠĠ ĠĠĠĠĠĠĠĠĠĠĠĠĠĠĠ
Ġpun ish
Ġprev ail
Ġdisch ar
ag o
ill ing
Ġoper ate
Ġv caa
Ġ7 2
e ach
ul ative
Ġfraud ul
Ġcitiz ens
Ġden y
on t
Ġcomple tion
Ġvolunt ary
Ġd ur
Ġpro c
Ġcust od
Ġconsider ing
Ġthere on
ic ed
miss ions
Ġ8 6
00 111
Ġpa ul
d r
ou lder
Ġlaw su
Ġup d
r or
Ġblo od
Ġb ra
Ġbeh av
ĠĠĠĠĠĠĠĠĠĠĠĠĠĠĠĠĠĠĠĠĠĠĠĠĠĠĠĠĠĠĠĠĠĠĠĠĠĠĠĠĠĠĠĠĠĠĠĠ ĠĠĠĠĠĠĠĠĠĠĠĠĠĠ
Ġimprove ments
Ġdivid ends
Ġeng age
e ed
Ġw om
Ġreturn s
Ġprim arily
Ġrec ently
Ġbon us
Ġpro gress
Ġfid uc
m at
Ġgrant s
Ġconf erence
Ġobje ctions
Ġant icip
Ġcomput er
Ġu til
Ġpart ial
Ġmag istr
Ġordin ance
] .
le ction
Ġsp ouse
Ġsupervis ion
Ġref und
Ġ ic
Ġrepla cement
Ġext end
Ġd u
Ġse en
mod ify
ul g
Ġ8 2
Ġerr one
Ġle x
ins ki
li ke
Ġre verse
Ġh all
z a
Ġl iving
Ġselect ed
le ft
Ġdev ice
Ġimp rison
c s
ib ilities
Ġclin ical
Ġf ront
Ġok la
Ġ510 7
Ġ3 00
" ).
en a
Ġcred ibility
199 3
ob ile
it ure
o x
Ġje ff
Ġins pect
o v
Ġanal y
Ġn in
Ġc um
Ġstud y
Ġoffic es
Ġbas ic
reg ard
Ġlo st
su al
an n
Ġsit u
Ġleg ally
Ġ1 19
Ġexclud ed
Ġ10 3
Ġindemn itee
Ġmer it
Ġgrow th
200 7
Ġcalc ulated
Ġear nings
wl rq
Ġappeal ed
Ġal c
Ġoccur s
Ġ10 5
Ġincons istent
Ġreli ance
cont ract
Ġmagistr ate
200 6
: \
Ġpermit s
Ġeff ort
Ġs ound
k t
b c
Ġha zard
Ġret ain
Ġvir t
Ġbu y
Ġan k
Ġse ven
Ġ8 7
Ġext ra
sel ves
st ood
par ation
Ġbook s
199 2
Ġm d
Ġob vious
n l
Ġcopy right
Ġen ough
Ġbelie ved
ul ty
Ġdefinition s
Ġtra ck
Ġp op
Ġp g
ition al
ou ra
at ures
Ġmin utes
u ed
o e
Ġdep art
........ ....
Ġposs ibility
Ġwarrant y
t rial
Ġmo b
Ġfil es
ot a
Ġ14 4
p ec
os ition
Ġle ases
Ġunder writ
Ġar ri
Ġ198 8
Ġset ting
Ġfirearm s
Ġimp lied
Ġst ore
Ġcon nected
cl r
Ġcr im
Ġenter pr
Ġhtt ps
Ġcarol ina
Ġjack son
Ġyou ng
Ġdri ver
Ġre ached
' re
ur s
Ġmon itor
su ch
Ġc ut
oh ol
2 000
ic ated
ĠĠĠĠĠĠĠĠĠĠĠĠĠĠĠĠĠĠĠĠĠĠĠĠĠĠĠĠĠĠĠĠĠĠĠĠĠĠĠĠĠĠĠĠĠĠĠĠĠĠĠĠĠĠĠĠĠĠĠĠĠĠĠĠ ĠĠĠĠĠ
Ġintrodu ction
Ġexpl an
Ġgovern ed
Ġre ly
Ġ2 25
Ġt ract
Ġpropos al
Ġoff enses
Ġsh oulder
Ġun if
Ġrepresent ing
00 1
Ġow ed
ap e
as c
Ġstud ent
g a
ro om
Ġgrant or
Ġstruct ure
Ġmar ks
Ġsubstant ive
Ġin m
part y
ex am
Ġ198 5
Ġ198 7
Ġbure au
Ġexp end
Ġb a
Ġann oun
comp any
in son
199 4
Ġ10 4
Ġconspir acy
Ġnot ification
Ġinf lu
Ġl ength
t a
Ġwee ks
Ġconcer ned
m m
10 4
or se
Ġchallen ges
Ġ11 0
Ġappelle es
Ġimp ose
su med
sp ec
im ately
Ġen j
Ġsoft ware
f a
Ġhy per
Ġpenal ties
ee ch
Ġinit ially
Ġ11 1
Ġbe ar
Ġet c
Ġph arm
Ġfiduc iary
Ġw es
Ġbar g
Ġcol umb
Ġk ing
Ġwe bs
n ish
Ġcalc ul
Ġne uro
Ġprocess ing
am a
ap s
Ġcomb ined
ane ous
Ġnecess arily
or ation
f rom
lo sure
Ġarrange ment
Ġdrug s
199 1
Ġp al
Ġof ten
Ġar ms
Ġadjust ed
Ġcont ents
Ġa way
ber y
Ġact ed
Ġsou thern
Ġs ar
Ġ5 00
Ġbehav ior
c are
c or
Ġ _
Ġn ight
Ġ10 2
ans as
Ġrespect ively
Ġas ide
Ġ +
Ġsh ip
Ġpart s
Ġunder stood
Ġesc row
Ġdisc ip
Ġnew s
Ġindividual ly
Ġmo der
m r
Ġdep ri
end ix
Ġeffect s
Ġret ained
Ġacqu ire
Ġref erences
Ġapply ing
Ġte am
Ġr ise
Ġari z
Ġ11 2
in al
f ers
Ġâ ĪĻ
er o
rehe ns
Ġdiss ent
Ġ1 80
rev oc
umb ar
Ġs on
Ġm ic
Ġalc ohol
Ġover rul
Ġdivid end
Ġs ens
199 5
Ġend ing
Ġeffect iveness
Ġattrib utable
h s
Ġdistrib uted
\ \
Ġassu med
m ost
Ġparticip ants
Ġmand atory
Ġir revoc
Ġan ge
Ġlo g
Ġacknowled ged
Ġaffect ing
Ġsp eech
m ing
Ġconfirm ation
pon der
Ġtest s
p ut
Ġadv ances
âĢ¦ âĢ¦
Ġpro pri
Ġadjudic ation
Ġme chan
Ġmarket ing
Ġexcept ions
Ġenviron ment
Ġrespons ibilities
200 2
Ġresol ved
Ġper f
Ġl ate
ol v
Ġp p
Ġ[ **
10 5
Ġstep s
Ġunreason able
Ġe cf
Ġcont aining
Ġc ra
ca p
Ġche m
h ab
Ġth or
Ġsupport s
ie l
col lect
Ġprom ulg
ut ive
Ġthreat ened
Ġveh icles
Ġinspe ction
Ġmich igan
ow a
Ġunsec ured
Ġ198 1
Ġcle an
Ġsubstant iate
Ġrep air
Ġrest r
Ġfun ctions
Ġmention ed
Ġsatisf action
Ġh ot
Ġmarket s
Ġfraudul ent
br aska
Ġestim ated
Ġcoven ant
en er
Ġpre ponder
- \
anc ing
Ġcon ven
Ġse q
Ġinj ured
Ġacc used
e ment
Ġl ink
Ġdesign ation
sim ile
Ġw orth
Ġres ign
Ġin effective
Ġcrit ical
Ġc and
pp er
b f
Ġret ail
Ġimprison ment
Ġimmedi ate
201 6
Ġproject s
at ically
Ġst or
Ġcom es
ot e
Ġapp rec
Ġelect ric
Ġju ven
ex cept
w inski
Ġv o
ur b
Ġinte l
Ġconvict ions
and on
Ġal ways
Ġqu ant
Ġst ation
Ġdiss ol
Ġrem ove
Ġreop en
ĠĠĠĠĠĠĠĠĠĠĠĠĠĠĠĠĠĠĠĠĠĠĠĠĠĠĠĠĠĠĠĠĠĠĠĠĠĠĠĠĠĠĠĠĠĠĠĠĠĠĠĠĠĠĠĠĠĠĠĠĠĠĠĠ ĠĠĠ
Ġguarant eed
Ġcance ll
Ġviol ence
f ace
Ġpat ient
Ġcalc ulation
Ġdet ect
Ġconn ect
Ġalle ge
Ġappe ared
Ġrat io
b i
. ;
Ġim pos
ugh ter
Ġassum ption
Ġder winski
it z
Ġ` `
Ġass ignee
Ġoff ender
Ġland s
Ġlegisl ation
ok ing
Ġ ]
Ġharm less
Ġlevel s
res hold
Ġsen ate
Ġindi ana
re ct
ud e
Ġmeas ures
Ġviol ate
Ġne braska
en ues
Ġgen u
Ġwant ed
Ġwe ak
Ġpr in
Ġs qu
3 40
Ġjer sey
Ġvers ion
on a
Ġautom obile
ĠĠĠĠĠĠĠĠĠĠĠĠĠĠĠĠĠĠĠĠĠĠĠĠĠĠĠĠĠĠĠĠĠĠĠĠĠĠĠĠĠĠĠĠĠĠĠĠĠĠĠĠĠĠĠĠĠĠĠĠĠĠĠĠ Ġ
Ġreorgan ization
Ġcon form
Ġadequ ately
id es
ĠĠĠĠĠĠĠĠĠĠĠĠĠĠĠĠĠĠĠĠĠĠĠĠĠĠĠĠĠĠĠĠĠĠĠĠĠĠĠĠĠĠĠĠĠĠĠĠĠĠĠĠĠĠĠĠĠĠĠĠĠĠĠĠ ĠĠ
Ġevident iary
Ġp ress
Ġnichol son
ver ted
ar i
Ġc oc
25 0
Ġapp ra
app elle
Ġk en
t c
rit is
Ġrevis ed
ww w
Ġre ally
Ġoblig ated
ian a
Ġtrans fers
he ader
Ġchar ter
Ġsche me
Ġadverse ly
Ġeas tern
Ġrecommend ation
Ġsentenc ed
Ġvest ing
Ġnumer ous
Ġreflect s
Ġunif orm
Ġpre paration
Ġguid ance
Ġdisc ount
ed ent
z e
Ġfac simile
Ġles see
en force
Ġinst ance
Ġtyp es
Ġperform ing
Ġt in
Ġnegot i
Ġhab eas
âĢ ĺ
Ġcontract ual
Ġst rict
Ġdist ingu
Ġ ip
Ġsub mission
us ion
is p
Ġpled ge
Ġrepe ated
Ġle e
Ġadv ice
Ġprob ative
Ġcomm and
Ġaccept able
the less
Ġexpl ain
Ġtri ed
ow s
Ġrecip ient
Æ Į
n st
Ġthem selves
Ġquarter ly
Ġpublic ation
Ġr ated
Ġre de
ic ago
Ġhere after
v in
Ġsepar ately
Ġth reshold
" ),
ition s
he t
Ġadvis ory
Ġir re
Ġconsequ ences
Ġchar les
Ġgeor gia
Ġult imately
lect ual
201 5
Ġ =
ay lor
1 20
Ġdid n
Ġ19 80
port ion
Ġfund a
Ġlex is
h oma
Ġrecon sid
il la
w as
Ġl ed
Ġrel ation
Ġlit ig
Ġdetail ed
Ġdeb ts
Ġen for
Ġatt end
olog ies
Ġunf air
Ġl ines
Ġc amp
Ġsever ance
Ġsav ings
Ġwell s
Ġdiff erence
he ad
Ġ11 4
ath y
Ġnever theless
Ġv ii
Ġarrange ments
Ġw ire
Ġl ock
Ġcho ice
ade qu
Ġinterp re
Ġal j
su res
Ġfr anch
201 3
Ġhe d
Ġplead ings
Ġref usal
Ġpreponder ance
Ġconc ed
Ġgrant ee
Ġt ender
Ġjose ph
Ġ10 8
Ġter rit
Ġem b
' d
Ġincorpor ation
200 9
n ch
n i
Ġinvent ory
200 4
Ġplace ment
appro pri
Ġorgan izations
Ġp ip
Ġwas te
Ġpurchas ers
Ġwa ive
un ities
Ġro yal
Ġlawsu it
Ġacknow ledge
Ġconf irmed
201 4
c m
Ġdo or
Ġservic ing
Ġimprove ment
Ġsay s
Ġenh ance
Ġ198 4
Ġsc ott
Ġcontroll ing
Ġjuven ile
Ġmo ving
Ġokla homa
Ġdecla red
Ġ10 9
Ġspe ed
in te
d ec
Ġplan ning
Ġhigh way
ic ing
Ġpre payment
Â ®
Ġconting ent
ou ston
Ġfair ly
Ġwebs ite
Ġb ed
a ul
Ġthere for
Ġac ross
Ġexclus ion
Ġus er
c ourt
Ġw in
Ġhe art
Ġtw el
Ġp ict
Ġdeli ber
ste in
Ġph il
act ed
Ġhar ris
f d
it ch
Ġch icago
Ġmed ia
def endant
Ġmary land
Ġinstit utions
Ġjudg ments
ib ly
Ġindemn ity
Ġ11 5
Ġs le
it ious
z z
Ġrob bery
Ġorgan ized
r d
Ġenforce able
200 8
Ġwork s
Ġis land
Ġpass ed
Ġperson ally
âĢĿ ,
mon th
199 0
Ġinvol ves
ist ing
199 8
c ur
Ġindust rial
Ġcount ries
Ġm i
ce ll
Ġexplan ation
ĠĠĠĠĠĠĠĠĠĠĠĠĠĠĠĠĠĠĠĠĠĠĠĠĠĠĠĠĠĠĠĠĠĠĠĠĠĠĠĠĠĠĠĠĠĠĠĠĠĠĠĠĠĠĠĠĠĠĠĠĠĠĠĠ ĠĠĠĠĠĠĠĠĠĠĠĠĠ
ru ction
an der
ist ics
Ġt x
Ġins olv
ok ed
Ġwith held
Ġs ense
Ġparticip ating
Ġpro xim
Ġn ar
Ġdisab led
Ġcont end
f l
201 2
Ġth ing
Ġgenu ine
ock et
urch ase
d on
Ġreceiv es
Ġval uation
Ġstud ents
Ġrev enues
Ġf at
Ġpos itive
3 00
199 6
te en
Ġwil son
Ġado ption
Ġany one
Ġwash state
Ġbr anch
Ġsy nd
Ġus es
il ed
Ġcontro vers
Ġrec all
ĠĠĠĠĠĠĠĠĠĠĠĠĠĠĠĠĠĠĠĠĠĠĠĠĠĠĠĠĠĠĠĠĠĠĠĠĠĠĠĠĠĠĠĠĠĠĠĠĠĠĠĠĠĠĠĠĠĠĠĠĠĠĠĠ ĠĠĠĠĠĠĠĠĠ
w k
g raph
Ġdra ft
Ġmod el
Ġsub ordin
Ġerr ors
Ġadv anced
id ing
Ġg er
Ġb anc
201 0
Ġd ig
Ġintel lectual
Ġresidual s
Ġs ources
Ġachie ve
ad ed
Ġdri ving
c d
Ġbusiness es
Ġdischar ged
Ġinter rog
Ġext rem
Ġ3 60
Ġmanag ing
Ġsher iff
00 01
Ġtr uth
Ġalleged ly
Ġa k
Ġn r
com mit
Ġcertain ly
Ġcolumb ia
cert ain
x i
Ġcommence ment
Ġs end
is ite
Ġwe b
Ġ 0000
Ġadjust ments
Ġrel ates
Ġasse mb
aut hor
Ġexist ed
ĠĠĠĠĠĠĠĠĠĠĠĠĠĠĠĠĠĠĠĠĠĠĠĠĠĠĠĠĠĠĠĠĠĠĠĠĠĠĠĠĠĠĠĠĠĠĠĠĠĠĠĠĠĠĠĠĠĠĠĠĠĠĠĠ ĠĠĠĠĠĠĠ
Ġdep end
Ġbelie ves
Ġstock holder
Ġstri ke
200 5
Ġdiv or
Ġear ned
Ġh alf
v enth
Ġoper ated
ip s
Ġin g
Ġal i
Ġelig ibility
Ġconsolid ation
b u
ha ust
Ġform al
iss ions
Ġalleg ing
Ġk n
so ever
Ġdis regard
act ive
nes see
Ġmis represent
Ġwithdraw al
w ill
Ġpert aining
Ġne b
ate ver
Ġassess ed
Ġsan ctions
Ġdis burse
Ġelect ed
Ġerrone ous
Ġfur nish
Ġas pect
Ġc ast
ĠĠĠĠĠĠĠĠĠĠĠĠĠĠĠĠĠĠĠĠĠĠĠĠĠĠĠĠĠĠĠĠĠĠĠĠĠĠĠĠĠĠĠĠĠĠĠĠĠĠĠĠĠĠĠĠĠĠĠĠĠĠĠĠ ĠĠĠĠĠĠĠĠ
Ġoblig or
el i
Ġdeal er
se ll
Ġdisp uted
Ġeffective ly
Ġwh olly
cont in
Ġallow ing
Ġvide o
Ġp oll
Ġv es
Ġt end
Ġprep are
Ġtrad em
ĠĠĠĠĠĠĠĠĠĠĠĠĠĠĠĠĠĠĠĠĠĠĠĠĠĠĠĠĠĠĠĠĠĠĠĠĠĠĠĠĠĠĠĠĠĠĠĠĠĠĠĠĠĠĠĠĠĠĠĠĠĠĠĠ ĠĠĠĠĠĠĠĠĠĠ
he aring
t ax
const itution
Ġj j
Ġs ir
................................ ................
Ġinstru cted
Ġsub po
m et
Ġposition s
Ġresol ve
. ),
Ġprof its
Ġassoci ate
Ġdec edent
Ġy ield
Ġconvert ible
ĠĠĠĠĠĠĠĠĠĠĠĠĠĠĠĠĠĠĠĠĠĠĠĠĠĠĠĠĠĠĠĠĠĠĠĠĠĠĠĠĠĠĠĠĠĠĠĠĠĠĠĠĠĠĠĠĠĠĠĠĠĠĠĠ ĠĠĠĠĠĠĠĠĠĠĠĠĠĠĠĠĠĠĠĠĠĠĠ
p la
ph y
Ġref in
d le
Ġsever ity
. :
cra ft
Ġintern et
Ġmis le
n ecess
Ġb od
ĠĠĠĠĠĠĠĠĠĠĠĠĠĠĠĠĠĠĠĠĠĠĠĠĠĠĠĠĠĠĠĠĠĠĠĠĠĠĠĠĠĠĠĠĠĠĠĠĠĠĠĠĠĠĠĠĠĠĠĠĠĠĠĠ ĠĠĠĠĠĠ
Ġcompl ied
Ġrecogn ize
Ġfor um
Ġme x
Ġsust ain
Ġfe ll
Ġsuff iciency
Ġl os
Ġp ool
Ġex act
c p
g n
Ġcand id
Ġbas es
Ġprincip i
im al
Ġmarri age
ul a
rehens ive
) \
Ġe ye
Ġenc oura
Ġsix th
pec ially
Ġfunction al
Ġmart in
Ġj ail
Ġcateg ory
Ġstor age
Ġp ac
s m
Ġinte ll
Ġrequest ing
Ġtwel ve
Ġapp endix
Ġs and
Ġten nessee
Ġad vant
Ġf is
Ġrecomm ended
Ġdele g
Ġrecommend ations
Ġest opp
ist ered
Ġdepos its
Ġab andon
Ġw ww
Ġgeor ge
collect ively
Ġp ages
Ġhist or
Ġover all
Ġcont est
Ġsett led
ger y
h v
Ġwes tern
h y
Ġreve aled
d w
4 00
Ġcr imes
Ġcollect ively
no v
Ġarm y
Ġbro ther
Ġnov o
f c
Ġdiffic ulty
Ġmethod s
q g
Ġleg it
c ode
Ġparagraph s
anc he
Ġdemonstr ated
Ġindic ating
ord ination
Ġalleg ation
Ġreserv es
Ġin adequ
Ġtrans mission
Ġcons erv
Ġalloc ation
wh at
o o
Ġcomple x
Ġconf er
Ġcomm enced
Ġexc luding
10 3
r ust
É Ľ
Ġus a
Ġind u
20 21
Ġand erson
Ġreceiv able
Ġar k
bo ok
Ġv end
Ġsur ren
Ġ @
Ġwh atever
Ġ11 3
Ġmeet ings
Ġg ri
Ġcl osed
Ġtri b
Ġwhat soever
Ġsu spect
Ġrespond ents
Ġro ck
l ant
Ġlouis iana
c iv
Ġinj un
1 25
Ġneglig ent
Ġpres erv
Ġport ions
Ġcla uses
qu est
Ġcons ents
Ġper su
Ġcon ce
Ġ ___
Ġprincip le
v ol
Ġcompl ained
Ġwill ful
Ġinit i
i que
Ġpunish ment
Ġmar ked
Ġne v
Ġlaw ful
Ġmaint aining
w er
Ġ198 2
Ġ19 79
Ġcolle ge
not e
Ġ4 01
Ġcounterpart s
ou ri
Ġex haust
Ġrep ublic
lo g
Ġapparent ly
? ?
app lic
Ġpl at
an o
u ff
Ġcarry ing
Ġeurope an
Ġves sel
Ġfoc us
Ġo mission
Ġh ol
c her
Ġaccur ate
Ġprovid ers
Ġdi vers
Ġnumber s
Ġpriv acy
e en
201 1
Ġappra is
ic able
u pon
Ġdi abet
Ġident ity
Ġdedu ction
Ġsome one
a ired
am b
n for
Ġhyper t
Ġsh ot
Ġre form
ren g
Ġconclud es
Ġb ir
ex c
Ġrel ig
ac her
Ġ19 78
Ġbr ad
Ġh art
Ġbank ing
Ġbill ion
Ġevalu ated
Ġlic enses
Ġun enforce
Ġhigh ly
a e
Ġaddress es
c it
ro y
Ġsignificant ly
Ġir s
Ġb urn
Ġc ru
Ġdetail s
Ġeduc ational
r ick
Ġconse quently
Ġfound ation
on ing
Ġavail ability
Ġautom atically
Ġst ub
Ġoverrul ed
Ġindi an
Ġn ine
Ĥ ¬
Ġcur iam
Ġl umbar
Ġed ward
Ġl if
Ġap artment
199 7
Ġcounter claim
200 3
sg j
Ġun employ
ir s
al es
o j
ing er
Ġestablis hes
Ġins ert
b an
law s
Ġful f
Ġcarri ed
Ġindic ation
s ight
Ġ12 5
Ġ19 33
Ġcomp rehensive
200 1
Ġcert ify
Ġintrodu ced
Ġrail road
Ġinter ven
Ġrespond ed
Ġfr ame
Ġstrateg y
Ġfunda mental
ost er
Ġcum ulative
Ġwr ight
d isc
11 2
ic ation
it ures
Ġlimit ing
Ġt aylor
Ġconstit uted
Ġan nex
Ġdisc overed
Ġmembers hip
Ġexamin ations
d oll
l as
ener ative
e z
Ġrep ly
Ġexp licit
Ġad j
Ġcompon ent
Ġbenefici aries
Ġcoc aine
a ud
Ġqual ify
s en
Ġ </
Ġe ll
Ġexperi enced
Ġpre sumed
Ġcomp ared
ct or
Ġre ading
Ġdanger ous
Ġsupp ress
Ġ ign
Ġmar sh
Ġbe ll
Ġsle ep
Ġimplement ation
Ġdetermin ations
Ġchem ical
Ġes pecially
Ġcolor ado
Ġph ase
Ġa ust
h l
m ond
Ġpromulg ated
Ġdeg enerative
re ll
Ġvolunt arily
Ġar med
Ġch ina
re f
Ġb ul
8 00
Ġpro xy
Ġi owa
Ġph r
Ġmanufact uring
Ġvac ate
Ġmar gin
Ġext r
Ġreceiv ables
Ġl ake
Ġfr anc
Ġserv ing
Ġcit ing
198 6
Ġpar ole
Ġprospect ive
Ġassert ion
b ody
p m
ric ult
Ġdece ased
Ġenter ing
Ġar ise
ne ver
Ġcustod ian
Ġmob ile
Ġs oci
Ġcomp ell
Ġbar red
Ġinter im
Ġhand s
Ġknow ingly
ol s
Ġconsult ant
Ġv enture
Ġcall s
the re
Ġcompl ain
Ġco vid
ang ible
Ġout come
Ġsusp ension
h ow
Ġm ad
Ġple as
Ġg il
Ġinterpre ted
p ublic
Ġvol um
Ġfin e
Ġ11 6
nit us
Ġconfidential ity
Ġj un
um ber
Ġ* **
Ġmisle ading
know n
Ġquot ation
Ġexped itious
Ġcon sec
u ity
ec a
d own
Ġ24 0
Ġdescrib e
Ġv enue
Ġ19 77
Ġtrans fe
Ġpro position
Ġ19 74
Ġb s
Ġtin nitus
gu ard
Ġsufficient ly
Ġmo ore
Ġco al
Ġenact ed
go vern
ĠÂ¶ Â¶
Ġassum ing
Ġexp ort
Ġon going
Ġret ro
tr ans
pt r
Ġdivor ce
Ġarth ritis
w s
ig ue
omm od
Ġle ased
Ġentire ty
Ġmiss ouri
Ġn omin
Ġcomp r
Ġdra wn
âĢĿ );
ak en
Ġoccup ational
Ġauthor ize
Ġadvis or
Ġcontrovers y
Ġst reng
Ġentire ly
g ers
Ġne x
Ġdev ices
Ġfre ed
ol ic
Ġschedul es
ig ration
ay s
Ġass urance
Â »
Ġsc ient
ici ous
qual ified
Ġnear ly
Ġdef iciency
cl ass
Ġreflect ed
Ġres c
Ġindemn ify
Ġstud ies
Ġder iv
Ġcred ible
ar ks
Ġl u
Ġple ading
Ġ3 01
em e
Ġbre ak
Ġair craft
Ġpurp orted
Ġl at
Ġappro ve
Ġless or
m ay
Ġange les
Ġm ac
Ġexamin ed
Ġsentenc es
Ġl ive
Ġchallen ged
Ġ[** *]
Ġal most
Ġle w
anc er
Ġill ness
n we
Ġarbitr ator
b d
Ġseem s
t ra
Ġse at
Ġut ility
Ġh ost
Ġdisp utes
Ġcarri er
ate ment
Ġforfe iture
Ġen able
ex p
Ġc ure
. </
Ġw ard
Ġs s
Ġmor ning
f in
Ġem ot
Ġclass es
Ġless er
ure r
it t
Ġlaw yer
Ġrece iver
Ġd up
Ġst opp
Ġo pt
"> *
Ġforec losure
in i
Ġguil t
Ġinfring ement
Ġin ability
Ġcod es
Ġbl ue
Ġcl ark
Ġr us
Ġprotect ive
Ġnor thern
Ġacc ommod
Ġas king
Ġstip ulation
whe n
Ġb ig
Ġenact ment
Ġd ro
Ġopport unities
un g
Ġ19 75
Ġtechn ologies
Ġwea pon
p ot
198 4
Ġe th
e y
Ġl atter
en n
Ġdur ation
Ġsu c
l son
he rent
Ġter ror
Ġcontinu es
Ġoccas ion
le ar
ic ide
Ġpla ces
Ġcorrect ly
Ġin n
Ġcorpor ations
Ġdef end
id er
Ġinflu ence
Ġrepay ment
Ġrent al
c al
l v
Ġclaim ing
Ġexp and
Ġr ptr
h m
Ġun necess
Ġs r
Ġrenew al
Ġover sight
rom e
g reg
p re
Ġphot ograph
Ġpublic ly
lus ion
Ġall en
Ġfor t
Ġs ize
Ġwe lf
Ġcateg ories
Ġhypert ension
at ology
Ġcl ients
Ġopp osition
Ġfac ilit
and a
Ġsubpo ena
Ġmunicipal ity
n j
Ġun constitution
Ġprejud icial
Ġcollect ed
Ġc ease
Ġspe ak
y le
Ġab used
igu ous
Ġend orse
Ġag ricult
15 6
d es
Ġwelf are
m p
Ġpresent s
l it
Ġjur or
â Ĥ¬
Ġpres erve
Ġinter medi
Ġcol t
ens ions
Ġgo als
Ġrestrict ion
Ġreserv ed
Ġimp lic
Ġsha red
] ;
Ġad missible
20 2
Ġh o
Ġpro portion
Ġinadequ ate
Ġmess age
Ġgen er
" ,
doll ar
Ġinv o
Ġwea pons
Ġre hab
Ġattach ment
Ġcorp us
Ġdoct or
Ġank le
340 54
commit tee
Ġarrest ed
Ġw ages
Ġ20 2
Ġassess ments
Ġgovern or
m t
Ġsuccess ful
Ġfl sd
Ġopen ing
Ġdeal ing
Ġorigin ally
Ġjoint ly
Ġalloc ated
Ġvis it
exam ination
Ġsymptom atology
n con
Ġrede em
Ġse iz
Ġ4 04
Ġn os
Ġtr ying
Ġassoci ates
Ġspec ify
Ġb ow
Ġfa x
Ġconflict s
Ġ11 7
Ġcompet itive
he st
Ġoper ator
Ġe ase
in ternal
Ġrel ate
Ġtak es
Ġb at
Ġpled ged
Ġw y
Ġjur ors
Ġrational e
Ġcomp etition
Ġant i
ĠĠĠĠĠĠĠĠĠĠĠĠĠĠĠĠĠĠĠĠĠĠĠĠĠĠĠĠĠĠĠĠĠĠĠĠĠĠĠĠĠĠĠĠĠĠĠĠĠĠĠĠĠĠĠĠĠĠĠĠĠĠĠĠ ĠĠĠĠĠĠĠĠĠĠĠĠ
Ġd os
Ġcompar able
Ġad a
Ġsuc ceed
ent ures
Ġcon cept
Ġliber ty
Ġun like
Ġsk in
Ġflex ion
bur g
Ġres idential
Ġdiabet es
Ġb it
state ment
Ġallow s
Ġinf erence
Ġlicense e
Ġdepos ited
Ġst ru
pl aintiff
Ġwom en
ag ue
Ġhold s
Ġsqu are
Ġinter state
f la
isp uted
Ġfil ings
Ġr y
Ġrequ isite
Ġga ap
c itation
Ġbr and
Ġenterpr ise
Ġsur gery
Ġca using
ru e
Ġpract icable
Ġk el
Ġevalu ate
Ġc fr
ill s
Ġassign ments
Ġsur vey
Ġrem ained
Ġhazard ous
Ġp ick
Ġ12 1
Ġcorrespond ing
Ġlegit imate
Ġpurchas es
inte rest
Ġlook ing
Ġthere with
Ġh ur
Ġwill ing
Ġsh oot
Ġremain der
Ġess entially
Ġexcess ive
appelle e
30 9
Ġallow ance
Ġcounterpart y
Ġval u
Ġstrateg ic
omp son
ro te
Ġet i
p oint
Ġp ath
ĠĠĠĠĠĠĠĠĠĠĠĠĠĠĠĠĠĠĠĠĠĠĠĠĠĠĠĠĠĠĠĠĠĠĠĠĠĠĠĠĠĠĠĠĠĠĠĠĠĠĠĠĠĠĠĠĠĠĠĠĠĠĠĠ ĠĠĠĠĠĠĠĠĠĠĠ
Ġadmin ister
Ġlie u
Ġadvant age
Ġpat ents
f ive
Ġhonor able
Ġro ll
Ġcap able
Ġpict ure
Ġd un
Ġschool s
Ġinjun ctive
h g
Ġrev ocation
le ments
Ġexpend itures
Ġoff set
Ġcompens able
Ġariz ona
l oc
Ġpursu e
Ġquot ed
Ġinterest ed
graph ic
Ġc ancer
Ġr ata
Ġ19 70
Ġund isputed
Ġprob ability
all as
f s
Ġhe av
Ġident ical
ne ll
t ts
Ġ4 48
ro l
Ġpat ients
r x
Ġdiscretion ary
Ġadvert ising
Ġmid dle
Ġret al
c red
18 7
Ġsurv iving
Ġl ending
c er
Ġimp aired
Ġdecre ase
Ġsub paragraph
Ġcorre ction
Ġconsumm ation
Ġfor ces
ce l
ic ially
Ġrep urchase
lus ive
Ġwashstate c
Ġsugg ested
Ġdistrib ute
av ail
Ġterrit ory
Ġbarg aining
" .
Ġman ual
Ġnev ada
Ġest imate
Ġgroup s
Ġdedu ct
c i
m i
Ġow ing
Ġsubstit ute
Ġestopp el
01 0
Ġmex ico
Ġre but
==== ====
ad ian
Ġcheck s
Ġtr y
Ġtra um
re qu
Ġst age
Ġsix ty
Ġthe ft
ici encies
Ġrehab ilit
our se
Ġc ite
Ġgiv es
Ġbel ong
Ġdissol ution
Ġpun itive
Ġ2 50
1 19
Ġes q
Ġb ag
Ġz oning
Ġ19 73
Ġmer ch
Ġ11 8
Ġr ay
m ark
Ġse ts
Ġ4 00
Ġ12 9
Ġ19 40
Ġ13 0
198 3
Ġ12 2
Ġenc umb
Ġst ee
ach use
Ġfall s
Ġsay ing
198 5
Ġm ck
all ow
ruct ure
Ġmanag ers
Ġconcur rent
Ġob st
Ġexceed s
Ġpop ulation
achuse tts
Ġ12 6
Ġinc ap
Ġh ouston
ol es
7 00
w r
ort ion
g un
Ġcollect ive
Ġ19 76
v d
Ġdep ression
. ).
Ġtransfe ree
h f
Ġs pons
Ġrem ember
Ġult imate
isc o
Ġoccur ring
Ġprob ably
n r
ul ate
Ġmon etary
if i
Ġ12 4
Ġpres sure
Ġinsolv ency
Ġ19 71
Ġdelay ed
ic a
Ġevid enced
Ġim position
Ġth ompson
b est
Ġjust ify
Ġconvers ation
Ġappear ance
iv ity
198 8
cons in
Ġsuper sed
Ġcon verted
Ġpro miss
Ġarch ive
> ;
Ġmult i
Ġclass ification
Ġper s
Ġevalu ations
m n
Ġweak ness
Ġstri king
d b
ch apter
Ġpromiss ory
Ġhar ass
as ive
Ġ19 7
Ġdeclar atory
Ġext reme
Ġk id
Ġdo e
Ġincre asing
Ġch urch
Ġf uel
Ġdist urb
Ġwrong ful
Ġpreclud e
w art
Ġpe ace
Ġpe ter
Ġnar row
Ġrepla ced
Ġaccomp any
cle ar
Ġbs gr
r am
c ond
w ater
Ġcongress ional
Ġ12 8
ab ama
st at
Ġunenforce able
Ġr ac
Ġsw ap
Ġ2 15
Ġsub contract
Ġsit ting
Ġsurv ive
Ġimproper ly
ri e
Ġintention ally
Ġref eren
pro f
Ġc erv
Ġconsider ations
Ġpost ed
Ġper mission
Ġ ;
Ġstart ed
n as
Ġdefault ing
Ġdead line
Ġ âĢĻ
Ġpro p
Ġmo ody
con v
k en
Ġ14 0
b en
Ġexerc is
Ġr am
Ġval ues
Ġdec line
Ġsol utions
g ins
Ġre hearing
Ġmass achusetts
Ġsell ers
Ġmem o
Ġm ir
Ġnegoti ations
Ġflow s
Ġa ro
Ġa u
Ġd oug
Ġmonitor ing
Ġch ance
Ġinvol unt
Ġconsec utive
Ġsim ple
Ġadvis er
Ġcomp el
Ġbo y
Ġf oster
Ġmit ig
ress ed
198 9
os ite
21 2
Ġfee l
Ġcontract ors
Ġirrevoc ably
ordin ary
Ġmil es
Ġar ises
Ġn a
en sus
Ġlib or
Ġann um
Ġadmin istered
igh th
Ġfl u
Ġwa ives
art h
Ġemot ional
Ġfif ty
p et
l im
Ġtrans ition
ak es
Ġm ild
Ġsoci ety
ec f
e b
Ġintention al
te es
t w
Ġ ____
Ġhig hest
Ġrecogn ition
it es
6 00
Ġcancell ation
Ġconsum ers
Ġadvis ors
ĠĠĠĠĠĠĠĠĠĠĠĠĠĠĠĠĠĠĠĠĠĠĠĠĠĠĠĠĠĠĠĠĠĠĠĠĠĠĠĠĠĠĠĠĠĠĠĠĠĠĠĠĠĠĠĠĠĠĠĠĠĠĠĠ ĠĠĠĠĠĠĠĠĠĠĠĠĠĠ
Ġpar king
Ġrelationship s
Ġguard ian
Ġreg ion
Ġco ordin
Ġsp ent
Ġw rote
Ġal abama
an ied
Ġgo al
Ġa lex
Ġtal k
Ġtr ig
Ġanticip ated
â ĪĻ
Ġr an
Ġcas ual
sc he
Ġd ied
Ġsu ed
Ġele ctions
Ġr and
Ġwis consin
Ġob s
Ġdil igence
Ġvolum e
ict ions
ph qw
Ġse lection
Ġat ty
Ġregistr able
t z
Ġcre ation
Ġthe rap
Ġlist ing
Ġdesign ate
l w
Ġ18 3
Ġat lant
pl an
ch ar
Ġsusp ended
198 7
Ġhear ings
Ġpropri etary
Ġs ant
Ġpr icing
Ġte acher
Ġf y
Ġsc reen
ĠĠĠĠĠĠĠĠĠĠĠĠĠĠĠĠĠĠĠĠĠĠĠĠĠĠĠĠĠĠĠĠĠĠĠĠĠĠĠĠĠĠĠĠĠĠĠĠĠĠĠĠĠĠĠĠĠĠĠĠĠĠĠĠ ĠĠĠĠĠĠĠĠĠĠĠĠĠĠĠ
Ġpresent ation
Ġtreas urer
Ġcircumst ance
Ġf em
n an
Ġincre ases
Ġbl m
r ast
Ġinter ference
Ġinstru ct
Ġprocess es
Ġpremium s
Ġdup lic
Ġdep endent
198 2
Ġbeh ind
am in
30 4
Ġindust ries
Ġfri end
pro vid
bur sed
u ana
' '
Ġcomm od
ant ial
Ġun t
c an
h r
00 4
Ġm ission
in n
Ġ3 55
Ġdan iel
y ers
Ġlike wise
l an
Ġlew is
Ġdemand s
Ġfore st
Ġproc ure
ile y
Ġcred ited
f ar
ic ut
on z
Ġthere from
Ġcontinu ation
Ġcom ing
here in
Ġme ll
Ġclass ified
s b
Ġn w
Ġle a
ad em
Ġown s
Ġb ay
Ġke pt
Ġinstit ute
Ġcomb at
Ġgri ev
ij uana
30 7
Ġw ide
Ġn as
Ġdet ention
Ġwhe never
Ġdest roy
Ġt ar
Ġcitiz en
Ġf le
Ġcerv ical
ist ic
Ġpaper s
Ġk ent
Ġimm igration
Ġder ived
s ible
sub ject
cit ations
Ġassemb ly
Ġcan adian
Ġdisorder s
Ġg ir
Ġref ers
Ġcompon ents
j p
Ġoff ers
Ġse al
pp ed
Ġsynd rome
Ġconduct ing
Ġmail ed
Ġsuggest s
i os
Ġ3 33
ber s
Ġ12 7
Ġrul ed
' ve
Ġ20 3
Ġget ting
Ġneg lect
ound s
n app
Ġre it
Ġpot entially
Ġdistin ct
l ight
Ġrepla ce
Ġf o
g i
Ġequ ally
Ġsp ring
Ġwal ker
k a
Ġrecord ing
Ġunnecess ary
Ġincor rect
Ġcontinu ance
Ġmanag ed
Ġinm ate
ub lished
ĠĠĠĠĠĠĠĠĠĠĠĠĠĠĠĠĠĠĠĠĠĠĠĠĠĠĠĠĠĠĠĠĠĠĠĠĠĠĠĠĠĠĠĠĠĠĠĠĠĠĠĠĠĠĠĠĠĠĠĠĠĠĠĠ ĠĠĠĠĠĠĠĠĠĠĠĠĠĠĠĠĠ
an or
Ġunconstitution al
Ġgr ad
Ġsupplement ed
Ġ12 3
Ġe pa
Ġn uc
Ġcommission ers
Ġreason ing
Ġexam ine
Ġz ero
Ġdevelop ing
Ġfor d
lin ary
Ġsc ar
Ġherein after
t ic
Ġu pper
Ġcomplete ly
fe ction
Ġj our
v ii
re r
. (
Ġbe aring
Ġmor gan
Ġestablish ment
Ġsumm ar
Ġli k
Ġinf l
Ġrest itution
aint y
Ġt it
Ġ16 8
005 38
c hed
ul p
d y
at s
Ġsh ipp
ra wn
Ġexclud e
Ġinst ances
Ġcover ing
Ġcon j
.âĢĿ ).
Ġmar ijuana
su red
Ġassert ing
00 46
Ġexercis able
vis ion
Ġreconsid eration
Ġun known
Ġ19 72
Ġ13 5
Ġh op
10 6
r ance
Ġmin ing
Ġway s
00 3
Ġne ck
Ġ19 69
Ġhot el
Ġdes ire
p etition
Ġp ie
Ġexper ts
Ġsecur ing
Ġdedu ctions
Ġinsert ing
Ġir a
15 0
Ġemploy ers
Ġto ll
om y
Ġsheet s
Ġret ention
Ġl as
Ġmaint ains
Ġattempt s
Ġ13 6
Ġ2 30
ug ht
Ġmic ro
Ġvirt ue
Ġavoid ance
n with
Ġk ansas
Ġr ank
Ġprim a
n be
il es
Ġimplement ing
Ġ13 3
Ġt a
Ġrel ies
Ġdisagree ment
Ġoption ee
le vant
l ined
w orth
it ude
Ġphr ase
Ġcl ub
Ġintell igence
xx xx
Ġvictim s
Ġpac ific
Ġc ore
Ġguarant ors
Ġr ap
Ġconc ent
Ġdef iciencies
Ġstip ulated
Ġmean ings
Ġl p
Ġform ula
Ġestim ates
Ġaffili ated
Ġcomm encing
en ger
Ġins ide
Ġsurren der
Ġdisab ling
Ġobject ives
Ġdel in
Ġannoun ced
Ġ å
Ġ14 1
Ġcomm issions
Ġ1 000
Ġhapp ened
Ġl ap
Ġcontrib uted
Ġg ains
Ġconnect icut
ul f
Ġfac ie
Ġ0000 0000
appropri ate
Ġ13 4
Ġh ud
Ġadd ing
ĠĠĠĠĠĠĠĠĠĠĠĠĠĠĠĠĠĠĠĠĠĠĠĠĠĠĠĠĠĠĠĠĠĠĠĠĠĠĠĠĠĠĠĠĠĠĠĠĠĠĠĠĠĠĠĠĠĠĠĠĠĠĠĠ ĠĠĠĠĠĠĠĠĠĠĠĠĠĠĠĠ
3 75
Ġsign s
Ġmedic ation
u ate
Ġin herent
Ġd y
Ġreal ized
Ġpromot e
l ph
Ġprohib it
Ġun u
Ġmanif ested
Ġcan ada
Ġdef enses
il ton
jl g
Ġlear ned
Ġ16 2
Ġint end
d ate
Ġe e
Ġm ent
Ġ2 12
Ġs pon
Ġcont empt
10 7
ru le
Ġworld wide
lq j
b us
Ġpre trial
Ġsign ing
Ġd od
Ġl ind
Ġp ull
Ġopp osed
ator ies
Ġpo or
Ġinc arc
Ġparent al
er a
Ġd ip
Ġjob s
Ġbe ars
ab l
Ġvac ated
Ġm g
Ġdou ble
Ġ30 3
Ġevalu ating
Ġen roll
Ġcor ro
Ġautom atic
Ġon line
Ġsur round
Ġconclus ive
n im
Ġand rew
Ġa ve
19 80
). \
Ġinter fe
author ized
Ġviol ates
Ġview ed
Ġext ensive
in ter
j h
Ġde ter
Ġpro ved
ad ict
Ġresign ation
Ġprec ise
Ġaccomp anied
Ġacc um
Ġfel t
Ġ16 0
Ġcustom ary
10 9
Ġag o
k in
Ġconsist ing
Ġcontent ions
et he
nor mal
Ġrespect fully
Ġ13 7
Ġprivile ges
Ġmanufacture r
Ġfif teen
Ġf ear
Ġmat ch
ke y
Ġform ed
Ġprevail ing
le ase
Ġ11 101
Ġs ession
Ġf er
Ġexp osed
Ġ11 10
Ġ30 2
Ġsur face
Ġprep aid
Ġam ort
Ġvi et
Ġrespons es
Ġstopp ed
Ġwhere in
g est
Ġconven ience
Ġaddress ing
Ġarri ved
c ount
Ġt ask
Ġhigh land
Ġp ointed
Ġcontinu ous
Ġda ughter
Ġdef aul
aud ited
Ġsubs cri
Ġw age
pat ient
Ġresident s
Ġdismiss ing
Ġmem ory
Ġwork er
âĢ ¢
Ġca pt
f ort
Ġaut o
Ġpurchas ing
Ġexerc ising
Ġsuff er
Ġinn oc
cept ion
eca use
Ġco ast
Ġunreason ably
Ġm ix
g or
Ġrelig ious
Ġra ce
Ġ15 7
Ġ6 00
Ġh ay
Ġch art
Ġre lying
am c
Ġhead aches
Ġca us
pri or
g y
u ment
Ġclaim ants
ĠĠĠĠĠĠĠĠĠĠĠĠĠĠĠĠĠĠĠĠĠĠĠĠĠĠĠĠĠĠĠĠĠĠĠĠĠĠĠĠĠĠĠĠĠĠĠĠĠĠĠĠĠĠĠĠĠĠĠĠĠĠĠĠ ĠĠĠĠĠĠĠĠĠĠĠĠĠĠĠĠĠĠ
ĠĠĠĠĠĠĠĠĠĠĠĠĠĠĠĠĠĠĠĠĠĠĠĠĠĠĠĠĠĠĠĠĠĠĠĠĠĠĠĠĠĠĠĠĠĠĠĠĠĠĠĠĠĠĠĠĠĠĠĠĠĠĠĠ ĠĠĠĠĠĠĠĠĠĠĠĠĠĠĠĠĠĠĠ
ret t
Ġmail ing
s he
Ġqu ick
Ġsubordin ated
d ep
conv iction
Ġle ading
Ġopin ed
Ġd ie
Ġj ac
Ġbl ank
h aps
Ġmove ment
Ġsub chapter
l oss
Ġansw ered
z y
Ġrel ie
n un
Ġdecid ing
k es
Ġenforce ability
et t
Ġmus cle
Ġf ract
Ġchan nel
Ġp ure
Ġnex us
Ġaccompany ing
Ġsupp lied
sub paragraph
Ġfam il
Ġdetect ive
con f
c ar
Ġengine ering
Ġsc ience
Ġdisp ose
Ġro ut
Ġeuro dollar
f b
ir st
Ġ36 9
Ġenfor ced
Ġman age
Ġdiscip linary
Ġtim ing
Ġun ique
Ġac res
198 1
Ġargu ing
Ġbrief s
l ines
h an
al le
Ġobject ed
Ġaffidav its
c ase
t iff
Ġinspect or
Ġcomp rom
qu ency
s r
Ġsp read
a ur
Ġv illa
Ġ13 2
Ġinf erences
Ġprohib ition
Ġsc ene
Ġcorrespond ence
Ġnin th
a j
Ġimport ance
Ġ13 8
Ġmoder ate
Ġmach ine
Ġrec ur
ust r
Ġd allas
Ġm ount
Ġc ro
5 01
Ġac adem
Ġbill s
Ġequival ents
Ġin ad
eli hood
Ġsupervis or
Ġt k
Ġval ley
Ġqu ite
Ġbro ok
Ġhy pot
ist ed
Ġcapital ized
ou th
Ġne igh
Ġ" (
Ġva cc
Ġus ers
xi ety
Ġconsul ting
tr ust
Ġrun ning
Ġwith hold
Ġ ..
Ġcare fully
Ġinstitution al
Ġfig ure
Ġwar ning
Ġ2 24
nes ota
Ġep is
Ġref using
b ell
Ġtradem ark
Ġseiz ure
Ġ15 6
Ġmo ot
Ġmeet s
th ir
19 79
Ġsu e
av or
Ġlea ving
su ally
Ġcasual ty
Ġnon comp
Ġinf rast
Ġshort ly
Ġhe l
c ir
Ġs ess
Ġh ope
Ġdecla re
et te
om b
Ġtal king
Ġdeem s
Ġstee l
m es
ars ay
~ ~
Ġ15 5
Ġmod ifications
Ġh unt
Ġra ises
Ġin put
Ġdecl ined
Ġcommit tees
net t
Ġunu sual
Ġ5 01
ru ption
Ġse arc
Ġtra il
e enth
Ġste ven
Ġp as
re am
e al
employ ee
pe ople
oh io
Ġwrit e
Ġinvolunt ary
Ġsomet imes
Ġjurisdiction al
Ġsitu ated
f und
Ġnecess ity
Ġpo ly
Ġo missions
Ġconvey ance
Ġoccas ions
Ġn urs
Ġexp ired
Ġfund ed
agree ment
Ġe ighth
Ġun cert
Ġ19 68
er n
Ġsu its
Ġmedic are
Ġ36 5
p ass
c ast
Ġ14 6
p d
Ġm isd
Ġan xiety
________________ ________________
Ġtrib un
Ġ4 03
Ġrest atement
Ġfreed om
âĢĿ .
sub st
Ġ13 1
Ġann uity
Ġident ifying
m un
Ġc c
Ġ rom
y n
Ġsubst ances
je ction
Ġj o
Ġlik elihood
Ġreceipt s
Ġansw ers
Ġ ....
Ġas h
Ġtr ain
Ġfranch ise
Ġviet nam
Ġcred its
re port
Ġcond emn
et s
Ġaccur acy
Ġdisclo sures
Ġ2 27
Ġg reg
Ġcooper ate
Ġpre pay
Ġp il
Ġf it
Ġdemonstr ates
ah o
8 01
Ġmand ate
Ġinc om
che ll
l ated
t itle
Ġvari able
Ġ14 3
Ġann ivers
Ġaud i
Ġf da
nth is
mit t
Ġprison er
Ġrec k
Ġex chan
Ġput nam
Ġst ol
Ġpro v
Ġf ill
Ġconv ention
Ġrob inson
Ġpr ud
Ġsu s
Ġsur ve
Ġmin nesota
Ġfri ends
Ġp u
ic ket
Ġh ip
Ġ !
Ġmin eral
Ġr ico
1 30
Ġk o
Ġbuild ings
Ġas certain
Ġjurisd ictions
Ġpet ro
ipp i
sec urity
Ġinfrast ructure
per s
q j
m aking
Ġvot ers
Ġvot ed
. -
Ġpay roll
.' "
ul s
Ġinvolve ment
Ġconv inc
Ġd at
Ġjust ified
bl ock
Ġlicens ing
Ġsitu ations
dis play
Ġbu il
et h
Ġaro se
Ġcommerc ially
Ġattempt ing
Ġvot es
h alf
ili ar
ing ton
Ġ2 14
Ġn om
d v
iss ippi
ace ut
Ġrehabilit ation
Ġden omin
Ġsh ar
Ġeconom y
reg on
Ġt di
Ġdoug las
p lus
Ġ20 4
Ġt or
Ġsub sec
Ġbur gl
Ġfa ult
Ġperf ect
c op
r b
Ġd ow
Ġconsist s
Ġconstit uting
Ġobvious ly
Ġturn ed
Ġcorro bor
Ġde pt
ane ously
he nt
Ġben ch
Ġ2 80
Ġconj unction
Ġ2 20
Ġo regon
Ġhen ce
Ġform at
Ġattack s
Ġhe arsay
Ġswing line
Ġsuper int
Ġmar ine
Ġwhere of
ic he
Ġ14 7
Ġper haps
ont in
Ġcooper ation
Ġm t
ut sche
Ġapp le
Ġrevis ion
Ġint r
Ġnuc lear
ĠĠĠĠĠĠĠĠĠĠĠĠĠĠĠĠĠĠĠĠĠĠĠĠĠĠĠĠĠĠĠĠĠĠĠĠĠĠĠĠĠĠĠĠĠĠĠĠĠĠĠĠĠĠĠĠĠĠĠĠĠĠĠĠ ĠĠĠĠĠĠĠĠĠĠĠĠĠĠĠĠĠĠĠĠ
id ence
Ġ5 12
Ġenhance ment
Ġspons or
Ġ15 9
v ent
Ġhand led
Ġlab el
or g
Ġrevers al
Ġprejud iced
Ġw ild
Ġw ol
Ġprot est
Ġem phas
vest ment
Ġd or
Ġcontem por
Ġhand ling
n ight
Ġbir th
ï ¬
Ġim per
ne es
Ġg all
Ġr i
Ġinvestig ations
Ġfamil ies
Ġtdi u
Ġbr idge
Ġannivers ary
Ġoper ational
in ing
Ġinto x
ress ive
Ġw ish
Ġdis e
ig ent
ic ate
Ġfra ction
it us
Ġ19 67
Ġf itness
f ig
Ġh or
Ġcont ended
19 76
Ġextra ordinary
Ġ14 5
Ġk ill
Ġst ar
Ġgun s
3 01
aceut ical
Ġmist ake
Ġplat form
Ġ ________
with out
sec ond
lo oking
Ġgr ade
Ġl c
Ġ2 18
re ason
Ġhed ge
Ġden ies
Ġinterfe re
it ors
g ar
Ġbod ily
Ġadvis e
Ġr h
Ġcre ating
Ġ2 10
h q
n v
ade lph
Ġsan ction
Ġauthor izing
Ġdistrict s
Ġ2 11
Ġro ber
Ġsl ight
Ġfis her
Ġmiss issippi
Ġ14 2
Ġ20 6
h is
19 78
Ġr on
Ġph ill
Ġexplicit ly
Ġenj oin
Ġscient ific
o ph
Ġ13 9
ul ations
b on
Ġch ase
Ġfor ced
adelph ia
s i
y ou
ple te
abl eness
**** ****
Ġobject s
Ġhom es
Ġplead ed
Ġc d
Ġme l
Ġ17 0
Ġh it
Ġdep rec
Ġprom ise
Ġro und
Ġimplement ed
Ġsign atures
Ġex ternal
f act
Ġrad io
ab out
Ġab normal
Ġcount ies
n are
ree k
Ġconc luding
applic able
r ain
h i
Ġext ensions
Ġdivid ed
Ġexclus ively
Ġ19 0
Ġapproval s
Ġreck less
ab or
Ġconf ine
Ġ16 5
well ing
Ġrepeated ly
pla ce
w in
Ġbenef icially
Ġfacilit ate
Ġw kh
Ġab st
Ġeng lish
Ġred acted
Ġdisburse ments
Ġwithd rawn
it a
Ġqual ification
pa ign
Ġconsist ently
Ġco le
Ġwat ers
ad min
herein after
al a
ron ically
Ġloc ations
i ating
Ġdistin ction
est ablis
Ġsp lit
Ġfor ty
p les
Ġid aho
Ġsure ty
Ġsh in
es e
Ġsurround ing
Ġconsult ation
Ġ4 49
Ġdocument ed
te red
âĢĿ :
Ġauthor izes
Ġ15 8
Ġcent ers
Ġ3 58
t oc
gen eral
ten n
Ġstep hen
Ġvalu able
Ġ15 2
iam i
Ġreli ability
Ġspecific ations
s ic
ri er
Ġst an
Ġb ott
Ġconsequ ence
Ġ14 9
Ġb ry
Ġsupp lies
ot s
Ġd imin
Ġdefect ive
su per
Ġ8 00
Ġunt rue
Ġtribun al
Ġimpos ing
uck y
Ġ16 1
Ġregular ly
c hes
Ġballot s
ĠĠĠĠĠĠĠĠĠĠĠĠĠĠĠĠĠĠĠĠĠĠĠĠĠĠĠĠĠĠĠĠĠĠĠĠĠĠĠĠĠĠĠĠĠĠĠĠĠĠĠĠĠĠĠĠĠĠĠĠĠĠĠĠ ĠĠĠĠĠĠĠĠĠĠĠĠĠĠĠĠĠĠĠĠĠĠĠĠ
Ġshe l
b ro
ad es
ĠĠĠĠĠĠĠĠĠĠĠĠĠĠĠĠĠĠĠĠĠĠĠĠĠĠĠĠĠĠĠĠĠĠĠĠĠĠĠĠĠĠĠĠĠĠĠĠĠĠĠĠĠĠĠĠĠĠĠĠĠĠĠĠ ĠĠĠĠĠĠĠĠĠĠĠĠĠĠĠĠĠĠĠĠĠĠĠĠĠĠĠĠĠĠ
Ġdispos itive
Ġgen erated
Ġs ister
lo ad
Ġco ok
Ġinit iated
Ġcert ifying
ethe less
Ġf older
Ġannual ly
Ġindemn ifying
Ġdissent ing
Ġstol en
Ġa st
Ġlack ed
Ġrest aur
Ġhealth care
Ġcho ose
Ġw are
am ation
m d
l j
Ġelimin ate
Ġs ort
Ġpermit ting
01 187
olog ist
Ġirre levant
Ġaggrav ation
Ġtro ub
Ġsched ular
j ury
Ġmisd eme
nh ave
per form
Ġad ult
i ans
Ġdistingu ish
Ġfar go
Ġrec overed
Ġl ived
Ġcontract ing
Ġeti ology
Ġjoin ed
Ġstreng th
Ġc ab
Ġmeas ured
Ġfranc isco
Ġsum s
Ġt as
Ġd kt
Ġpass enger
Ġ9 00
Ġrul ings
Ġapprec iation
Ġjour nal
v ance
ar a
Ġinvest ing
oun ter
Ġg onz
Ġendorse ment
Ġsh aring
l ife
Ġmot iv
Ġmun itions
m ot
Ġy e
Ġdise ases
Ġ14 8
Ġ15 3
Ġperiod ic
Ġsu n
Ġid ea
Ġmisrepresent ation
0 20
Ġenj oy
Ġnor m
ĠĠĠĠĠĠĠĠĠĠĠĠĠĠĠĠĠĠĠĠĠĠĠĠĠĠĠĠĠĠĠĠĠĠĠĠĠĠĠĠĠĠĠĠĠĠĠĠĠĠĠĠĠĠĠĠĠĠĠĠĠĠĠĠ ĠĠĠĠĠĠĠĠĠĠĠĠĠĠĠĠĠĠĠĠĠĠ
ert ain
m or
Ġnon etheless
Ġphil adelphia
Ġso vere
Ġsc ore
) ),
Ġderiv ative
9 00
Ġh ire
Ġmit chell
Ġindependent ly
Ġpharm aceutical
f iled
Ġextrem ity
Ġa a
Ġme ant
Ġaut hent
Ġprob ate
Ġ16 6
Ġst ra
Â °
od es
w ar
Ġ2 13
Ġlack s
Ġpro ving
Ġbe ach
Ġart ic
Ġ15 4
Ġg re
7 50
Ġo ak
Ġse ctor
ior ari
Ġsuperint endent
Ġk an
j d
al y
Ġreach ing
10 8
Ġknow ing
Ġ20 8
Ġacceler ated
Ġneuro log
Ġ ?
Ġdom in
Ġhe irs
sub section
Ġparticip ated
Ġthor ough
Ġ16 3
c w
Ġfam iliar
e lig
Ġevid encing
Ġlan e
dq g
Ġch am
ond on
form ation
Ġadv oc
Ġcontr adict
Ġphysici ans
Ġwe igh
Ġl in
Ġm iami
crib e
Ġad ams
wh o
ur a
ĠĠĠĠĠĠĠĠĠĠĠĠĠĠĠĠĠĠĠĠĠĠĠĠĠĠĠĠĠĠĠĠĠĠĠĠĠĠĠĠĠĠĠĠĠĠĠĠĠĠĠĠĠĠĠĠĠĠĠĠĠĠĠĠ ĠĠĠĠĠĠĠĠĠĠĠĠĠĠĠĠĠĠĠĠĠ
am ing
Ġsupp lier
Ġupd ate
Ġ19 65
Ġcontr ast
res ident
Ġarbitr ary
r ich
Ġt am
Ġ2 16
Ġst ores
Ġfrank lin
Ġgo es
wh g
st one
Ġdem oc
Ġreve als
Ġr ub
Ġexp ans
ab b
Ġcommun ities
00 8
Ġt ur
el ine
Ġdom ain
Ġdispos al
Ġfre quently
Ġ2 23
Ġb ru
Ġ20 5
Ġwe l
Ġanal og
op ard
00 2
Ġvend or
Ġquestion ed
Ġb aker
Ġunp ublished
Ġrep orter
Ġtax ation
Ġsolic itation
Ġunderstand s
Ġaccount ants
d om
Ġ4 05
Ġn u
rest rict
3 21
Ġ11 55
Ġsec re
Ġorgan iz
in sured
Ġele v
Ġpresent ly
Ġres ource
Ġfor b
Ġ16 9
Ġcit es
Ġreferen ced
k ee
ick ing
Ġdecre ased
Ġ15 1
Ġse venth
Ġrepe aled
Ġe c
Ġreview s
avail able
dr igue
Ġnew ly
Ġpr ime
Ġas best
Ġcl ot
le vel
Ä ĳ
Ġtre ating
Ġmor ris
Ġflo od
0 21
Ġclose ly
am us
19 77
Ġpar cel
Ġp end
Ġrout ine
Ġuse ful
Ġexpert ise
Ġali en
ri x
Ġ17 1
n com
Ġguarant ees
Ġb ail
Ġtherap y
Ġcert iorari
ol it
Ġacqu iring
Ġsumm ons
Ġharass ment
Ġp it
Ġhistor ical
Ġcomplain ant
00 6
Ġmiss ing
Ġacceler ation
Ġconvinc ing
Ġanaly z
Ġassum ptions
11 8
Ġmar ital
Ġcomment ed
Ġrestrict ive
Ġc m
Ġbre ached
Ġ2 22
inc ome
Ġtr anche
Ġh ired
Ġlist s
Ġmc don
25 4
Ġv ision
Ġdig ital
Ġu sually
Ġgil bert
drigue z
Ġincre mental
30 2
Ġun authorized
Ġhy d
an ger
Ġmarri ed
Ġeff icient
mon t
Ġframe work
Ġnin ety
Ġmat the
Ġsam ple
ifi able
Ġdes c
Ġhouse hold
Ġhtt p
Ġapprais al
Ġem p
Ġkel ly
Ġev ans
Ġmin im
Ġstr ick
Ġthreat s
op her
Ġintegr ity
9 19
Ġaust in
Ġtw ice
k ers
comm un
ut ation
Ġsupervis ed
Ġreason ableness
Ġencoura ge
Ġt el
Ġexam ples
ier arch
Ġt ank
Ġun just
Ġrec l
Ġelect ronically
Ġ16 7
Ġdist ress
Ġval e
" /
k o
man n
ut ors
Ġtrans mit
m y
Ġsy nthe
Ġsubs cription
Ġj ul
Ġinvestig ate
Ġcam paign
Ġse ized
Ġhow ard
Ġretal iation
Ġs or
60 4
Ġinm ates
go od
Ġ2 29
Ġdist ance
Ġper missible
Ġut ah
Ġplan ned
Ġqual ifying
Ġpack age
Ġprodu cing
20 4
Ġvilla ge
Ġconstru ctive
Ġo l
Ġ4 66
) -
Ġr uss
Ġfourt eenth
nd e
al ing
la p
Ġpat tern
Ġ16 4
Ġ30 4
11 5
Ġstru ck
ter y
Ġl ump
Ġeng aging
Ġread y
Ġp ed
Ġfre quent
Ġwh it
s ch
Ġwa ivers
Ġh u
Ġsim ult
Ġce o
Ġcompell ing
Ġtoward s
Ġconstru ct
Ġje opard
Ġdiscuss ions
54 9
Ġserv es
Ġaspect s
Ġform a
Ġshoot ing
Ġun cond
Ġjeff rey
Ġqual ifications
Ġcooper ative
Ġor th
d ing
Ġtreat y
Ġdis posed
' ll
Ġb atter
Ġconfine ment
Ġdon ald
Ġ17 5
Ġa part
Ġ5 23
Ġor s
Ġ2 21
00 9
Ġ4 24
.âĢĻ âĢĿ
Ġfl ight
Ġview s
Ġref use
Ġconced ed
Ġhen ry
Ġbur d
Ġc reek
Ġint ends
re te
Ġpred ecess
own ed
id al
Ġburgl ary
Ġdef ender
Ġimpos sible
Ġroyal ty
> \
Ġl am
Ġtyp ically
issu e
Ġ2 17
Ġg ulf
Ġgriev ance
Ġ24 2
cc o
x ml
w al
Ġ3 14
Ġbecom ing
Ġ2 26
p athy
Ġupd ated
Ġfunction ing
Ġno ise
Ġ5 03
un ch
3 10
bor row
Ġ æ
Ġassert ions
Ġ Ã
a i
Ġdisc ontin
Ġread ily
Ġliquid ity
Ġmand amus
ierarch y
4 75
Ġconst ant
âĢ¦âĢ¦ âĢ¦âĢ¦
-------- --
Ġro ss
Ġcor ps
16 1
] .)
Ġcont ested
Ġ________________________________ ____________
Ġber n
Ġviol ating
Ġ5 26
Ġpract ical
Ġimpro ved
Ġt angible
Ġconserv ation
prof it
Ħ ¢
Ġordin arily
Ġsuccess fully
Ġsc r
d el
Ġrele ases
Ġd ys
min ent
Ġvalid ly
v iii
Ġnav y
Ġ4 77
Ġsit es
Ġfe atures
Ġrem ote
Ġcandid ate
fig ure
Ġk y
ens ed
Ġn l
hed ular
Ġmo vant
Ġ18 1
Ġexcept ional
20 3
Ġgr ay
Ġfe ed
Ġper pet
Ġbo ston
Ġwhe el
Ġlook ed
Ġ30 5
Ġcharacter istics
Ġdiff erences
Ġatt n
Ġnot ing
Ġ3 12
Ġ4 40
Ġtown ship
Ġdeprec iation
Ġelse where
Ġexceed ing
Ġr d
Ġinstall ation
an im
Ġabandon ed
g om
Ġ4 73
Ġ2 19
Ġrefer ring
Ġdistrib utor
Ġprohib its
Ġinv ention
Ġ30 8
Ġoccup ation
Ġmedic aid
b all
Ġ5 29
Ġf inger
c la
bus iness
Ġto ols
Ġmisdeme anor
Ġcorre ctions
Ġsett le
Ġeffect ed
# #
so ft
f ac
Ġ5 25
Ġair port
Ġg ent
Ġevery thing
Ġfulf ill
Ġst ored
Ġde ep
ca pe
Ġconvey ed
Ġhab it
Ġby laws
Ġconsid ers
ĠĠĠĠĠĠĠĠĠĠĠĠĠĠĠĠĠĠĠĠĠĠĠĠĠĠĠĠĠĠĠĠĠĠĠĠĠĠĠĠĠĠĠĠĠĠĠĠĠĠĠĠĠĠĠĠĠĠĠĠĠĠĠĠ ĠĠĠĠĠĠĠĠĠĠĠĠĠĠĠĠĠĠĠĠĠĠĠĠĠ
h d
Ġro t
Ġkent ucky
Ġstrateg ies
Ġg ard
Ġ[ *]
contin ued
u x
Ġv ary
Ġm ine
Ġcaus ation
m art
mun ition
Ġan th
f irst
Ġpro ven
em an
Ġtri er
Ġ18 6
Ġdiagn oses
Ġk im
Ġf ish
Ġu sual
Ġen um
Ġappropri ately
Ġhere with
Ġprot oc
su me
Ġten n
Ġ30 7
ine z
Ġcompar ison
Ġpart e
Ġ18 7
ad vis
Ġ4 35
Ġk ir
Ġ2 28
Ġ ice
20 9
i us
f oot
Ġcar ter
as m
Ġchallen ging
Ġdat ab
Ġver ified
Ġant it
Ġaccept ing
Ġundert aking
cell aneous
, '
c all
Ġra ising
v ention
Ġsp oke
p ract
Ġissu able
termin ation
ĠĠĠĠĠĠĠĠĠĠĠĠĠĠĠĠĠĠĠĠĠĠĠĠĠĠĠĠĠĠĠĠĠĠĠĠĠĠĠĠĠĠĠĠĠĠĠĠĠĠĠĠĠĠĠĠĠĠĠĠĠĠĠĠ ĠĠĠĠĠĠĠĠĠĠĠĠĠĠĠĠĠĠĠĠĠĠĠĠĠĠ
Ġsusp ic
Ġmell itus
Ġb d
se ki
Ġt ion
Ġpetition s
Ġprevent ed
Ġstr ain
te l
cl ock
Ġ20 7
Ġweight ed
ot al
gom ery
ro us
Ġin appropriate
Ġshin seki
Ġtrust s
1 10
Ġattend ance
Ġg ift
Ġtrad ed
Ġaccomp lished
d ist
Ġpreclud ed
Ġsw itch
ath an
Ġb an
Ġb rit
Ġinc lusion
Ġiniti ative
Ġ" `
Ġro se
Ġvot er
admin istr
le um
Ġl ondon
ip her
Ġcontinu ity
Ġu cc
Ġan ton
Ġark ansas
Ġ26 8
Ġunre lated
Ġaward ing
Ġpres iding
Ġrec re
it ect
Ġ24 7
Ġ5 50
Ġamort ization
ĠĠĠĠĠĠĠĠĠĠĠĠĠĠĠĠĠĠĠĠĠĠĠĠĠĠĠĠĠĠĠĠĠĠĠĠĠĠĠĠĠĠĠĠĠĠĠĠĠĠĠĠĠĠĠĠĠĠĠĠĠĠĠĠ ĠĠĠĠĠĠĠĠĠĠĠĠĠĠĠĠĠĠĠĠĠĠĠĠĠĠĠ
Ġv s
Ġexact ly
Ġche st
Ġfoc used
Ġam munition
Ġt ab
iv an
Ġabsolute ly
Ġtraum a
Ġreli able
i qu
Ġsh op
Ġcontrib ute
Ġd ict
19 75
ion ed
Ġexp lo
Ġh an
Ġchrist opher
acc ount
Ġ18 5
Ġvari ety
Ġprin ted
Ġinstall ment
Ġw ors
Ġquant ity
ition ally
Ġneigh bor
Ġm agn
Ġpossess ed
Ġ49 2
f w
20 6
â Ħ¢
Ġp ul
Ġ3 50
Ġlev y
Ġl ives
Ġr ig
ink ing
Ġinvest ed
b ul
Ġaffect s
employ er
Ġvo ice
." ).
Ġdis par
Ġr ape
Ġwat ch
Ġrober ts
Ġsynthe tic
Ġe bit
Ġdefect s
Ġf res
v ested
Ġpost al
Ġjac ob
ra ud
Ġi b
Ġunder w
Ġpass age
Ġminor ity
pt ive
Ġa la
are n
Ġappeal able
ol a
Ġw id
Ġin nov
if ts
Ġissu ers
d irect
Ġproxim ate
Ġthousand s
h o
r ical
p c
Ġrep airs
Ġval ued
Ġut ilities
Ġease ment
Ġon set
Ġlot s
fed eral
Ġten ants
Ġprev ention
Ġdepart ure
Ġf d
Ġdep ends
n not
Ġcons c
Ġher self
Ġ[ Â¶
Ġreop ened
Ġapplic ability
Ġj en
Ġperf ected
Ġcontact ed
cent er
Ġconcur ring
Ġbring ing
Ġ19 66
oth y
s er
ow ner
Ġcare ful
Ġ4 02
01 5
n at
Ġshe ll
Ġcharacter ized
Ġ18 22
Ġ20 9
am eric
su ccess
Ġgu ide
Ġincident s
Ġchar ging
Ġdiff er
Ġmont gomery
Ġb reat
Ġ18 8
Ġg ate
Ġi x
Ġredu cing
Ġreal ty
Ġsuff ering
Ġbor der
ins urance
Ġappropri ations
Ġtrad itional
Ġp ec
h on
Ġvac ation
Ġ24 5
Ġdest ruction
Ġ19 6
Ġa ver
3 26
Ġmed ium
Ġtrans p
Ġpropos als
Ġdefin es
Ï Ń
ograph ic
Ġsp r
Æ ¶
Ġl ateral
Ġd ental
Ġo d
Ġdefin ite
omp et
Ġ17 4
Ġhe ight
arc ia
Ġher b
Ġdivers ity
Ġagricult ural
Ġfract ure
Ġcl ay
Ġdiscrimin atory
Ġ4 15
Ġm ans
v s
Ġor ange
so far
Ġsuit able
Ġnorm ally
Ġcomp uted
Ġ4 36
Ġpres cription
il ing
Ġc ult
Ġmarsh all
Ġent ertain
Ġaltern ate
Ġ17 3
Ġ23 8
Ġopp osing
Ġun anim
Ġsub committee
ass ign
Ġdescrib ing
Ġwom an
Ġlar ger
Ġco gn
Ġbri an
Ġcomprom ise
Ġ2 75
Ġrus sell
elig ible
Ġ18 2
t te
Ġopen ed
Ġprep aring
Ġis ol
Ġ19 3
Ġo mit
Ġz one
Ġf ab
Ġviol ent
Ġm ap
f o
Ġevent ually
wh ile
end um
Ġr ural
u k
m ons
Ġoption al
Ġ ................................
c ash
ro s
Ġinstit uted
f inding
Ġarch itect
Ġn ort
Ġwe ig
Ġf ight
ill o
Ġobs erve
Ġdestroy ed
Ġrap id
h art
Ġde ploy
v v
c j
Ġrest ruct
t im
Ġmortgage e
Ġcre ates
Ġsovere ign
qu arter
re z
Ġ19 64
Ġb ou
Ġg ib
Ġ17 6
Ġo ath
Ġrefin ancing
Ġforfe ited
Ġ38 4
Ġorganiz ational
Ġasbest os
Ġdirect ing
Ġro s
: Â·
with in
h n
cl osed
Ġcra ig
Ġexpans ion
anc ial
Ġdef ine
Ġcor on
Ġ19 5
Ġtrig ger
Ġ7 25
Ġconf idence
Ġacqu it
Ġ17 7
Ġste wart
Ġexecut ing
Ġcit ations
Ġdis allow
pro per
Ġne lson
Ġcamp bell
Ġf bi
Ġundert aken
Ġaf ric
Ġsw orn
Ġ17 8
Ġpr ay
Ġs in
Ġquestion ing
Ġphill ips
Ġmur phy
Ġpre empt
19 74
Ġm cl
Ġ19 4
Ġs ick
Ġgen der
Ġappe aring
Ġpub lis
14 0
) );
Ġproceed ed
ro up
Ġmo od
8 75
Ġpr int
sign ature
Ġdirect ive
inc o
Ġto t
Ġp ier
d ed
Ġrest oration
Ġacc red
Ġ17 2
Ġmet h
m ember
Ġaccomp lish
ĠĠĠĠĠĠĠĠĠĠĠĠĠĠĠĠĠĠĠĠĠĠĠĠĠĠĠĠĠĠĠĠĠĠĠĠĠĠĠĠĠĠĠĠĠĠĠĠĠĠĠĠĠĠĠĠĠĠĠĠĠĠĠĠ ĠĠĠĠĠĠĠĠĠĠĠĠĠĠĠĠĠĠĠĠĠĠĠĠĠĠĠĠ
ac he
ht ml
Ġdefer ral
Ġdoes n
Ġsil ver
Ġpetro leum
Ġw ound
Ġdef e
Ġch ain
restrict ed
Ġanth ony
Ġprom ises
de al
Ġcall ing
Ġen l
Ġenterpr ises
Ġpla us
Ġcontract ed
iche ver
Ġrecogn izes
Ġ17 9
se tt
l ong
res pect
Ġ19 1
Ġcommod ity
Ġo t
Ġ4 25
id ed
Ġn j
Ġdeclar ations
Ġtrack ing
Ġdisc over
Ġ27 3
Ġtaxpay ers
at ch
acc ur
ut ral
p df
Ġper ipher
Ġ18 9
Ġal ia
Ġphotograph s
Ġg ang
Ġdelin quent
hib it
1 80
Ġlabor atory
) </
Ġ23 5
Ġmeasure ment
Ġin sofar
Ġsuspic ion
ic ular
Ġ36 2
Ġk le
f ree
Ġsubmit ting
Ġform ation
Ġpro ff
f h
Ġpre t
Ġn ur
Ġtri bal
Ġconsult ants
Ġ19 2
z en
Ġlaw yers
Ġmis cellaneous
Ġbatter y
Ġconflict ing
ur ities
Ġl od
Ġad vers
u cc
Ġcou ple
r an
nand ez
Ġ23 2
Ġdepri ved
ol is
Ġmin n
Ġfore see
Ġd ar
Ġconsent ed
Ġan g
Ġh al
Ġmanufact ured
ic it
Ġgl ass
11 4
Ġstock s
Ġs ac
Ġl ad
Ġmut ually
ard s
Ġaudit ors
b el
b ri
Ġamb iguous
Ġeff iciency
Ġirrevoc able
Ġantit rust
d ue
g as
Ġ5 02
Ġin fer
ate ll
Ġtest ed
mar ket
w d
i ro
? #
Ġjud ic
Ġburd ens
Ġassign or
t xt
Ġbrief ing
ny ou
Ġheav y
Â ±
Ġwal k
f g
b re
Ġk ar
Ġro driguez
Ġha wa
Ġear ning
Ġde ar
m ist
Ġmo ment
Ġadjudic ated
Ġund ue
Ġk illed
Ġmeaning ful
Ġconf ession
Ġgent le
Ġnation wide
Ġjun ior
Ġrespons ive
st ream
m ill
Ġpar ker
ens able
Ġd na
Ġb ab
Ġrep utation
Ġ7 00
Ġ5 04
Ġrel ator
" ;
Ġsp ect
Ġinstall ments
i ance
Ġfre quency
Ġhead ings
Ġ ens
Ġlo ve
bank r
st ated
Ġfel on
not ing
Ġt ren
Ġebit da
19 73
Ġn ations
Ġ4 12
Ġdepart ments
Ġear n
Ġdro ve
Ġmanufacture rs
Ġeas ily
Ġret ired
Ġchan ging
Ġ23 9
Ġto uch
z i
Ġb man
Ġmortg aged
Ġnurs ing
i et
Ġ24 8
Ġprote ctions
Ġpie ce
Ġcy ber
j an
Ġ19 61
add ress
Ġc art
le g
Ġleader ship
Ġres ort
Ġdemonstr ating
Ġg al
Ġh oll
20 5
li ers
Ġfe as
Ġwh ichever
Ġposs ibly
Ġinvo ice
Ġadd endum
man agement
Ġincur rence
Ġconfer red
Ġmin imal
t i
Ġj on
Ġprofessional s
Ġperman ently
Ġh ug
1 21
Ġjeff erson
Ġin accur
Ġup held
x b
11 6
n en
Ġjust ification
Ġbus hm
li est
Ġv iii
Ġdem ur
vol ous
Ġsubstit uted
Ġapplic ants
Ġ19 63
Ġunderw ent
Ġmir anda
pract ice
Ġneuro pathy
Ġtri be
ir able
Ġcur t
Ġjudic ata
Ġind ef
Ġtele vision
ge l
Ġbushm aster
Ġdet ain
Ġ3 19
un less
Ġf ired
Ġ4 14
ang ing
ol n
Ġle asing
g ical
os en
ly n
Ġas sure
Ġrev oke
Ġb is
Ġsc i
Ġsign al
ll ivan
Ġachie ved
Ġrestr aint
Ġt un
Ġperipher al
Ġenh anced
Ġ25 3
Ġ3 21
Ġn ull
m ic
Ġincident al
Ġ45 7
Ġvis itation
Ġham ilton
b ra
Ġ4 06
Ġrender ing
Ġ45 3
Ġ23 3
ap r
Ġsubscri ber
Ġprocure ment
Ġ3 27
Ġfair ness
Ġlaw rence
Ġstrict ly
is hing
Ġemb od
Ġ2 99
Ġill ustr
Ġ3 11
ores aid
Ġdef icient
Ġincom plete
not ice
Ġcalcul ations
3 50
form er
Ġobserv ation
Ġdeposit ory
Ġdam aged
s es
Ġc ot
Ġre jection
ch ild
o z
g c
par able
Ġrec ital
comp ass
Ġpr ong
Ġepis odes
Ġ4 44
Ġsimult aneously
Ġcar s
su p
Ġconf usion
Ġwar ren
a ug
Ġre ed
og le
Ġnegot iated
Ġresol ving
ert o
l ock
Ġsubst itution
Ġliquid ated
Ġexamin ing
Ġcard s
Ġear liest
Ġ ................
Ġlap se
Ġnews pa
Ġg arcia
ru it
Ġaf oresaid
Ġout patient
Ġdiscip line
Ġrev oked
ot ic
Ġ27 4
Ġsa ve
Ġadmit ting
Ġpend ency
Ġim age
Ġ3 13
Ġ28 1
Ġspec ification
Ġ23 1
Ġj im
Ġhard ship
Ġalex ander
[ ]
Ġdeliver ing
Ġ18 4
% .
Ġus d
Ġc ry
Ġrefer ral
Ġaccru e
Ġcondemn ation
Ġyou th
Ġc able
Ġver ify
Ġutil ized
Ġfut ures
Ġ4 50
Ġ3 22
Ġcent ury
ast ic
Ġres ale
19 72
l ow
h as
Ġal aska
Ġcalcul ating
Ġ5 05
Ġs olid
Ġst ory
as ion
Ġreason ed
f all
Ġ23 6
Ġle on
Ġsol ution
cr im
Ġ3 17
Ġ3 25
Ġtermin ates
Ġstress or
Ġcar p
respond ent
Ġro gers
Ġhospital ization
Ġcompens ate
Ġ25 2
Ġsmall er
Ġw on
Ġname ly
Ġimp ression
s k
v ation
Ġwal king
Ġcomp are
Ġ11 31
Ġre ar
un ited
not es
Ġin ure
Ġ27 1
h and
Ġphys ically
Ġdele ted
Ġdeal ers
Ġ3 10
Ġen compass
def ense
Ġover night
g rant
Ġm erc
Ġsh ift
Ġper ry
Ġconsider able
Ġmart inez
Ġcare er
la ughter
inc lud
Ġmedic ine
Ġassess ing
br idge
Ġisland s
Ġg i
Ġapprec iate
ot ics
Ġco ordination
Ġdes ires
Ġaccur ately
Ġnum b
Ġ3 30
Ġundert ake
thir d
, [
âĤ¬ ,
Ġoper ates
Ġreve al
Ġt i
Ġpat ter
Ġappro ving
Ġ................................................................ ................
Ġn arc
Ġ25 1
Ġwhere by
Ġtal ked
Ġp i
Ġsafe guard
Ġameric ans
27 4
120 919
Ġknow s
Ġadvert ise
Ġdra f
Ġl en
Ġgr iff
Ġpred ict
11 3
Ġrenew ed
Ġrestaur ant
Ġdescrib es
Ġbu ck
exc luding
Ġc v
Ġ5 24
ili an
Ġ3 16
Ġrestruct uring
Ġc p
Ġ36 3
Ġ4 56
r um
bul let
Ġb ol
Ġ3 23
r ances
Ġn ond
Ġconform ity
Ġapp ortion
Ġpip eline
ĠĠĠĠĠĠĠĠĠĠĠĠĠĠĠĠĠĠĠĠĠĠĠĠĠĠĠĠĠĠĠĠĠĠĠĠĠĠĠĠĠĠĠĠĠĠĠĠĠĠĠĠĠĠĠĠĠĠĠĠĠĠĠĠĠĠĠĠĠĠĠĠĠĠĠĠĠĠĠĠĠĠĠĠĠĠĠĠĠĠĠĠĠĠĠĠ ĠĠ
Ġ4 22
Ġlo se
Ġsecre ts
Ġcontact s
Ġatlant a
Ġcondition al
ment ioned
Ġcarri ers
Ġm one
g ent
ri a
Ġ4 08
Ġ26 5
Ġ24 6
us h
Ġa oj
am ine
Ġl uc
Ġo ig
c oll
Ġb ia
Ġturn er
Ġst em
Ġclin ic
Ġmortg ages
Ġwind ow
Ġexceed ed
Ġ5 06
Ġ3 40
av es
Ġsupp liers
l t
jp g
le v
Ġmitig ating
om ing
Ġaccum ulated
Ġf ly
Ġsk ill
00 7
Ġgovern ments
Ġedward s
Ĺ ı
Ġlo ad
land s
Ġboard s
ns h
Ġto m
Ġf ash
nt r
Ġv entures
n he
Ġcompl ies
ent er
Ġpersu asive
Ġle verage
b urn
Ġaut h
Ġsu llivan
Ġn erve
Ġpr on
Ġread s
Ġintegr ated
avor able
Ġdef erence
h ierarchy
Ġrestr aining
Ġto w
e vid
ic ations
Ġopp osite
che ck
Ġapproxim ate
def in
Ġprin ting
Ġm as
01 4
Ġdraw ing
ĠĠĠĠĠĠĠĠĠĠĠĠĠĠĠĠĠĠĠĠĠĠĠĠĠĠĠĠĠĠĠĠĠĠĠĠĠĠĠĠĠĠĠĠĠĠĠĠĠĠĠĠĠĠĠĠĠĠĠĠĠĠĠĠ ĠĠĠĠĠĠĠĠĠĠĠĠĠĠĠĠĠĠĠĠĠĠĠĠĠĠĠĠĠ
Ġ3 28
Ġd ry
Ġcap abilities
Ġl aid
Ġsubject ive
Ġver ification
Ġmit igation
ba cco
Ġenfor cing
Ġcar l
Ġware house
Ġdep ending
Ġwh oles
Ġto x
w y
12 4
Ġgo v
Ġsever ally
r ary
Ġsucceed ing
ap an
Ġend ors
Ġnot iced
ce ived
Ġfil er
Ġ26 6
Ġunemploy ment
ĠâĢľ (
Ġconstitution ally
Ġelect rical
Ġsupervis ors
Ġpromot ion
ar io
Ġfull est
Ġm ale
o es
Ġc ured
Ġsens itive
Ġ24 1
n ne
Ġsk ills
Ġdire ctions
Ġstat ist
Ġquick ly
" );
Ġcommunic ate
Ġproject ed
Ġbroker age
Ġthor ac
Ġx m
sh all
l c
Ġu k
Ġread judic
is is
Â «
ach ing
Ġl inc
Ġinter ior
Ġassum es
Ġreim bursed
ic idal
Ġ ____________
ass ess
Ġsur plus
Ġh un
Ġinter vention
Ġconf ront
Ġjeopard y
Ġe ag
Ġtraff icking
f us
Ġ26 0
Ġver sus
Ġ3 74
Ġ4 16
ac it
Ġdes ignee
Ġconcurrent ly
Ġcontempor aneous
Ġout lined
Ġpat rick
Ġcustom s
Ġlear ning
Ġsubstant iating
n ag
a res
or ing
r p
Ġse gment
Ġhome land
Ġ48 8
Ġcolle ctions
Ġcod ified
Ġg one
Ġbe ck
Ġch osen
Ġpil ot
Ġfl at
Ġ[ ]
Ġextrem ities
Ġ4 65
Ġexempt ions
Ġall state
Ġst amp
ar ian
ang ers
Ġg p
ill ance
r ill
Ġm ond
Ġ ................................................
yl osis
Ġinst ability
] \
Ġbro kers
Ġto ol
Ġ19 62
Ġ4 30
pe z
Ġacquisition s
Ġfurther ance
Ġ3 20
Ġan c
govern ment
Ġkeep ing
Ġelect s
Ġ6 33
Ġcoll ins
Ġ23 4
Ġ3 15
âĢĿ ;
n ar
Ġ6 06
Ġinstru mental
miss ibility
Ġregul ated
Â ²
Ġsome what
Ġse greg
quot e
et e
Ġres pir
Ġquot ing
Ġse qu
provid ed
Ġry an
Ġ30 6
Ġdo g
Ġdeposition s
Ġd ak
01 3
Ġ3 70
Ġro ute
Ġmoder n
Ġspec ies
Ġdepos itor
s f
cl osing
Ġstart ing
19 71
or por
Ġattrib uted
Ġan im
own ers
x bf
Ġnur se
Ġpart ially
rec ord
Ġ25 4
mist ak
Ġchar l
ut in
Ġextreme ly
Ġv ague
sh ore
up s
Ġunder min
Ġdis qual
Ġch ose
am m
Ġweek ly
un k
Ġbill ing
n se
Ġunderwrit er
abet h
Ġwis hes
Ġbon a
Ġto bacco
Ġke vin
Â ´
Ġpsych ological
Ġexc ise
ex ec
Ġ25 7
Ġf ide
Ġsc ale
Ġmot ive
Ġdedu cted
Ġm m
Ġk ore
Ġ24 3
Ġ7 50
f i
com mon
asc hedular
Ġcounsel ing
Ġm ig
Ġcomp lic
r id
h h
a ctions
Ġinform al
ned y
Ġnl rb
Ġstay ed
Ġcorrection al
"/ ><
Ġ3 26
Ġess ence
Ġc row
Ġprotect ing
30 6
Ġmar c
Ġextr aschedular
11 7
[ .]
net h
ex isting
Ġcandid ates
d kt
Ġunf avorable
Ġs n
Ġtrans it
Ġun mistak
Ġlaw fully
Ġ24 9
un ion
oun sel
Ġ30 9
am end
Ġout we
Ġdes ired
Ġ19 56
, ]
Ġ29 5
Ġse ason
Ġ4 59
Ġretro active
Ġ4 43
Ġa w
Ġt enth
Ġlar gest
20 8
Ġpla cing
Ġsubse ctions
ef ore
old s
aff ili
Ġs amp
Ġg ary
f unction
to gether
ic ks
Ġ4 23
Ġe yes
Ġ27 0
Ġad m
Ġv ul
Ġspec ulation
Ġmay be
Ġorder ing
Ġch ap
Ġunderwrit ers
z er
Ġmont ana
Ġsignific ance
a ment
Ġ28 5
Ġ\ \
Ġincons ist
] :
Ġha w
Ġh iring
Ġg ast
j m
13 4
Ġintrodu ce
cont roll
Ġdemand ed
Ġ23 7
st ock
Ġsu nd
Ġdatab ase
f k
Ġmad ison
Ġdemoc r
" :
Ġimp art
Ġassu red
Ġsur gical
801 76
Ġengine er
Ġb art
Ġpu erto
Ġ7 80
Ġter ry
Ġ4 75
Ġele venth
p ur
Ġ________________ ________
k eep
ist an
Ġspe aking
Ġsupp ression
Ġcircumst antial
Ġdeliber ate
40 9
ac o
). )
Ġinform ant
Ġdiscuss ing
Ġlarge ly
Ġsubject ed
p en
Ġcor ner
Ġca ution
Ġsolic it
Ġstan ley
Ġtermin ating
Ġ3 34
Ï ¯
Ġw ag
30 5
Ġ25 6
Ġaltern atives
Ġstrong ly
Ġpain ful
Ġ29 6
Ġs ending
Ġpreserv ation
Ġ25 9
Ġmethod ology
and em
Ġis ra
Ġel iz
pp ing
bo x
Ġ3 59
Ġ28 7
que z
Ġmal practice
Ġdifficult ies
cur rency
Ġas st
n ia
Ġatt ended
Ġ3 41
c li
Ġact ively
Ġappropri ated
Ġt u
Ġpl ural
Ġpass ing
Ġrelie ve
het ical
Ġstra ight
Ġs sa
Ġ4 11
Ġst er
Ġalternative ly
Ġmerch and
Ġmet al
Ġf ro
he l
in ations
Ġbott om
Ġeven ing
loy d
Ġ................................................................ ................................
Ġdistingu ished
Ġsh aw
Ġ4 33
Ġ25 5
Ġbuil t
Ġconf ig
Ġwe ather
or p
prior ity
21 5
Ġr ice
Ġmortg ag
Ġp t
Ġsupp osed
Ġa im
Ġgen eration
Ġ6 01
Ġext ending
Ġirre parable
Ġst one
40 5
Ġlinc oln
Ġoper ative
Ġhill s
in ite
Ġadequ acy
Ġf i
Ġhe ck
Ġp c
ap olis
th rough
Ġgreg ory
; \
n ind
Ġc b
Ġ5 52
Ġ3 24
Ġ4 55
Ġrelative ly
Ġ26 1
id ay
Ġsuggest ion
Ġ ä
spect ive
jud gment
Ġpled gor
d ocket
Ġsurve illance
Ġsupervis ory
Ġ3 45
iz on
Ġprosec uting
r ate
Ġaud itor
Ġk er
Ġun s
Ġ5 11
Ġpub lish
Ġly nch
Ġconcent ration
un audited
Ġ3 80
Ġk a
Ġcitizens hip
Ġon to
Ġcompell ed
Ġvis its
u w
employ ment
v ens
Ġadministr ators
Ġexpl oration
Ġscr utin
if er
Ġun amb
u ge
d iv
Ġ3 18
Ġ4 99
Ġsubmit s
je ctions
Ġterror ism
Ġg od
Ġreserv ation
Ġanton io
Ġun time
Ġfir ms
Ġexc use
Ġimpact s
Ġer ic
Ġl t
Ġinsure rs
Ġvis ited
Ġmess ages
Ġcorrect ed
Ġbor n
Ġmach in
Ġ29 0
b ecause
Ġent ries
ten ant
Ġhigh light
te ction
doc ument
Ġco hen
Ġindu ce
et ime
Ġrecon c
aff irm
Ġoccup ancy
Ġser ge
000 4
Ġsl ip
cur rent
Ġcert ainty
Ġtot ally
it ative
Ġdak ota
am ount
Ġw i
Ġbi as
É ĸ
Ġde velo
Ġp ra
Ġstruct ures
ĠÂ ©
at erial
Ġreflect ing
Ġde an
Ġpl c
Ġhapp en
ious ly
Ġmatthe w
Ġc s
Ġrespond ing
Ġresc ind
Ġ26 3
Ġfri volous
Ġfash ion
Ġbroad cast
c ul
Ġpat rol
Ġtrial s
g ree
ward s
r h
inc re
Ġper jury
em a
15 5
no ff
Ġste in
Ġst ake
Ġagricult ure
Ġbal ances
Ġad missions
Ġcoll ision
Ġ26 2
Ġ5 22
Ġconst r
mat erial
op athy
Ġaud its
m any
Ġchar itable
Ġ28 2
mo ving
Ġtell ing
Ġrevers ible
Ġdr illing
rous ky
Ġk utsche
Ġnor inco
der son
Ġkutsche rousky
17 7
Ġ28 3
ht m
supp ort
Ġd ca
Ġn i
la ps
Ġprosec ute
pri v
Ġordin ances
Ġmanifest ations
Ġamb igu
w ould
Ġstre am
27 5
ort un
Ġb ren
eral d
Ġt on
Ġ4 10
Ġtr ump
Ġinc ompet
Ġflo ating
Ġc ig
Ġg ame
Ġbarg ain
cred it
Ġimp each
Ġal imony
Ġser ver
ord an
ri end
Ġencumb rances
Ġinter mitt
Ġ29 2
Ġ3 56
Ġsumm er
ĠĠĠĠĠĠĠĠĠĠĠĠĠĠĠĠĠĠĠĠĠĠĠĠĠĠĠĠĠĠĠĠĠĠĠĠĠĠĠĠĠĠĠĠĠĠĠĠĠĠĠĠĠĠĠĠĠĠĠĠĠĠĠĠĠĠĠĠĠĠĠĠĠĠĠĠĠĠĠĠĠĠĠĠĠĠĠĠĠĠĠĠĠĠĠĠĠĠĠĠĠĠĠĠĠĠĠĠĠĠĠĠĠĠĠĠĠĠĠĠĠĠĠĠĠĠĠĠĠĠĠĠĠĠĠĠĠĠĠĠĠĠĠĠĠĠĠĠĠĠĠĠĠĠĠĠĠĠĠĠĠĠĠĠĠĠĠĠĠĠĠĠĠĠĠĠĠĠĠĠĠĠĠĠĠĠĠĠĠĠĠĠĠĠĠĠĠĠĠĠĠĠĠĠĠĠĠĠĠĠĠĠĠĠĠĠĠĠĠĠĠĠĠĠĠĠĠĠĠĠĠĠĠĠĠĠĠĠĠĠĠĠĠĠĠĠĠĠĠĠĠĠĠĠĠĠ ĠĠĠĠĠĠĠĠĠĠĠĠĠĠĠĠĠĠĠĠĠĠĠĠĠĠĠĠĠĠĠĠĠĠĠĠĠĠĠĠĠĠĠĠĠĠĠĠĠĠĠĠĠĠĠĠĠĠĠĠĠĠĠĠĠĠĠĠĠĠĠĠĠĠĠĠĠĠĠĠĠĠĠĠĠĠĠĠĠĠĠĠĠĠĠĠĠĠĠĠĠĠĠĠĠĠĠĠĠĠĠĠĠĠĠĠĠĠĠĠĠĠĠĠĠĠĠĠ
Ġfig ures
Ġrent s
Ġsurv iv
Ġdet ri
he ast
Ġc old
Ġwas n
Ġsatisf ies
Ġw ed
Ġdes irable
op ed
f x
Ġa head
Ġim poses
Ġtrans mitted
Ġo m
establis hed
Ġ( Â§
Ġadmit s
Ġ4 80
Ġf ast
Ġ29 8
16 0
Ġâ Ĺı
st ating
Ġfem ale
Ġ4 26
Ġappro ached
um atic
Ġne utral
Ġmay or
lo se
6 25
commun ications
01 8
24 0
res erv
Ġch at
âĢĶ âĢĶ
Ġgu ess
da q
Ġsh ield
Ġexpress ion
r ated
Ġnegot iation
ĠĠĠĠĠĠĠĠĠĠĠĠĠĠĠĠĠĠĠĠĠĠĠĠĠĠĠĠĠĠĠĠĠĠĠĠĠĠĠĠĠĠĠĠĠĠĠĠĠĠĠĠĠĠĠĠĠĠĠĠĠĠĠĠ ĠĠĠĠĠĠĠĠĠĠĠĠĠĠĠĠĠĠĠĠĠĠĠĠĠĠĠĠĠĠĠ
ac ent
Ġken nedy
Ġ24 4
Ġ3 37
Ġtradem arks
12 3
on ly
Ġconstru cted
Ġassign ing
part icip
Ġconvers ations
Ġhelp ful
nw as
Ġtroub le
Ġ4 07
ale z
Ġ48 4
13 6
Ġn c
Ġm ol
reg ular
Ġfix t
Ġbe gins
Ġen ab
Ġwa it
Ġdeed s
Â ¿
Ġo lder
Ġ5 07
Ġmon ies
Ġincarc eration
app eal
Ġro d
ex hibit
60 6
........ ...
Ġaud ited
Ġca usal
Ġ5 27
Ġ___ ,
Ġunivers al
ou d
Ġf t
vel and
Ġ26 7
âĢ Ł
Ġ45 1
Ġbul let
Ġprivile ged
ĠĠĠĠĠĠĠĠĠĠĠĠĠĠĠĠĠĠĠĠĠĠĠĠĠĠĠĠĠĠĠĠĠĠĠĠĠĠĠĠĠĠĠĠĠĠĠĠĠĠĠĠĠĠĠĠĠĠĠĠĠĠĠĠĠĠĠĠĠĠĠĠĠĠĠĠĠĠĠĠĠĠĠĠĠĠĠĠĠĠĠĠĠĠĠĠ Ġ
ter ior
Ġinad missible
Ġ4 69
Ġground ed
Ġexpl os
19 70
Ġad missibility
Ġprevent ing
Ġ38 8
ici ary
Ġken neth
Ġye ah
Ġur ban
Ġcustod ial
Ġjust ices
19 67
---- --
01 9
Ġinterrog atories
Ġc u
Ġan imal
Ġobst ruct
t otal
Ġdis ag
Ġsusp end
Ġdisburse ment
Ġo o
Ġbr ain
cla use
Ġw it
Ġdelay s
la ck
Ġconstru e
ord on
Ġcap ac
Ġj pm
Ġ28 4
alth ough
Ġfin es
Ġenum erated
Ġsex ually
e er
Ġover time
Ġ26 9
Ġpurp ort
Ġint im
ound ed
Ġsant a
het amine
Ġgen eric
Ġintermedi ary
Ġsc en
Ġborrow ed
Ġac ute
Ġrem arks
Ġgra ce
Ġinvalid ity
npro gram
Ġdenomin ated
: :
Ġinstall ed
Ġk at
Ġ5 55
Ġc w
Ġinc on
Ġdisc laim
Ġo c
Ġk it
Ġpe ters
h ad
Ġf red
Ġregard ed
Ġconc rete
Ġj apan
Ġway ne
Ġo s
Ġ29 7
Ġtas ks
Ġexp ended
Ġ19 47
Ġsc an
qu ire
ben ef
Ġes cape
Ġon es
Ġak orn
termin ed
Ġsub rog
Ġab b
Ġin applicable
Ġrec ourse
Ġpartnership s
Ġmcdon ald
Ġus age
ici an
Ġmist rial
Ġflu ct
Ġteacher s
Ġvul ner
es ign
v x
?? ??
Ġir on
ĠâĢ Ŀ
tw o
umb ered
Ġ4 45
Ġunf ortun
Ġcon g
Ġmortgag or
Ġmone ys
Ġun clear
olit an
Ġc os
Ġd ing
Ġuntime ly
Ġ27 9
........ ..
Ġhed ging
---- \
Ġint angible
Ġfield s
ong ress
Ġeng land
ac er
Ġm os
Ġr idge
c ost
Ġcommit ting
Ġcommon ly
tim ore
p led
Ġmal icious
loc utory
Ġaccommod ation
Ġlif etime
cli ent
Ġrep aid
or al
Ġmultip lied
yy yy
im p
Ġens uring
p arent
Ġo ste
Ġau ction
Ġ49 0
ines e
Ġvacc ine
Ġvis ual
2 25
Ġgra ham
Ġaddition s
Ġc ities
Ġh olid
ic ul
Ġprohib iting
Ġcancell ed
Ġtermin al
ĠĠĠĠĠĠĠĠĠĠĠĠĠĠĠĠĠĠĠĠĠĠĠĠĠĠĠĠĠĠĠĠĠĠĠĠĠĠĠĠĠĠĠĠĠĠĠĠĠĠĠĠĠĠĠĠĠĠĠĠĠĠĠĠĠĠĠĠĠĠĠĠĠĠĠĠĠĠĠĠĠĠĠĠĠĠĠĠĠĠĠĠĠĠĠĠ ĠĠĠĠĠ
Ġexp ire
01 6
ĠâĢ Ĳ
coll ateral
17 5
Ġ26 4
Ġoccup ied
Ġ3 75
Ġwr ist
ph old
Ġj os
Ġdefin itive
at isf
Ġexpect ation
li qu
Ġin fection
Ġinvestig ative
Ġsu d
Ġspeed y
Ġv ital
Ġ36 4
.... .
Ġliqu or
Ġcra ck
Ġ4 31
Ġover t
Ġgo ogle
in st
iqu es
Ġ(âĢľ [
asc ular
Ġur ged
Ġ3 29
Ġdirect s
n per
Ġhyd ro
id s
Ġun ex
Ġborrow ings
end ence
Ġstrick land
21 4
appro ved
l ia
in der
Ġal tered
Ġsl ow
Ġs d
Ġmond ay
add itional
Ġremed ial
Ġend s
Ġte ch
Ġcance l
Ġz ip
Ġ3 76
Ġappropri ation
Ġsp ous
om er
Ġr cw
Ġgain ful
al ized
spec ific
Ġcr isis
Ġschedul ing
Ġt act
Ġ29 1
Ġcol umn
Ġ4 70
m j
ows ki
Ġv oc
Ġl ung
Ġclar ify
Ġsil ent
reason able
Ġpro s
Ġpers istent
Ġmed iation
Ġmet rop
12 6
Ġ3 46
Ġpredecess or
Ġf illed
Ġira q
s ur
Ġp ounds
Ġ4 39
Ġbl vd
Ġv ent
am ily
Ġ19 60
20 7
Ġ28 8
Ġsp ending
Ġexpect ations
Ġconced es
Ġpreserv ed
ur ally
Ġ25 8
17 0
Ġc ad
Ġplain ly
t es
are st
Ġeng agement
Ġrespir atory
Ġt icket
Ġcol on
Ġcomple ting
Ġ4 60
Ġron ald
str ong
Ġface book
ĠĠĠĠĠĠĠĠĠĠĠĠĠĠĠĠĠĠĠĠĠĠĠĠĠĠĠĠĠĠĠĠĠĠĠĠĠĠĠĠĠĠĠĠĠĠĠĠĠĠĠĠĠĠĠĠĠĠĠĠĠĠĠĠĠĠĠĠĠĠĠĠĠĠĠĠĠĠĠĠĠĠĠĠĠĠĠĠĠĠĠĠĠĠĠĠĠĠĠĠĠĠĠĠĠĠĠĠĠĠĠĠĠĠĠĠĠĠĠĠĠĠĠĠĠĠĠĠ ĠĠĠĠĠĠĠ
Ġintegr al
se min
Ġd w
Ġpay s
Ġa z
Ġco x
Ġdri vers
ill ary
ch arge
Ġf ox
ne a
Ġun available
q r
Ġset off
Ġprotoc ol
Ġexpend iture
Ġ29 3
n k
Ġcompr ising
Ġeliz abeth
Ġro of
Ġmerchand ise
o en
Ġ5 56
======== ========
Ġ49 8
Ġ27 2
Ġexamin ers
50 3
Ġb row
Ġfa ced
am ble
Ġpresum ptive
Ġsan ders
n u
Ġ5 09
Ġtend ered
e ree
Ġadj acent
ren ch
Ġinc lusive
de gree
Ġhe pat
Ġexp ires
Ġ7 01
w ru
Ġdri ven
Ġrecur rent
roll er
Ġwat son
b old
et itive
Ġ29 4
Ġthe ories
al ity
Ġ* *
Ġun w
perform ance
Ġfell ow
Ġsh orter
Ġadvers ary
Ġ3 38
h ar
Ġtax ing
Ġrecital s
conf idential
Ġ5 44
Ġ28 9
i ment
her s
Ġt res
j a
Ġcl os
Ġ5 28
Ġent ers
\' \'
Ġinspe ctions
........ .
Ġpow ell
Ġstatist ical
amp hetamine
Ġ3 36
Ġmach ines
Ġ38 6
21 3
Ġreturn ing
Ġshar p
Ġp ear
cop y
Ġrein statement
Ġ4 46
Ġd ies
Ġtransfer or
Ġmin ister
Ġ ^
Ġindef inite
cri ptions
in it
Ġcompens ated
re ed
Ġ3 48
Ġ19 54
Ġ3 77
Ġcomp osition
Ġwork force
rey fus
Ġaccred ited
Ġ19 55
Ġserge ant
Ġad jud
Ġ3 35
Ġtim ber
Ġdefaul ted
ĠĠĠĠĠĠĠĠĠĠĠĠĠĠĠĠĠĠĠĠĠĠĠĠĠĠĠĠĠĠĠĠĠĠĠĠĠĠĠĠĠĠĠĠĠĠĠĠĠĠĠĠĠĠĠĠĠĠĠĠĠĠĠĠĠĠĠĠĠĠĠĠĠĠĠĠĠĠĠĠĠĠĠĠĠĠĠĠĠĠĠĠĠĠĠĠ ĠĠĠĠĠĠĠĠĠĠ
ur ances
Ġwa iting
Ġabst ract
r g
Ġp orn
Ġexpl aining
Ġ11 01
Ġ36 1
y a
Ġ3 42
Ġ4 47
Ġorth oped
Ġdr ain
Ġr if
Ġcompens atory
v o
Ġincap acit
lo an
Ġ3 31
Ġm ile
Ġauthor izations
Ġdemur rer
Ġ5 20
op s
h z
Ġtox ic
x on
Ġjoin der
Ġs ab
le gal
Ġmand ated
p i
Ġ________________ ____________
Ġ27 8
Ġaggrav ating
il a
Ġdis hon
velop ment
Ġ27 6
Ġ3 49
Ġnote holders
Ġest ates
Ġcorrect ive
Ġp aint
h ire
Ġ27 7
Ġ3 71
f air
Ġthink ing
Ġreorgan ized
h c
Ġdef raud
Ġb and
Ġguidel ine
Ġdistrib uting
liqu id
40 2
Ġlit er
Ġserv s
Ġ36 8
Ġg ather
Ġn erv
Ġv ic
y m
supp orted
Ġbern ard
Ġbal timore
rev iew
Ġhar bor
Ġacadem ic
Ġdoct ors
Ġredeem ed
ll c
Ġ28 6
Ġregul ate
fin ancial
.... ..
lim ited
Ġfre ight
lic ense
Ġrecl ass
Ġ510 2
Ġ________________________________ ________________
Ġgrow ing
quarter s
Ġj oe
Ġspec ifying
appell ants
defendant s
u ca
Ġs i
Ġcondition ed
Ġthen ce
Ġserious ly
Ġforesee able
Ġd iction
30 8
12 8
Ġ19 59
Ġpay ee
Ġspec ulative
il s
Ġnetwork s
Ġredu ctions
Ġwild life
or a
Ġexperi ences
Ġover come
? "
Ġ __
Ġaccess ible
Ġb va
Ġvari ance
j k
u min
Ġexchan ged
com pl
Ġmemor ial
Ġk nees
Ġcapac ities
Ġlo pez
Ġhart ford
e re
Ġb ind
Ġpost age
Ġ38 1
Ġpl ants
Ġ8 41
Ġtem per
de bt
Ġadvis able
Ġank ylosis
Ġv en
Ġhypot hetical
Ġk il
Ġsearc hes
01 97
u le
Ġshipp ing
cap ital
Ġmetrop olitan
lo ok
ony m
Ġsor ry
com mission
Ġd hs
Ġres ent
ri ed
Ġcle veland
Ġf cc
nthe re
x ef
Ġconclus ively
Ġmill s
om atic
Ġr aw
Ġ48 9
Ġ4 13
Ġfr iday
Ġmachin ery
Ġmechan ism
an i
Â ³
gr ini
ee k
f our
Ġden ver
14 4
50 9
Ġg ill
Ġpre gn
Ġelimin ated
y stem
Ġc us
Ġquestion na
Ġremo ving
Ġj oints
Ġf ib
st ar
ir u
Ġtest ifying
Ġparticip ations
v caa
proper ty
Ġr ing
Ġlat est
whe l
Ġ5 13
Ġc raw
Ġexecut ives
ĠĠĠĠĠĠĠĠĠĠĠĠĠĠĠĠĠĠĠĠĠĠĠĠĠĠĠĠĠĠĠĠĠĠĠĠĠĠĠĠĠĠĠĠĠĠĠĠĠĠĠĠĠĠĠĠĠĠĠĠĠĠĠĠĠĠĠĠĠĠĠĠĠĠĠĠĠĠĠĠĠĠĠĠĠĠĠĠĠĠĠĠĠĠĠĠ ĠĠĠĠĠĠ
Ġan not
ograph y
Ġn ut
Ġ49 4
ab il
4 01
Ġwire less
ant ly
Ġconsist ed
Ġund i
Ġ4 38
Ġvend ors
Ġi j
Ġcam era
............ ..
Ġpursu ing
rie ved
Ġprocess ed
Ġ5 41
Ġ4 62
Ġhand le
Ġsell s
Ġ3 39
Ġcons p
cred itor
Ġsupp lements
d ered
us ive
21 1
Ġse wer
ro it
l ie
Ġid e
Ġsp ok
Ġaccount ant
Ġconf ined
Ġse a
ĠâĢ ¦
Ġhospital s
r ig
Ġunderwrit ing
def ault
Ġee oc
Ġtr uly
Ġleg end
Ġdefaul ts
Ġj ordan
n ers
Ġdis pro
r in
Ġ5 54
pr incip
Ġdead ly
50 5
Ġinvestig ating
2 10
Ġr id
d id
Ġinc umb
Ġdis aster
Ġm es
ec on
Ġsur pr
Ġinterpret ing
ox ley
Ġhawa ii
Ġwal ked
Ġg ordon
Ġ. "
Ġ4 29
om ic
Ġmount ain
ent ered
Ġ5 60
inc orpor
so red
19 68
Ġmeth amphetamine
11 00
Ġ35 3
Ġ5 47
19 69
Ġko ch
Ġin sul
Ġcont ra
Ġsever ability
Ġnarc otics
Ġcourt room
Ġinvestig ator
Ġrecip ients
Ġbro ken
Ġident ifies
Ġ3 43
b by
ir a
ï¬ ģ
appelle es
Ġmin us
Ġste vens
Ġwor se
Ġ ie
Ġ4 21
Ġutil ize
Ġa fore
Ġ3 73
Ġrank ing
Ġsh ut
el ity
nf rom
c ensus
Ġnegot iate
Ġdevelop ments
nw ould
Ġk illing
Ī Ĵ
Ġ4 68
Ġneurolog ical
Ġgood will
Ġsee ing
Ġtechn iques
Ġerrone ously
Ġ9 24
Ġ4 67
w v
u ous
p ocket
Ġquarter s
Ġ19 46
Ġsub part
n comp
26 0
no on
Ġ19 57
Â· Â·
ou p
Ġo ce
Ġimp licit
m g
uck er
Ġpron oun
Ġcon cess
Ġfat igue
Ġmechan ical
13 5
Ġvan guard
Ġannoun cement
Ġcap ability
Ġ4 20
Ġ39 2
Ġhepat itis
Ġaffirmative ly
Ġ3 44
y p
Ġconce al
Ġ[ *
............ .
Ġadj our
Ġ36 6
Ġdiscl oses
Ġ3 79
Ġbrother s
Ġc ed
Ġt ape
Ġsuggest ing
Ġch inese
Ġ6 04
n under
Ġun con
Ġciv ilian
Ġsuspect ed
Ġimpart ial
Ġ4 34
Ġatt ract
Ġ3 47
Ġc ow
fe as
Ġnomin ee
Ġpip e
Ġsubordin ate
Ġ________________ ____
k l
Ġ19 51
Ġn ash
Ġc ay
Ġaccept s
Ġst able
Ġac re
Ġproxim ately
Ġbr on
c ers
quent ial
Ġmicro soft
Ġcomput ation
Ġcompet ing
Ġcomp t
Ġdisposition s
Ġ4 58
Ġfurnis hing
Ġavoid ed
Ġinnoc ent
Ġstreng the
ĠâĢľ âĢĺ
ili ation
Ġdis semin
Ġ4 18
Ġcomp act
Ġmedical ly
.... "
Ġbound aries
Ġr sus
Ġreconsid er
Ġbuy ers
Ġ39 5
Ġpit ts
22 4
Ġrichard son
Ġbelong ing
Ġtim othy
Ġwe t
Ġcommunic ated
Ġ4 41
le grini
Ġfab ric
Ġ4 64
Ġaccount ability
ist ol
ĠÂ ¨
Ġterror ist
Ġsp ir
Ġab r
Ġresol utions
Ġ5 14
Ġ5 46
Ġy ell
call ed
Ġor ient
Ġjpm organ
Ġinf ra
28 97
b ound
Ġsubject s
Ġ35 2
Ġfarm ers
Ġ4 61
u j
Ġfres h
Ġl q
Ġent rance
og en
Ġprofess or
Ġ39 1
Ġp s
Ġpull ed
Ġtres pass
Ġce ases
Ġgener ate
ine a
writ ten
Ġsin us
com ing
Ġpoll ution
Ġconstitutional ity
Ġ9 11
Ġada pt
Ġrac ial
Ġt ier
ĠĠĠĠĠĠĠĠĠĠĠĠĠĠĠĠĠĠĠĠĠĠĠĠĠĠĠĠĠĠĠĠĠĠĠĠĠĠĠĠĠĠĠĠĠĠĠĠĠĠĠĠĠĠĠĠĠĠĠĠĠĠĠĠĠĠĠĠĠĠĠĠĠĠĠĠĠĠĠĠĠĠĠĠĠĠĠĠĠĠĠĠĠĠĠĠĠĠĠĠĠĠĠĠĠĠĠĠĠĠĠĠĠĠĠĠĠĠĠĠĠĠĠĠĠĠĠĠ ĠĠĠĠĠĠ
Ġmak er
Ġplaus ible
m other
Ġ39 4
Ġ5 48
Ġ35 1
Ġbe ver
ĠĠĠĠĠĠĠĠĠĠĠĠĠĠĠĠĠĠĠĠĠĠĠĠĠĠĠĠĠĠĠĠĠĠĠĠĠĠĠĠĠĠĠĠĠĠĠĠĠĠĠĠĠĠĠĠĠĠĠĠĠĠĠĠ ĠĠĠĠĠĠĠĠĠĠĠĠĠĠĠĠĠĠĠĠĠĠĠĠĠĠĠĠĠĠĠĠĠĠĠ
Ġclot hing
ĠĠĠĠĠĠĠĠĠĠĠĠĠĠĠĠĠĠĠĠĠĠĠĠĠĠĠĠĠĠĠĠĠĠĠĠĠĠĠĠĠĠĠĠĠĠĠĠĠĠĠĠĠĠĠĠĠĠĠĠĠĠĠĠĠĠĠĠĠĠĠĠĠĠĠĠĠĠĠĠĠĠĠĠĠĠĠĠĠĠĠĠĠĠĠĠ ĠĠĠĠ
Ġ5 15
war rant
0 26
Ġeth ics
Ġeffect uate
re ly
Ġcompet itors
Ġunemploy ability
Ġcig are
12 9
Ġ36 7
Ġpresent ing
Ġ48 3
Ġgovern ance
Ġmedic ations
Ġhon est
j ur
Ġgonz alez
." [
Ġd reyfus
Ġcompet ency
Ġ35 7
Ġfew er
Ġburn s
in ct
Ġcompt roller
Ġcap r
Ġm ason
Ġinc hes
Ġdr inking
50 4
Ġd ick
Ġmin ute
Ġunmistak able
amend ment
cept ive
tra umatic
12 7
Ġ5 30
23 2
Ġvessel s
Ġunlaw fully
Ġwar nings
Ġpost ing
............ ...
Ġdie go
âĢ ĳ
Ġeight een
Ġlib rary
gu arant
Ġuncert ainty
Ġcogn iz
Ġabsent ee
respect ive
Ġ4 17
Ġal bert
Ġb es
Ġsign atory
Ġdisregard ed
Ġ38 9
Ġas cert
iz er
Ġimm aterial
ray s
s ent
at i
Ġrep lied
Ġhe ading
trans fer
Ġdifferent ly
Ġsc ores
Ġrest s
Ġfood s
Ġeag le
40 4
Ġche v
gr ade
Ġtotal ity
Ġcole man
Ġ19 53
Ġatt ending
Ġprecise ly
Ġsc ars
lic k
Ġ5 89
f p
Ġr are
Ġfd ic
laps ed
mot ion
Ġ4 79
Ġo ught
ig ently
Ġeuro currency
Ġas ks
Ġnot ary
Ġinnoc ence
Ġbound ary
Ġanalog ous
keep ing
Ġpro jections
Ġstreet s
Ġfla re
12 2
Ġall iance
Ġhe at
r c
Ġbrief ly
Ġb le
Ġde vis
Ã °
4 25
Ġ8 01
Ġ ----------------
il ly
Ġcar bon
Ġ3 72
Ġro th
14 8
Ġover se
Ġpe er
Ġar n
Ġexc ulp
Ġ3 78
i as
gh an
Ġscreen ing
22 9
Ġh ans
Ġatlant ic
Ġro sen
Ġinter locutory
in f
Ġdeduct ible
Ġp f
Ġco erc
Ġdepri ve
ll er
Ġden nis
b ow
Ġt ear
Ġseat tle
0 80
b our
18 8
ir t
Ġsubcontract or
Ġrail way
Ġ5 37
Ġnas daq
Ġpost pon
Ġinit iate
Ġtri p
quest ion
Ġ9 06
Ġlink ed
rec ogn
Ġst ability
, ,
Ġ8 02
ar ial
Ġinter section
Ġscrutin y
Ġver bal
cor por
Ġendors ed
Ġass urances
Ġ4 71
Ġthere upon
in ity
Ġd rop
Ġ48 1
Ġille g
Ġbrad ley
Ġ5 19
Ġun success
Ġnav al
Ġ3 54
ris k
bu ild
Ġcomp lying
du ction
m ust
Ġbod ies
borrow er
ad y
Ġus c
v l
Ġbr ings
Ġ5 21
Ġdiscl osing
Ġ5 18
Ġhen derson
Ġd d
se arch
Ġhost ile
Ġf ol
13 8
Ġentertain ment
Ġ19 45
spec ified
Ġ4 19
Ġcomp uting
Ġarth ur
j ks
Ġsub ordination
Ġroyal ties
2897 0197
Ġpharmaceutical s
pt on
Ġunlike ly
Ġp b
Ġg av
Ġsurv ival
Ġher nandez
Ġre yn
Ġallow able
Ġintegr ation
Ġ48 6
fe b
Ġs ides
Ġover whel
Ġ5 40
Ġcompl ains
Ġ4 76
is er
Ġexerc ises
nthe y
Ġtrail er
Ġdiction ary
Ġsp an
Ġha ven
2 80
s ame
Ġ6 09
Ġ197 28970197
Ġover rule
Ġam ple
Ġind iff
Ġ510 9
Ġro y
Ġal an
Ġun cont
Ġdeb entures
Ġtender ness
Ġga f
Ġt orts
o a
port s
Ġrevis e
Ġintermedi ate
Ġx x
ef endant
Ġhud son
40 3
Ġas cribed
Ġresid es
21 6
Ġevery one
Ġbro ader
b k
ag er
Ġd im
est one
Ġfid elity
Ġal ert
16 5
Ġn ative
Ġincorpor ate
ens ity
Ġ3 32
Ġincarc erated
Ġspecial ty
Ġp ocket
ot ed
Ġ7 02
Ġcalcul ate
Ġnewspa per
Ġemail s
Ġbru ce
Ġbrook s
ĠâĢĺ âĢĺ
Ġsat ur
i u
Ġcontin ental
.... ...
e lect
ors hip
g ot
Ġf rench
Ġbi ological
Ġh r
Ġh od
Ġar re
Ġ4 37
Ġ4 27
Ġ20 549
n ve
Ġhug hes
Ġ4 28
Ġpar ks
Ġprud ent
Ġvirt ually
Ġ39 0
Ġpat ri
Ġ4 74
Ġwy oming
i vidual
Ġregard s
14 5
ll or
Ġ5 51
du ced
Ġsamp les
Ġdistinguish able
Ġbreat h
Ġproff ered
l ation
Ġsal aries
0 50
Ġorthoped ic
Ġalter ation
Ġcert ifies
Ġ38 3
Ġgr ams
Ġadopt ing
Ġretro act
Ġsp end
Ġemerg ing
on ed
Ġhe ro
Ġmg mt
Ġs b
Ġ( .
Ġinvo ices
le ans
Ġba iley
Ġs we
Ġ è
Ġinterpret ations
Ġbu ll
nw ill
Ġn ol
Ġsearc hed
Ġfe ature
Ġinaccur ate
Ġview ing
Ġn d
aw ay
Ġdet roit
). [
Ġdeleg ated
Ġ48 5
Ġb ought
n one
Ġsm art
Ġm ack
Ġjud iciary
13 1
Ġquot ations
Ġref eree
Ġreal ity
Ġattach ments
Ġ19 58
Ġbar s
Ġh at
0 30
Ġwe aring
Ġspecial ist
Ġbar r
Ġmor al
Ġbut ler
Ġdeal t
n our
Ġl umber
ad vant
ff er
Ġ4 42
c ust
h igh
Ġsk y
Ġ5 33
Ġ4 63
[ ,]
Ġp osed
re al
Ġa x
34 6
Ġ5 42
Ġ39 8
Ġk ell
oper ative
Ġconsumm ate
Ġw ants
Ġ5 45
Ġh ut
Ġt ap
Ġcle aring
Ġ11 12
spec ial
bar a
Ġpres cribe
b ury
u ated
mon ary
Ġ39 7
Ġvol at
Ġadjudic ate
Ġ19 50
Ġsu icidal
Ġbed room
Ġ49 5
Ġcou rier
ro ck
Ġ6 36
Ġem issions
Ġe arth
Ġman ip
Ġv it
Ġcrit ic
Ġtransfer ring
ic er
Ġregistr ar
Ġexpand ed
Ġtest ator
Ġopp ose
Ġ7 112
nt e
Ġmill ions
h our
Ġc her
Ġ39 6
60 2
ĠĠĠĠĠĠĠĠĠĠĠĠĠĠĠĠĠĠĠĠĠĠĠĠĠĠĠĠĠĠĠĠĠĠĠĠĠĠĠĠĠĠĠĠĠĠĠĠĠĠĠĠĠĠĠĠĠĠĠĠĠĠĠĠĠĠĠĠĠĠĠĠĠĠĠĠĠĠĠĠĠĠĠĠĠĠĠĠĠĠĠĠĠĠĠĠ ĠĠĠĠĠĠĠ
Ġintermitt ent
Ġput ting
Ġcross ing
Ġexecut or
Ġm ode
Ġem phasis
Ġimp ed
b ral
sec urities
Ġse v
Ġper fection
Ġgu est
Ġdefe at
50 2
Ġindict ed
in ced
Ġ6 68
Ġstruct ural
se x
Ġher tz
Ġsepar ated
Ġdec ib
Ġentit le
. *
the y
Ġ58 1
Ġinterven e
pa ce
Ġ7 06
Ġed ge
Ġreject ing
the se
ist ance
is en
13 3
Ġkir k
Ġmix ed
Â ½
Ġpar ame
Ġrender s
ban es
Ġtyp ical
al ysis
Ġinvent ions
Ġd ial
it ime
Ġil cs
âĤ¬ "
Ġ9 22
Ġ4 78
Ġex cell
Ġp in
33 3
Ġ5 08
Ġprep etition
Ġmerch ant
Ġ5 49
Ġ6 21
Ġbrad y
f y
Ġafter noon
99 9
Ġrecon st
ac qu
cont rol
Ġaust ral
nit ure
Ġenroll ment
Ġs welling
Ġor leans
Ġ8 11
Ġuncond itionally
Ġ38 7
Ġfle et
Ġexp orts
Ġachieve ment
Ġadjud ged
Ġ5 53
Ġ6 11
z o
Ġwood s
Ġus dc
Ġding ess
Ġprepay ments
Ġturn ing
Ġ38 2
Ġqu art
Ġcontinu ously
Ġ48 7
Ġencumb rance
Ġprison ers
Ġanaly ze
Ġassist ed
Ġderiv atives
Ġrad iation
Ġpsychiat rist
Ġdef icit
Ġunre alized
ro e
Ġfur niture
Ġconsumm ated
Ġha ir
Ġdys function
Ġmal ice
ge e
Ġ7 105
Ġcompr ised
s ite
Ġmi ke
du ly
Ġlev ied
Ġ ç
.' '
Ġp d
Ġambigu ity
in vestment
ns erv
Ġ5 16
Ġs j
Ġle aves
Ġe u
Ġb ip
jud icial
Ġfore ns
Ġmur ray
Ġhead quarters
Ġm all
Ġ6 25
che n
Ġben nett
Ġ5 38
Ġhar rison
Ġafore mentioned
Ġchance llor
ac cept
Ġtempor arily
Ġvirt ual
Ġir an
Ġ5 17
out s
Ġp es
Ġbe a
Ġh off
Ġcy cle
h w
Ġir rit
ag ues
Ġheck ler
vid ed
i ant
Ġkn ife
Ġ4 32
Ġx i
Ġformer ly
Ġsus an
Ġell is
38 5
.âĢĿ );
Ġ4 54
Ġpl ate
Ġexchan ges
Ġcompet e
Ġdom ic
Ġc ant
3 25
Ġad ul
Â» Â®
Ġ49 6
19 0
et ic
Ġ19 39
l ender
deal er
Ġpe legrini
Ġprov ince
in ary
Ġ53 50
Ġsummar ized
01 1
Ġn m
t est
Ġpan ic
Ġspec ially
Ġsess ions
j amin
Ġdepend ents
Ġquestionna ire
Ġconfirm s
or ia
f ail
Ġtele communications
Ġmc g
22 7
Ġrel ocation
w es
ht t
Ġbre aches
Ġoccas ional
Ġm ull
j s
m w
ec k
Ġdeleg ate
andem ic
Ġ38 5
Ġqu e
Ġ39 3
ll ll
nd ep
Ġisra el
na cc
Ġnoncomp ensable
ub e
Ġmy ers
Ġs now
Ġsp orts
Ġlear n
Ġinterview ed
p ost
Ġu phold
Ġemphas ized
Ġo mn
Ġf m
Ġv ag
he red
Ġun exp
Ġcap it
16 9
Ġdi am
Ġp ree
Ġaccord ed
con c
e ven
Ġdis rupt
Ġhun ter
ag ent
Ġsp ot
in er
Ġst ring
Ġfa a
Ġconting ency
Ġbl ind
Ġreyn olds
Ġmot ors
bur gh
Ġoper ators
Ġstruct ured
Ġconstru ing
0 40
Ġfoot note
at o
aw are
Ġrecei vers
Ġ7 75
a o
Ġsar banes
Ġanalyz ed
Ġ45 2
Ġt ree
Ġdeleg ation
Ġ7 07
Ġj ay
ill ion
Ġabandon ment
Ġlease hold
Ġref rain
Ġc ensus
Ġsubrog ation
ex empt
Ġhereto fore
ming ton
ty pe
Ġ19 49
ĠĠĠĠĠĠĠĠĠĠĠĠĠĠĠĠĠĠĠĠĠĠĠĠĠĠĠĠĠĠĠĠĠĠĠĠĠĠĠĠĠĠĠĠĠĠĠĠĠĠĠĠĠĠĠĠĠĠĠĠĠĠĠĠĠĠĠĠĠĠĠĠĠĠĠĠĠĠĠĠĠĠĠĠĠĠĠĠĠĠĠĠĠĠĠĠĠĠĠĠĠĠĠĠĠĠĠĠĠĠĠĠĠĠĠĠĠĠĠĠĠĠĠĠĠĠĠĠ ĠĠĠĠĠ
Ġmax im
Ġelectric ity
Ġp cra
22 6
Ġindu ced
id den
Ġimpro ving
Ġunamb iguous
he im
Ġr s
Ġge ographic
Ġstand s
Ġpar a
Ġall ied
Ġenc ounter
vid e
Ġdemocr atic
Ġwe ar
s ome
anche z
ad s
4 50
Ġpla za
ot ing
Ġto ur
Ġde ceptive
Ġthan ks
Ġdistrib utors
im an
7 04
13 9
Ġtraum atic
att orne
Ġpred icate
Ġking dom
r un
Ġpropri ety
0 27
Ġl ies
opp ing
o ct
n part
Ġ19 25
Ġanc illary
Ġen velop
Ġinf lict
Ġhelp ed
Ġ3 99
ling ton
g ments
Ġ225 5
he lp
Ġaccru al
Ġl isa
b efore
Ġaffirm ing
Ġd welling
Ġvoc ational
Ġreal ize
3 12
ic an
Ġunderstand ings
Ġmy self
ĠĠĠĠĠĠĠĠĠĠĠĠĠĠĠĠĠĠĠĠĠĠĠĠĠĠĠĠĠĠĠĠĠĠĠĠĠĠĠĠĠĠĠĠĠĠĠĠĠĠĠĠĠĠĠĠĠĠĠĠĠĠĠĠĠĠĠĠĠĠĠĠĠĠĠĠĠĠĠĠĠĠĠĠĠĠĠĠĠĠĠĠĠĠĠĠ ĠĠĠĠĠĠĠĠĠ
Ġimportant ly
Ġsummar ize
s ix
em pl
Ġse m
Ġenroll ed
Ġdraw ings
Ġc ue
Ġav iation
Ġsouth west
end o
Ġjan e
Ġinsolv ent
Ġb ot
Ġr ivers
Ġsett lements
Ġadminister ing
Ġacquit tal
j ohn
âĢĶ (
ĠĠĠĠĠĠĠĠĠĠĠĠĠĠĠĠĠĠĠĠĠĠĠĠĠĠĠĠĠĠĠĠĠĠĠĠĠĠĠĠĠĠĠĠĠĠĠĠĠĠĠĠĠĠĠĠĠĠĠĠĠĠĠĠĠĠĠĠĠĠĠĠĠĠĠĠĠĠĠĠĠĠĠĠĠĠĠĠĠĠĠĠĠĠĠĠ ĠĠĠĠĠĠĠĠ
Ġl umb
Ġinput s
Ġinterrog ation
Ġobserv ations
Ġconf ron
Ġfixt ures
0 23
ag ency
14 7
Â ¬
m id
Ġengine ers
Ġcham bers
19 66
b in
ol f
Ġanaly st
Ġmisrepresent ations
Ġ48 2
iv oc
Ġcond ensed
Ġlawsu its
pr in
Ġmans laughter
Ġ49 7
Ġunfortun ately
ie ls
Ġmatch ing
Ġhom est
Ġprof ile
Ġco vers
Ġbra z
in qu
Ġinter creditor
Ġsund ay
Ġdomin ion
yl um
Ã Ĺ
Ġm isc
Ġp andemic
c les
n work
b ol
ber ry
Ġl ig
Ġha c
Ġconv inced
Ġamend ing
Ġ59 0
Ġherb icide
15 7
Ġbon uses
Ġprom ised
Ġr anch
Ġtro oper
Ġrep rodu
ific ant
, âĢĻ
Ġse mi
Ġsatur day
Ġkore a
Ġr ider
Ġrele vance
01 254
ol ine
24 7
k c
Ġplay ed
---------- -\
Ġpar ish
i ac
Ġ5 35
Ġbor ne
Ġduplic ation
Ġwol f
Ġpul monary
Ġ6 78
inc ent
Ġexclud es
Ġj enn
Ġcontrib utory
Ġg ab
ins ic
Ġlead s
Ġdef ending
Ġl ying
Ġray mond
Ġiniti atives
Ġtravel ing
ic ating
Ġcount ed
Ġforth with
Ġpharm acy
Ġbar bara
j g
Ġmar itime
h ouston
Ġp el
Ġblock s
Ġpred icated
Ġinquir ies
Ġfulf illed
Ġlar ry
Ġfis hing
Ġun ilateral
---------------------------------------------------------------- -----------\
ph one
Ġfin der
Ġdocument ary
14 6
it ated
anc ies
Ġacknowled gment
subst antial
Ġcollect ing
Ġo x
bro ok
in vest
Ġcre w
g roup
Ġsher man
b ase
Ġun equ
Ġgovern s
Ġdepri vation
Ġroad s
u u
Ġ ----
Ġheav ily
Ġlegal ity
Ġ7 03
Ġwholes ale
Ġin ception
lu x
n me
0 25
Ġben jamin
Ġwal ter
Ġclar ification
c ial
23 4
Ġmat he
c as
Ġ5 43
50 8
Ġun audited
Ġ6 05
Ġur ges
oen ix
Ġv ig
Ġis n
Ġwil mington
Ġrelig ion
Ġp us
Ġpree x
ear ing
Ġhour ly
18 3
Ġinterrog atory
Ġ6 10
Ġnon profit
Ġafric an
n ie
Ġsuff ers
Ġmic he
ra ft
j o
Ġk in
g t
Ġ________________________________ ________________________________
d ale
Ġt ail
3 17
ard o
Ġjon athan
Ġweakness es
2 20
13 7
19 5
Ġspe aker
Ġ6 66
Ġcomm its
Ġlind a
Ġbas ically
ab oration
q h
os a
Ġintox icated
Ġoce an
Ġpier ce
Ġje w
Ġext ends
Ġprosec uted
ol umbar
us er
n act
Ġfourt een
Ġpatter son
Ġinv oke
Ġgriff in
13 2
Ġas ylum
ir us
princip al
Ġ5 34
Ġneighbor hood
r aine
reserv ed
Ġdiam ond
Ġhom icide
ir al
Ġconfront ation
16 6
Ġrein vestment
Ġlow est
Ġqu as
omin ium
und ed
23 6
15 1
Ġs ons
Ġce ased
Ġfall ing
Ġgib son
il er
Ġfraction al
Ġexperi encing
ur ation
Ġkind s
Ġdirect ives
bb bb
or ters
Ġ5 64
Ġbry ant
Ġgu o
ess ional
Ġpersu aded
Ġc ub
Ġfactual ly
Ġsu icide
14 1
issu er
Ġmet ro
Ġele ven
Ġbar nes
Ġsub lease
Ġins erted
Ġprior ities
Ġdeb enture
Ġd ent
ri ers
un c
Ġconsum ption
Ġre min
au er
Ġconfirm ing
quot ed
Ġprof ession
15 2
Ġdy nam
Ġcompar ative
Ġ6 02
Ġim ages
Ġcraw ford
Ġexhaust ed
d an
Ġward en
Ġb ates
Ġh i
Ġ5 32
Ġdecib els
r ad
Ġsud den
Ġwall ace
ra ge
Ġhomest ead
h ill
s l
Ġdis qualified
Ġ --------------------------------
Ġrepe al
Ġg m
Ġ5 70
ib les
Ġ5 69
Ġthorac olumbar
Ġuncon sc
14 2
Ġsuccess ive
ĠĠĠĠĠĠĠĠĠĠĠĠĠĠĠĠĠĠĠĠĠĠĠĠĠĠĠĠĠĠĠĠĠĠĠĠĠĠĠĠĠĠĠĠĠĠĠĠĠĠĠĠĠĠĠĠĠĠĠĠĠĠĠĠĠĠĠĠĠĠĠĠĠĠĠĠĠĠĠĠĠĠĠĠĠĠĠĠĠĠĠĠĠĠĠĠĠĠĠĠĠĠĠĠĠĠĠĠĠĠĠĠĠĠĠĠĠĠĠĠĠĠĠĠĠĠĠĠĠĠĠĠĠĠĠĠĠĠĠĠĠĠĠĠĠĠĠĠĠĠĠĠĠĠĠĠĠĠĠĠĠĠĠĠĠĠĠĠĠĠĠĠĠĠĠĠĠĠĠĠĠĠĠĠĠĠĠĠĠĠĠĠĠĠĠĠĠĠĠĠĠĠĠĠĠĠĠĠĠĠĠĠĠĠĠĠĠĠĠĠĠĠĠĠĠĠĠĠĠĠĠĠĠĠĠĠĠĠĠĠĠĠĠĠĠĠĠĠĠĠĠĠĠĠĠĠ ĠĠĠĠĠĠĠĠĠĠĠĠĠĠĠĠĠĠĠĠĠĠĠĠĠĠĠĠĠĠĠĠĠĠĠĠĠĠĠĠĠĠĠĠĠĠĠĠĠĠĠĠĠĠĠĠĠĠĠĠĠĠĠĠĠĠĠĠĠĠĠĠĠĠĠĠĠĠĠĠĠĠĠĠĠĠĠĠĠĠĠĠĠĠĠĠĠĠĠĠĠĠĠĠĠĠĠĠĠĠĠĠĠĠĠĠĠĠĠĠĠĠĠĠĠĠĠĠĠĠĠĠĠĠĠĠĠĠĠĠĠĠĠĠĠĠĠĠĠĠĠĠĠĠĠĠĠĠĠĠĠĠĠĠĠĠĠĠĠĠĠĠĠĠĠĠĠĠĠĠĠĠĠĠĠĠĠĠĠĠĠĠĠĠĠĠĠĠĠĠĠĠĠĠĠĠĠĠĠĠĠĠĠĠĠĠĠĠĠĠĠĠĠĠĠĠĠĠĠĠĠĠĠĠĠĠĠĠĠĠĠĠĠĠĠĠĠĠĠĠĠĠĠĠĠĠ
t able
Ġsub title
b orn
Ġin ferred
Ġ7 40
Ġchemical s
Ġdil uted
su it
at on
l on
c ounsel
Ġger man
vi ol
Ġforens ic
Ġan te
Ġ8 03
b ed
Ġpro long
Ġwill fully
Ġpublis hing
Â ¢
Ġcapr icious
Ġoblig ors
Ġrad icul
Ġindep endence
Ġa aa
Ġcou pled
Ġdisallow ed
Ġw k
Ġc i
Ġjur is
Ġinv oked
under ing
Ġpret ty
Ġpert ains
Ġt iff
24 9
ac ral
Ġ5 36
Ġ49 3
d wlrq
ear s
Ġpursu ed
Ġy ard
unt o
Ġfat al
23 5
nt y
Ġresc ission
Ġarn old
Ġhapp ening
40 6
Ð ¸
Ġartic ulated
Ġ7 27
Ġlog ical
Ġrest ore
Ġke ith
ann ual
Ġab l
Ġ19 52
st ep
Ġassoci ations
16 8
Ġdisplay ed
u v
Ġu h
ind emn
Ġtarge ted
n by
Ġpred omin
is ms
21 8
Ġcateg or
Ġk ee
d p
Ġj ason
)- (
Ġalter ations
15 4
e ction
Ġ88 1
Ġext ingu
Ġrom an
Ġmer ged
Ġ ig
Ġ5 59
Ġobject ively
Ġcheck ing
Ġcapital ization
Ġin eligible
ul ating
Ġir respective
lev ard
Ġproportion ate
Ġpreclud es
22 8
defin ition
us on
Ġqual ifies
wal k
americ an
how ever
h ave
Ġ49 1
Ġun duly
Ġlicens or
Ġro bb
Ġca ption
Ġtr ained
Ġ7 05
Ġthreat ening
Ġ(" [
00 000
pro duct
Ġcond ominium
os acral
Ġper spective
Ġmitig ate
Ġex it
Ġtarge ts
cons olid
p an
Ġincorpor ates
Ġcommod ities
com es
ib us
21 7
he alth
Ġgold en
u a
Ġd qg
Ġmil k
l ay
Ġturn s
Ġex h
ber ger
Ġhur t
xx x
Ġ5 31
14 9
Ġforward ed
Ġsh ap
ll a
cc a
Ġrh ode
. );
or ial
Ġaware ness
Ġf f
Ġloc ate
Ġd ave
23 9
Ġ5 62
Ġun restricted
Ġbou levard
Ġcontrib uting
rimin ation
r r
Ġpeter son
Ġr ip
ens en
60 7
c ut
Ġwould n
Ġexhaust ion
incorpor ated
it ter
Ġor ally
or um
01 7
Ġ7 04
Ġsp ac
Ġend e
Ġfri ed
Ġred esign
Ġc ul
Ġst ro
Ġprospect s
40 8
q f
Ġcus ip
# :
te chn
19 65
evid ence
Ġmist aken
ix ed
we re
s an
Ġun supported
f inal
Ġfac ing
Ġrecre ational
ll o
Ġmod els
not her
ucc io
Ġconcur red
Ġs anchez
Ġdet ained
15 8
Ġregistr ations
Ġsal t
Ġbr id
Ġst orm
l ast
Ã ¦
Ġco ff
Ġass aul
Ġsecur it
hu a
le tt
ather ine
Ġguard ians
Ġe lapsed
Ġparent ing
Ġir regular
Ġnu is
6 50
Ġa o
24 5
Ġclean ing
Ġpure ly
Ġatt est
Ġfound ed
Ġ4 72
Ġpercent ages
Ġlumb osacral
crib ing
Ġspecial ized
Ġwar n
Ġoverrul ing
ĠĠĠĠĠĠĠĠĠĠĠĠĠĠĠĠĠĠĠĠĠĠĠĠĠĠĠĠĠĠĠĠĠĠĠĠĠĠĠĠĠĠĠĠĠĠĠĠĠĠĠĠĠĠĠĠĠĠĠĠĠĠĠĠĠĠĠĠĠĠĠĠĠĠĠĠĠĠĠĠĠĠĠĠĠĠĠĠĠĠĠĠĠĠĠĠ ĠĠĠĠĠĠĠĠĠĠĠ
Ġd ub
Ġfree ly
` `
l wk
Ġ19 15
ad or
Ġcomp uls
Ġad am
Ġeas y
Ġ9 13
Ġp or
Ġinstrumental ity
Ġ5 74
ed a
22 2
Ġ5 73
Ġres ide
Ġbul k
Ġhapp y
f ur
ist ence
Ġspring field
Ġph oenix
Ġdep ressed
Ġanal ys
80 4
issu ers
Ġt ire
Ġfeas ible
Ġradicul opathy
Ġdefin ing
des ign
Ġpro port
Ġunexp ired
Ġfla g
h ma
Ġmcc l
Ġanticip ate
Ġpre requ
14 3
fe ld
Ġconstit u
i ers
court s
Ġamount ed
27 8
Ġne arest
Ġblo om
c oin
Ġ6 65
Ġap nea
Ġ7 08
id r
g cp
ra pe
Ġgo ber
28 3
us a
Ġ3 000
ak ers
) ]
Ġso il
lia ment
Ġqu it
25 8
Ġbe gun
Ġrel inqu
Ġgast ro
Ġun certain
Ġrecogn izing
Ġh ub
Ġruss ia
Ġr t
n comm
. --
Ġev ol
16 7
Ġwar ner
Ġsome body
Ġw s
Ġ5 80
n state
Ġper ceived
Ġaf ghan
c in
Ġa pt
Ġcance led
vern on
n all
Ġe rect
Ġsp orter
Ġ5 75
r idge
Ġreop ening
Ġrebut tal
Ġto dd
Ġcont amin
Ġst ations
Ġd av
Ġship ment
Ġrich mond
Ġdep ressive
16 4
Ġbroad ly
Ġa e
Ġsing ular
Ġacadem y
Ġpro poses
ic us
Ġvo ir
Ġcot ton
Ġarr an
Ġb b
Ġn t
Ġro ugh
Ġhero in
Ġrepe at
Ġt v
c ard
Ġ-- -
Ġaud io
Ġfre der
Ġde tection
Ġn ys
Ġ5 39
Ġ6 13
se pt
Ġt issue
Ġc ulp
l ib
24 8
Ġ19 43
l ar
av irus
Ġcertific ations
Ġspect rum
Ġcourt house
Ġd aw
Ġexecut ory
Ġbe at
ĠĠĠĠĠĠĠĠĠĠĠĠĠĠĠĠĠĠĠĠĠĠĠĠĠĠĠĠĠĠĠĠĠĠĠĠĠĠĠĠĠĠĠĠĠĠĠĠĠĠĠĠĠĠĠĠĠĠĠĠĠĠĠĠĠĠĠĠĠĠĠĠĠĠĠĠĠĠĠĠĠĠĠĠĠĠĠĠĠĠĠĠĠĠĠĠ ĠĠĠĠĠĠĠĠĠĠĠĠ
Ġdep ort
Ġ6 50
Ġc ord
c at
Ġ................................................................ ................................................
Ġse aled
7 02
Ġsust aining
Ġmain e
ex change
Ġje an
Ġke ys
Ġspir it
plaintiff s
Ġsev enty
Ġ6 94
fore ign
Ġgreat est
Ġd ot
16 2
19 63
Ġsur ge
Ġharm ful
Ġa er
Ġover payment
15 3
Ġprison s
Ġcolle agues
Ġnerv ous
Ġnom ination
Ġsubdiv isions
m ich
Ġsim mons
Ġp orter
Ġded icated
Ġmus ic
Ġam d
ed ing
Ġassist ing
Ġ9 03
Ġany where
Ġn ic
18 5
w ick
te bral
Ġof the
Ġb ath
Ġrec ol
Ġincent ives
al ia
Ġnot ifies
Ġsar ah
Ġ8 77
Ġmo ves
Ġlit eral
Ġoff shore
Ġincumb ent
u its
Ġrec oup
Ġcapit ol
d wh
Ġrad i
ou l
Ġdis advant
Ġpre sume
Ġstat istics
c ounter
k le
Ġtrib es
Ġj am
Ġyou n
Ġjenn ifer
Ġc el
Ġbe er
Ġhard ware
Ġwrong do
50 7
Ġd ol
Ġla undering
Ġsub missions
Ġconf ess
6 55
u ct
Ġre action
Ġal t
Æļ s
2 30
Ġ9 02
25 5
Ġ5 66
Ġcar go
Ġh ong
Ġadm iral
onym ous
Ġretroact ively
Ġto wer
c over
Ġexecut ors
Ġ5 57
m el
Ġ________ __
Ġpe rem
i owa
anc ery
re a
r w
Ġmer rill
at us
s ing
Ġsch iz
Ġast hma
Ġtransport ed
Ġc ess
Ġ6 56
Ġstress ors
administr ative
anc hes
Ġorgan ic
am ination
Ġincapacit ating
Ġanim als
Ġtop ic
50 6
n q
Ġpre f
Ġshe lf
25 6
Ġcompl aining
Ġun vested
Ġquart uccio
Ġcl imate
Ġbo at
Ġ6 07
Ġtax ed
4 33
Ġcay man
j une
Ġmand ates
eng ers
ar o
Ġinqu ire
Ġo g
Ġdivid ing
Ġd ia
do es
ite xt
Ġcomp ound
23 8
e k
Ġas ia
Ġgeneral ity
n reg
Ġimm une
Ġminim ize
Ġpresum ably
Ġemp ow
Ġen em
Ġaf l
Ġleg s
Ġ5 61
Ġch ancery
ev ent
Ġnot ation
pr int
Ġincompet ent
subst ant
29 0
sp ir
01 01
n ass
Ġair lines
Ġp ent
Ġgar age
Ġ6 03
Ġbus h
Ġpar liament
red acted
24 3
ear ance
Ġow ens
w au
Ġur ge
Ġl akes
class ified
so le
Ġvis a
25 7
Ġdrain age
Ġbid s
Ġsp inal
Ġ Ð
Ġn v
person al
ff iciency
. âĪĻ
ric ia
Ġg raph
d l
ing ham
end a
Ġa ar
Ġinad vert
Ġrand om
Ġvis ible
Ġnot ably
36 5
om an
a oj
Ġdeb ate
ain st
Ġ7 38
Ġflex ibility
17 9
Ġpar ked
Ġgonz ales
Ġcheck ed
i ber
Ġaccru ing
Ġregistr y
Ġpromot ing
ntr ans
f ile
Ġanalys es
ot te
Ġim minent
Ġen rich
r ating
Ġ5 100
Ġfin ished
Ġsubmit ter
Ġ8 10
Ġf itz
Ġg aming
Ġdavid son
le ts
r als
i en
Ġomn ibus
sa fe
Ġid eas
Ġgas oline
Ġconclus ory
g age
Ġ8 04
Ġal ph
per t
Ġf ence
40 7
Ġ. âĢĿ
Ġro che
w eek
Ġhol mes
0 28
j j
Ġpract ition
0 24
Ġdevelo per
Ġva op
Ġdeter ior
Ġcon ver
Ġcan al
Ġbab y
Ġ225 4
ipp ed
Ġign ored
34 5
ex pl
on ic
Ġb p
Ġchannel s
Ġger many
ign ment
Ġdemonstr ation
Ġun insured
Ġorigin ator
n ut
Ġperem pt
Ġcopyright s
Ġvir us
Ġnation ally
h b
Ġindiff erence
ut en
la k
Ġinter val
sh ares
Ġwork men
ch o
Ġ5 58
Ġslight ly
Ġen closed
disc uss
apr il
Ġrein stated
Ġsequ ence
petition er
Ġid ref
Ġex empl
Ġbank ers
Ġpict ures
Ġincon ven
h aw
Ġs ys
Ġwithd rew
Ġse p
Ġquot e
Ġthreshold s
Ġproduct ive
Ġh orse
Ġexped ited
Ġ10 36
Ġnuis ance
f ather
Ġ5 71
w itness
ump ing
ia e
Ġprev ents
cept ible
Ġarran ged
Ġs ed
ol i
Ġbanc orp
Ġpas o
Ġ6 67
Ġconsc ious
te ch
Ġstru gg
c ation
18 9
Ġcom fort
ues day
p x
Ġp ater
Ġcam er
m ary
Ġpossess ing
Ġ725 2
Ġ19 41
Ġlo bby
Ġarbitr ators
Ġresent encing
Ġl v
nthe ir
22 3
sec ution
Ġr ack
18 6
Ġdiscount s
Ġatt ain
Ġbo e
Ġ6 26
Ġ7 13
d ie
Ġimp ract
Ġam az
Ġd ress
Ġdraf ted
Ġtort ious
Ġquant ities
01 2
Ġsurren dered
3 20
Ġg ifts
33 5
Ġ5 68
Ġcat tle
former ly
Ġisol ated
Ġmag az
03 5
Ġpal m
Ġpe rez
Ġlack ing
17 6
ol ar
âĢĻ âĢĻ
Ġfranc is
v c
Ġconce aled
Ġaccommod ations
Ġt ag
ur p
Ġoffender s
Ġ6 80
Ġtar iff
nthe se
ed eral
Ġst yle
Ġg ap
Ġd ual
Ġwel come
l b
Ġk ath
Ġed itor
Ġnoncomp liance
Ġmove ments
Ġ8 25
og a
gcp rec
Ġ5 65
Ġre b
ce f
new s
Ġ9 21
ex act
10 97
Ġ6 62
Ġpal mer
pt s
let ter
Ġrevol ver
Ġl or
Ġ" *
17 8
Ġb one
â ĪĴ
wau kee
Ġun aware
Ġ/ /
ib i
Ġ19 48
de termined
Ġcirc uits
Ġind ia
Ġj es
ĠÂ £
Ġbit coin
Ġ4 000
Ġgu y
sh ot
Ġuncond itional
j uly
3 60
aint ies
pr ud
Ġnorth west
Ġautom ated
Ġyoun ger
govern mental
Ġsc ot
Ġliter ature
pos s
Ġtruck s
Ġrec ap
c ity
n umber
Ġsolic iting
Ġlan g
0 29
Ġir r
24 4
ator ium
34 1
u er
Ġdun n
ab s
Ġ ire
Ġmin ors
Ġemb ra
Ġvaop gcprec
Ġun used
19 4
ici ans
Ġimpact ed
Ġreg ions
Ġcoordin ate
Ġweig hing
Ġdisc rep
ract ed
Ġpre amble
Ġmon roe
Ġmotiv ated
Ġcomp osite
19 3
as cr
5 10
Ġlength y
Ġqu ash
was hington
Ġc ents
Ġsam uel
Ġcar roll
Ġ6 20
Ġpass engers
Ġlitig ant
Ġbu ying
Ġf ron
0 60
Ġacqu ies
Ġconven ient
Ġpre text
19 64
Ġfranch is
Ġs id
Ġcounterclaim s
Ġf n
Ġpar alle
Ġbrit ish
Ġhay es
Ġ6 27
-- \
Ġqu orum
Ġenab ling
Ġb io
Ġinform ing
Ġinv ited
Ġinnov ation
th ree
Ġt ables
Ġsimp son
Ġunsuccess ful
Ġg h
Ġ19 42
c ies
Ġsince rely
Ġfo ia
Ġ7 20
Ġlight s
Ġ6 77
Ġident ifiable
Ġaccount ed
Ġ13 31
Ġ6 48
Ġfl sa
Ġencoura ged
Ġkid napp
Ġâ ĸ
Ġalloc ate
Ġburn ing
Ġv t
te enth
Ġe re
utor ily
Ġpro st
Ġe a
g on
Ġen su
ist a
Ġob sc
he ns
Ġsubcontract ors
Ġ5 76
Ġt uesday
ac le
Ġp ad
Ġ5 77
h al
Ġthe rape
Ġ5 63
26 5
Ġinherent ly
Ġamb ul
Ġleader s
Ġv ert
19 6
in formation
d uring
Ġde als
Ġanswer ing
Ġbr un
Ġbal ancing
Ġber ry
per mitted
Ġalloc ations
ĠĠĠĠĠĠĠĠĠĠĠĠĠĠĠĠĠĠĠĠĠĠĠĠĠĠĠĠĠĠĠĠĠĠĠĠĠĠĠĠĠĠĠĠĠĠĠĠĠĠĠĠĠĠĠĠĠĠĠĠĠĠĠĠĠĠĠĠĠĠĠĠĠĠĠĠĠĠĠĠĠĠĠĠĠĠĠĠĠĠĠĠĠĠĠĠ ĠĠĠĠĠĠĠĠĠĠĠĠĠĠ
). "
Ġtherape ut
Ġto ler
Ġtown s
Ġthought s
are z
35 3
n which
v alu
sh are
Ġ6 54
Ġimpair ments
fin der
Ġ8 05
Ġout set
Ġret ains
Ġab et
Ġsupersed es
Ġmis appropri
Ġa y
Ġweb ster
ac ies
Ġpat ricia
Ġ6 15
Ġhous es
ig nees
i h
est ate
liquid ated
Ġpreex isting
Ġk r
med ical
Ġs f
Ġp ose
Ġ3 104
Ġmunicipal ities
Ġnote holder
ar gu
Ġuncert ainties
Ġind us
Ġf als
Ġprodu cer
Ġpl astic
Ġ6 08
Ġrespect ing
Ġf c
3 11
nb ecause
Ġ78 7
Ġtotal ing
Ġdou b
Ġpsych ologist
Ġdepend ency
Ġbill ed
u per
Ġwork place
Ġ6 32
Ġnond isc
Ġhundred s
Ġh c
ll i
Ġcomput ers
Ġobserv es
Ġspon sored
Ġtun nel
Ġ6 17
Ġ8 24
omet ric
u z
23 3
Ġvi able
Ġp istol
Ġ9 26
Ġch i
Ġ8 88
Ġ6 14
Ġly nn
Ġremed iation
Ġclear ance
Ġa ce
ab and
Ġ9 01
column i
ue ls
Ġdimin ished
Ġe ve
Ġinterven ing
Ġbry an
Ġinter face
Ġdiscontin ued
hed ul
18 2
d em
employ ees
Ġma e
ot ive
Ġ19 35
Ġtrad es
Ġeight y
f amily
im a
Ġ11 13
comm ence
do or
Ġtit les
back ed
Ġdel ta
Ġl un
80 9
k ind
und ant
Ġtemper ature
k d
Ġment ally
ick er
Ġmind s
Ġcol o
Ġholid ay
] ).
Ġclo sure
Ġpurported ly
ow itz
Ġwa iving
app e
w ord
sh ort
Ġpost conviction
x q
Ġjen kins
ed s
27 0
Ġs out
p f
p in
cm te
l ist
p aid
Ġm outh
Ġprodu cers
ge red
Ġver mont
Ġt s
Ġfr ance
min n
Ġcomp osed
Ġinf ant
comp liance
Ġhistor ic
ro phy
ck er
Ġhand gun
Ġpersonal ity
chan ged
Ġilleg ally
c overed
Ġoverse as
24 6
c ence
Ġcour ses
Ġrevis ions
nb ut
ag an
Ġfinanc ed
w c
Ġconfron ted
Ġdispro portion
ad just
Ġw ise
x p
Ġre mit
ce ls
Ġb are
Ġqu iet
Ġimplic ation
Ġc er
Ġdisturb ed
Ġt ucker
Ġste ve
Ġpursu it
Ġspr ings
act ing
Ġmor atorium
n about
Ġ6 29
Ġfluct u
60 8
4 15
Ġcont ending
Ġrot ation
Ġ6 24
Ġmay field
Ġutil ization
k inson
Ġgir ls
Ġunanim ously
exec utive
Ġ19 38
Ġ7 26
76 7
******** ********
Ġ13 50
Ġcar r
Ġwis hed
Ġde utsche
Ġ68 7
ok es
03 6
istr y
Ġyour s
if ting
Ġprop ose
m em
Ġt an
nc ourt
c ourse
s ale
im on
Ġbud ge
hl c
consolid ated
Ġpath ology
Ġell i
Ġmil waukee
Ġdef amation
Ġmineral s
Ġpack aging
econ omic
Ġphot o
Ġand ers
ring ton
ĠÂ «
27 7
Ġgentle men
Ġat h
Ġnumb ness
Ġact u
Ġpre emption
l en
Ġprolong ed
Ġwid ow
Ġ355 3
f ront
Ġleon ard
34 4
Ġdecl aring
Ġst abil
.âĢĿ )
olic y
act s
Ġexpl ains
Ġenvelop e
Ġl ac
Ġcollect or
Ġgr an
sub sid
Ġcontain er
Ġam icus
Ġfalse ly
abb ed
Ġpro state
Ġbox es
est y
19 7
Ġk ong
Ġacqu ires
Ġpen et
Ġoverwhel ming
val ue
Ġ6 74
Ġjos hua
olog ically
Ġ5 99
Ġtravel ers
Ġmarsh al
Ġhar vey
Ġforec lose
19 2
28 7
Ġcoll aboration
Ġreimburse ments
Ġpray er
Ġab atement
Ġ19 37
Ġw ang
Ġfac ial
Ġout put
18 1
Ġ6 12
Ġimplic ations
Ġt one
Ġret iring
ish op
Ġ58 7
Ġ8 20
Ġoste o
ot o
17 4
Ġinterview s
34 3
23 1
Ġreadjudic ate
commence ment
29 4
vers ion
Ġh og
Ġim ag
i w
nin formation
nun ited
en as
28 5
g ÆĮ
Ġrepla cing
Ġexclus ions
Ġve gas
Ġcell s
Ġdef orm
rehe nd
b ls
Ġrec ruit
Ġmotor ist
23 7
> ?#
16 3
Ġgav hlc
Ġcon du
." );
Ġdeliber ations
Ġs la
Ġease ments
/ \
l ink
issu ed
Ġign ore
Ġapportion ment
Ġenrich ment
Ġ5 72
Ġla unch
Ġins ight
b at
pl ing
Ġimm un
Ġ8 54
Ġ[** ]
Ġadvis ing
Ġrec ited
Ġweig hed
Ç ģ
nim p
Ġcar ries
Ġpitts burgh
Ġexc used
Ġ9 20
Ġappoint ing
init ial
Ġhigh ways
Ġh ob
d jh
ie ve
Ġadvoc ate
Ġcontr aband
Ġ6 31
Ġcru el
Ġclar ified
80 5
Ġcontroll er
v t
Ġk aren
cons ent
Ġch ris
ĠĠĠĠĠĠĠĠĠĠĠĠĠĠĠĠĠĠĠĠĠĠĠĠĠĠĠĠĠĠĠĠĠĠĠĠĠĠĠĠĠĠĠĠĠĠĠĠĠĠĠĠĠĠĠĠĠĠĠĠĠĠĠĠ ĠĠĠĠĠĠĠĠĠĠĠĠĠĠĠĠĠĠĠĠĠĠĠĠĠĠĠĠĠĠĠĠĠĠĠĠĠĠĠĠĠĠĠĠĠĠĠĠĠĠĠĠĠ
Ġvac ancy
Ġ8 46
Ġ3104 10
Ġte aching
29 5
Ġlog istics
Ġconse quential
controll ed
Ġperempt ory
res ol
Ġbar riers
Ġju an
Ġmaterial ity
Ġcon ve
asm uch
oc on
ish ment
Ġdeal ings
Ġtra ve
Ġs hed
Ġin her
35 1
Ġfederal ly
Ġintim id
or igin
Ġport land
29 6
b oth
Ġs ars
m aster
Ġpoll ut
Ġacc us
Ġfarm s
Ġ58 5
j t
Ġ____ __
8 50
n su
no x
Ġinfring e
Ġe ur
Ġd ale
Ġlook s
Ġhoff man
Ġdr am
Ġfre eman
Ġ58 6
Ġstri p
Ġl iv
be ing
75 4
Ġprem ature
Ġrecre ation
Ġsch a
Ġ6 19
Ġvide ot
Ġt es
Ġagree ing
Ġprincip ally
Ġprud ential
Ġaccommod ate
Ġli ver
comm end
' "
pay ments
Ġbo ys
pon ent
Ġfoc uses
Ġa pa
c ss
Ġnot ifying
Ġ100 1
Ġs od
ul i
Ġsh ifts
n ic
Ġ5 78
Ġlin ks
re lease
27 9
Ġmcc art
5 50
25 9
Ġacceler ate
ail s
28 8
b as
Ġclar ity
Ġsecond s
27 6
b h
Ġharm on
wes tern
Ġout comes
Ġtra ce
Ġpatri ot
Ġturn over
Ġ5 67
int ention
Ġab d
Ġreconc iliation
Ġ59 3
Ġhy gi
Ġmiss ile
Ġa h
Ġmar g
Ġso ph
o on
Ġ6 55
en z
Ġc ort
Ġhelp ing
con nor
Ġstate wide
Ġchat tel
Ġr ud
ad v
Ġun ions
applic ation
Ġt n
6 20
Ġhand book
ib ank
ph ys
Ġtoll ing
w all
33 8
Ġj oy
Ġruss ian
p urchase
k k
Ġfinancial ly
Ġ7 89
Ġ5 88
Ġpossess es
Ġdec ades
nes day
33 6
er ate
c od
Ġem bar
ot ion
Ġad mon
Ġresid ing
Ġfreed man
Ġu m
Ġrel atives
Ġsus ceptible
Ġseem ed
Ġ6 16
Ġt all
Ġexcept ed
60 5
Ġ6 18
ra cy
Ġc ms
m ade
Ġp y
Ġown ing
Ð ¾
Ġhor izon
Ġmck in
Ġing red
Ġsu t
Ġlitig ated
Ġdo ors
def ined
priv ate
Ġinconsist ency
27 2
Ġme ad
75 1097
Ġg amb
751097 112
Ġcorrobor ated
assign ment
Ġpal p
Ġher nia
exc lusive
Ġst ood
Ġfact o
exam ine
Ġduplic ate
Ġ58 3
Ġlim ine
Ġarm strong
ail ing
nf ederal
Ġelement ary
Ġâ ĺ
Ġsh ock
ly mp
is ation
ch air
Ġthe r
Ġrat able
at ible
Ġ6 45
Ġ6 75
Ġhabit at
e ither
le e
Ġdep ict
ch ief
n ity
Ġ00 5
Ġ6 76
Ġ19 27
Ġj ar
Ġ6 51
Ġ6 40
nc o
Ġrep urch
Ġform ally
Ġam c
g x
as se
Ġh ick
Ġrespond s
Ġple ased
Ġor t
60 9
Ġany body
Ġs ba
Ġmet ric
30 34
Ġkn ight
25 3
0 22
Ġcharacter ization
ri an
Ġ5 79
Ġindu cement
Ġsm oking
n what
** *
Ġboy d
Ġ8 08
29 8
nh as
a ccess
Ġlif ting
p rev
Ġv ou
Ġdetermin ative
Ġprotect s
Ġanalyz ing
f n
ret urn
Ġart ific
Ġ6 59
26 7
ĠĠĠĠĠĠĠĠĠĠĠĠĠĠĠĠĠĠĠĠĠĠĠĠĠĠĠĠĠĠĠĠĠĠĠĠĠĠĠĠĠĠĠĠĠĠĠĠĠĠĠĠĠĠĠĠĠĠĠĠĠĠĠĠĠĠĠĠĠĠĠĠĠĠĠĠĠĠĠĠĠĠĠĠĠĠĠĠĠĠĠĠĠĠĠĠ ĠĠĠĠĠĠĠĠĠĠĠĠĠĠĠ
Ġlabor atories
Ġun liquidated
i ors
Ġagg rieved
Ġshot gun
is an
Ġar tery
g m
Ġele c
Ġ7 30
Ç ī
Ġobt ains
Ġneglig ently
Ġrob in
Ġ6 23
Ġret aining
Ġdeliber ately
Ġenem y
h one
Ġpre fer
n government
Ġresid ed
Ġt ending
nd ec
Ġg ut
Ġ7 34
um an
Ġsupersed e
x u
Ġapproxim ates
Ġdig its
i y
Ġo mb
Ġcoron ary
Ġchrist ian
Ġcur iae
Ġbar ry
Ġmotiv ation
Ġoutwe igh
Ġin asmuch
Ġa qu
pro t
v ascular
Ġ11 11
Ġrenew als
Ġsh ore
ĠĠĠĠĠĠĠĠĠĠĠĠĠĠĠĠĠĠĠĠĠĠĠĠĠĠĠĠĠĠĠĠĠĠĠĠĠĠĠĠĠĠĠĠĠĠĠĠĠĠĠĠĠĠĠĠĠĠĠĠĠĠĠĠ ĠĠĠĠĠĠĠĠĠĠĠĠĠĠĠĠĠĠĠĠĠĠĠĠĠĠĠĠĠĠĠĠĠĠĠĠĠĠĠĠĠĠĠĠĠĠĠĠ
Ġcoll abor
Ġ6 46
Ġcl oud
Ġi a
con sid
Ġt ul
ili pp
work ers
Ġse ct
24 1
Ġbal anced
Ġunequ ivoc
Ġcurt is
c re
Ġdead lines
Ġ________________________________ ____
Ġ59 7
Ġcould n
op in
Ġappoint ments
Ġst am
Ġ7 22
Ġwal ters
33 1
an na
Ġincap able
Ġget s
Ġmemorand a
Ġun classified
Ġpublic ations
26 4
ob lig
Ġ6 22
d ow
Ġ6 30
nc an
ic ides
26 9
Ġparame ters
ep endent
Ġgu inea
Ġv ast
Ġbilateral ly
Ġo we
Ġsafeguard s
Ġapprais er
Ġwed nesday
Ġprem ise
ven ue
Ã ¸
Ġcomp ass
19 62
Ġnash ville
Ġs erial
Ġliber al
Ġo xy
n ational
Ġla ure
Ġnon moving
column l
Ġsal v
Ġgir l
Ġcru cial
Ġreceivers hip
Ġc un
ist rict
Ġback up
Ġmeasure ments
Ġcontempl ates
Ġanticip ation
Ġ19 44
Ġmulti employer
17 2
Ġad duced
Ġsc ri
Ġsh opping
Ġpage ld
Ġr iley
Ġrecap ital
Ġinvestig ated
we ight
Ġcru z
Ġphil ip
ane y
ĠĠĠĠĠĠĠĠĠĠĠĠĠĠĠĠĠĠĠĠĠĠĠĠĠĠĠĠĠĠĠĠĠĠĠĠĠĠĠĠĠĠĠĠĠĠĠĠĠĠĠĠĠĠĠĠĠĠĠĠĠĠĠĠĠĠĠĠĠĠĠĠĠĠĠĠĠĠĠĠĠĠĠĠĠĠĠĠĠĠĠĠĠĠĠĠ ĠĠĠĠĠĠĠĠĠĠĠĠĠ
Ġrest ored
Ġ7 77
Ġwin ter
iz z
27 1
li ant
Ġe cc
Ġw inding
17 1
su ant
Ġinter company
Ġvulner able
rib ution
( [
h k
28 6
tt es
l osed
Ġto uc
id em
4 46
is hes
Ġlitig ants
not withstanding
urs day
Ġsu a
Ġsim on
Ġas c
ch ing
Ġargu ably
Ġar c
Ġdisag reed
Ġh s
Ġunanim ous
Ġ510 8
Ġ58 2
attorne y
Ġga it
Ġ69 0
h ome
Ġg ames
Ġat m
Ġnort heast
Ġform ulation
80 6
Ġobst ruction
sm ith
Ġo lymp
." )
Ġ9 58
Ġincorrect ly
t x
Ġel bow
Ġint act
Ġrelie ved
Ġ19 29
form ing
Ġno vel
Ġ6 58
Ġr ab
Ġfil m
as er
Ġprec inct
Ġr ick
Ġconcur s
Ġpen n
Ġtrans care
28 9
Ġenjoin ed
Ġk ay
Ġcapt ain
Ġinvestig ators
Ġexhib ited
h ard
Ġbr ight
_ -
18 4
Ġgreat ly
Ġnichol as
ou nc
Ġ6 35
Ġtit led
Ġindic ative
ple ase
Ġinv asion
n over
n le
Ġdecl ining
Ġwe bb
member s
in ks
g all
Ġundermin e
Ġmanifest ly
enc er
Ġin equ
Ġdro pped
Ġhe s
25 1
ograph ical
Ġ7 67
Ġac id
Ġt ied
Ġtranscript s
Ġs atell
Ġspon te
Ġstat utorily
26 6
o ption
Ġprosecutor ial
Ġgl en
Ġm n
1 000
Ġrep etitive
i ments
Ġh orn
Ġincap acity
Ġrecall ed
d ri
s oc
Ġ6 37
Ġr al
ian o
Ġsens or
ps hire
80 8
Ġre mitt
Ġbor ough
Ġle ak
interest ed
m is
om pl
acer b
Ġpar alysis
oph ren
45 6
Ġproxim ity
Ġsevere ly
Ġ59 4
im mer
3 15
foot note
l iness
Ġhar ry
Ġp ine
Ġpresent ence
nd o
Ġcont amination
Ġ6 41
Ġpr or
g reen
Ġconsolid ate
j un
Ġ7 35
Ġcustom arily
Ġact or
Ġkidnapp ing
Ġj ess
Ġarri ving
it age
Ġmat t
Ġsomet ime
m ax
n ab
Ġdes criptions
ĠĠĠĠĠĠĠĠĠĠĠĠĠĠĠĠĠĠĠĠĠĠĠĠĠĠĠĠĠĠĠĠĠĠĠĠĠĠĠĠĠĠĠĠĠĠĠĠĠĠĠĠĠĠĠĠĠĠĠĠĠĠĠĠ ĠĠĠĠĠĠĠĠĠĠĠĠĠĠĠĠĠĠĠĠĠĠĠĠĠĠĠĠĠĠĠĠĠĠĠĠĠĠĠĠĠĠĠĠĠĠĠĠĠĠĠ
e u
Ġs ig
h att
- .
ig rant
Ġ7 70
Ġpar cels
Ġ59 2
im m
Ġ8 15
ns c
Ġfee ling
Ġexpect s
ĠĠĠĠĠĠĠĠĠĠĠĠĠĠĠĠĠĠĠĠĠĠĠĠĠĠĠĠĠĠĠĠĠĠĠĠĠĠĠĠĠĠĠĠĠĠĠĠĠĠĠĠĠĠĠĠĠĠĠĠĠĠĠĠ ĠĠĠĠĠĠĠĠĠĠĠĠĠĠĠĠĠĠĠĠĠĠĠĠĠĠĠĠĠĠĠĠĠĠĠĠĠĠĠĠĠĠĠĠĠĠĠĠĠĠĠĠ
Ġ59 5
Ġmon op
Ġ7 29
th al
Ġt ip
Ġtor res
wl qj
Ġ6 38
d ata
Ġpack et
Ġaid s
Ġadvertise ment
Ġadvis ers
Ġrecover able
Ġt ends
Ġarbitr ate
4 14
ver tebral
Ġ ion
al o
3 55
Ġpe ake
Ġ7 11
m ans
v able
Ġempow ered
Ġprovis o
Ġl ift
Ġall ot
Ġ6 79
wh u
Ġj oh
Ġ20 22
Ġconcept s
Ġjuris prud
Ġenjoy ment
Ġ6 39
24 2
Ġct r
op en
35 8
Ġel der
ro id
27 3
Ġnav ig
28 1
Ġre insurance
Ġ6 60
Ġexculp atory
Ġn ap
off ice
Ġo tc
Ġnon priority
Ġ59 8
an ne
29 7
m atter
Ġb ent
ns ystem
ist le
Ġovert urn
jl b
Ġ19 21
Ġ8 09
4 10
Ġ6 70
35 7
Ġun limited
Ġpass ive
Ġd ark
en y
Ġplan us
19 1
y h
26 2
Ġb ishop
Ġt c
Ġdis appro
Ġandrew s
Ġgard ner
Ġ7 52
Ġrem ar
Ġte ams
Ġachie ving
y our
Ġh olly
art icle
] [
Ġstaff ing
Ġcogniz able
Ġl end
Ġyour self
iss a
Ġshipp ed
Ġdiv isions
Ġproc ured
nin te
Ġ6 28
Ġatt endant
Ġcit ibank
Ġadul ts
Ġ6 89
Ġ8 17
Ġutil izing
Ġd air
per cent
36 8
Ġred ress
Ġsecurit ization
Ġb bb
Ġass oc
48 9
Ġdelin quency
Ġ7 18
Ġcamp us
m as
03 7
Ġrec y
Ġdesign ations
n respon
Ġt ib
Ġriver a
ah an
k r
lf riend
Ġg at
nm ore
34 9
ay ette
: (
Ġpres idential
Ġschiz ophren
for ward
Ġ7 15
54 5
Ġwithdraw als
Ġwind ows
Ġa et
Ġ7 09
m oney
Ġ8 66
Ġdil igently
Ġcoast al
ro d
93 3034
Ġ310410 933034
Ġ310410933034 475
Ġ11 51
oc c
f rq
nd isc
Ġinter rupt
Ġparalle l
Ġhospital ized
Ġallow ances
Ġs lo
re au
Ġput ative
ri wkh
p resent
Ġpunish able
Ġfore ver
Ġl loyd
od lp
c um
44 2
Ġkn ock
Ġsurviv or
Ġal b
Ġhygi ene
Ġinfl iction
Ġex acerb
29 3
Ġkit chen
Ġalcohol ic
h uh
he wru
48 4
Ġpreempt ed
Ġdissol ved
build ing
Ġwe in
as ts
l am
Ġ________________________________________________ _
Ġ59 1
Ġmod ifying
Ġamaz on
Ġth ursday
it u
37 0
Ġ6 88
ut er
Ġ19 30
Ġprejud gment
Ġre ct
' ,
Ġwhere ver
Ġprovis ional
rupt cy
aw ard
Ġrun s
ak ings
Ġimper missible
26 3
g d
34 8
Ġmat ure
Ġsub license
st al
Ġ58 4
Ġdun can
Ġexchange able
Ġpie ces
Ġu bs
aren cy
b et
Ġrule making
Ġ7 17
Ġsinus itis
sec ret
it ary
Ġrefund ing
Ġide ation
igh ter
ire z
ndep artment
ac celer
Ġattack ed
3 30
Ġdetri ment
Ġover see
ind ividual
p ub
f ee
Ġprincipal s
Ġannex ed
j c
Ġph ilipp
Ġdeport ation
b m
sh aring
nd is
Ġinfl ation
Ġjer ry
t re
Ġbr ig
05 6
Ġk ur
ĠĠĠĠĠĠĠĠĠĠĠĠĠĠĠĠĠĠĠĠĠĠĠĠĠĠĠĠĠĠĠĠĠĠĠĠĠĠĠĠĠĠĠĠĠĠĠĠĠĠĠĠĠĠĠĠĠĠĠĠĠĠĠĠ ĠĠĠĠĠĠĠĠĠĠĠĠĠĠĠĠĠĠĠĠĠĠĠĠĠĠĠĠĠĠĠĠĠĠĠĠĠĠĠĠĠĠĠĠĠĠĠĠĠĠ
Ġbrand s
Ġpick ed
Ġl ord
stand ard
Ġ Ï
wart z
Ġcell ular
n cont
Ġm l
Ġ7 10
Ġleg ion
Ġp llc
Ġa wa
Ġshort fall
Ġan ch
Ġdele te
Ġcham ber
t ical
Ġpro x
ny der
Ġeng ages
Ġ11 29
ren cies
Ġn ancy
loc al
Ġp ig
Ġwheel er
Ġgovern ors
Ġcorrect ness
y d
Ġem ission
25 2
Ġafghan istan
Ġaccess ed
Ġcirc ular
Ġrefund s
Ġaid ing
ig hed
Ġi o
Ġbel t
Ġ68 2
f ire
Ġmer ge
Ġhazard s
nc ount
Ġhistor ically
ph al
Ġconc ert
Ġfac ulty
sh ould
Ġpa ce
it ively
Ġ6 42
j u
Ġp icket
Ġham pshire
est on
Ġ7 62
Ġlu x
r us
il t
Ġ6 43
33 9
Ġinflu enced
us ml
Ġ7 49
Ġcarp enter
Ġ6 69
ic on
Ġref uses
ation ally
Ġrepublic an
Ġelimin ation
ĠÂ ±
Ġdeposit ary
Ġtem ple
acc ord
reg istered
m ur
ar ia
Ġsh oes
Ġf erg
Ġ9 04
Ġref uge
17 3
Ġ9 40
Ġ7 14
st ates
Ġavoid ing
Ġj a
me ll
Ġgold man
Ġlit em
28 4
Ġwrong fully
Ġmax well
v oting
Ġit al
bor o
Ġrecur ring
Ġaction able
v p
Ġrem un
r im
33 4
Ġunw illing
Ġrem ark
ab us
Ġfore closed
36 9
Ġemploy ing
lud ed
Ġdisqual ification
âĢ¦âĢ¦âĢ¦âĢ¦ âĢ¦âĢ¦âĢ¦âĢ¦
e w
der o
Ġl n
dec ided
Ġsch ol
Ġr ain
ompl ice
Ġinc o
âĢ ĸ
n out
od qg
Ġb os
ps y
app ointed
36 4
c ro
erc ial
Ġgl enn
Ġrecl amation
Ġh ind
Ġbench mark
Ġreclass ification
Ġoblig ed
Ġover view
Ġrenew able
Ġupd ates
Ġam er
Ġ59 6
Ġster ling
Ġdiscount ed
Ġlock ed
al c
Ġd rew
] ."
Ġwors ening
36 1
b road
Ġ6 61
Ġali ens
80 3
land lord
x v
ac on
Ġsp asm
Ġorder ly
Ġ8 44
p b
are t
Ġmc la
r ator
Ġbar rel
Ġher itage
Ġlie uten
Ġrecol lection
Ġwors ened
Ġarr ay
Ġfr ustr
an ing
Ġme yer
Ġtransfer able
ch t
Ġ6 52
Ġ9 25
Ġcess ation
cl er
Ġsol ar
\' /
port ant
Ġl ip
26 1
Ġhapp ens
ne ction
Ġtren ds
Ġfraudul ently
p urch
ul atory
part s
Ġconsul ted
Ġad he
34 7
li ver
Ġn ick
ĠâĢ ķ
ah a
fr ame
Ġnegoti ating
Ġgross ly
c uff
Ġh ale
Ġ7 46
Ġinfring ing
Ġsub t
Ġorigin ated
f ourt
Ġins isted
Ġg ates
Ġsy ll
Ġver non
Ġam y
h ol
Ġw ounds
Ġrat ified
Ġnon service
Ġ6 64
Ġdeform ity
Ġsurve ys
h at
Ġdeploy ment
Ġind igent
nin st
35 6
Ġst u
Ġ8 06
Ġb erg
Ġinter course
ell i
est inal
Ġ8 71
Ġhar med
debt or
Ġillegal ity
advis er
ent iary
Ġrat ification
Ġ7 21
Ġsupervis e
Ġroom s
count y
Ġconfig uration
if ier
ant e
ĠĠĠĠĠĠĠĠĠĠĠĠĠĠĠĠĠĠĠĠĠĠĠĠĠĠĠĠĠĠĠĠĠĠĠĠĠĠĠĠĠĠĠĠĠĠĠĠĠĠĠĠĠĠĠĠĠĠĠĠĠĠĠĠ ĠĠĠĠĠĠĠĠĠĠĠĠĠĠĠĠĠĠĠĠĠĠĠĠĠĠĠĠĠĠĠĠĠĠĠĠĠĠĠĠĠĠĠĠĠĠĠĠĠ
char acter
Ġ7 24
\' :
Ġ7 44
Ġimp orts
Ġ6 73
26 8
âĢ¢ âĢ¢
b earing
Ġo lson
Ġla f
Ġrecord ings
se es
Ġarri val
Ġten ure
Ġl osing
Ġ7 68
Ġrescind ed
ut ies
2 21
Ġr io
Ġfarm er
Ġper secution
39 8
Ġseiz ures
Ġdesign s
Ġflex ible
ÉĽ Æļ
Ġbron ch
Ġst en
Ġpa uper
c ross
Ġ7 45
en sure
Ġspecif ies
Ġplay ing
Ġrein state
Ġclay ton
Ġus ml
n sub
Ġk al
aj n
Ġepis ode
Ġimp ly
Ġip hone
h all
ga ap
Ġpurport ing
htt ps
reg istr
Ġre all
Ġkid s
Ġon t
z ing
Â £
Ġ6 44
Ġdecl ines
Ġsolic itor
Ġun avail
it o
Ġm ca
Ġart s
c ould
Ġm ri
Ġcor n
h ous
Ġback ed
49 0
Ġafric a
mor rh
ust in
Ġoccasion ally
Ġlo aded
Ġ68 4
s olic
Ġsci ences
Ġvers ions
Ġspous al
Ġgreen e
Ġwide ly
Ġ512 6
Ġsuccess ion
Ġ7 58
Ġle ague
Ġins uring
y en
80 2
Ġs nyder
Ġr ut
bri en
Ġdown ward
Ġfut ile
Ġsum mit
Ġ7 55
Ġ9 45
Ġim aging
Ġpr ince
Ġinj ust
Ġun st
Ġgr at
Ġtrack s
Ġal arm
Ġjurisprud ence
Ġy ver
Ġnomin al
Ġreg ime
om ed
80 7
Ġregul ating
48 2
Ġp od
Ġup set
Ġdraft ing
Ġk ick
Ġ6 57
part ies
Ġvolunt eer
Ġ8 45
Ġe b
Ġbur ke
Ġc rop
Ġ7 32
Ġprem ised
Ġd m
Ġ8 13
on ia
Ġmob ility
Ġscen ario
h ang
Ġroutine ly
\' #
Ġwall s
36 6
Ġdecid es
it ably
per su
33 2
Ġrat ably
ri age
Ġreit erated
Ġportfol ios
Ġread iness
Ġhall uc
f lo
s al
Ġburdens ome
lib or
Ġdispar ate
st re
ig er
Ġinter ruption
Ġ69 1
q q
Ġover head
Ġ6 49
Ġlay person
Ġbase line
if ically
Ġhe morrh
Ġstat s
Ġ68 3
Ġwrongdo ing
nst ates
Ġc ath
19 61
Ġimpeach ment
Ġbu ff
Ġbar cl
Ġpat ron
jud ge
pro cess
Ġf as
Ġf erc
off icial
Ġexp ensive
Ġb c
st he
Ġwitness ed
Ġ7 42
Ġadvance ment
ag en
Ġf ender
\' ,\
Ġstri kes
il ation
Ġ68 6
Ġverdict s
Ġ68 1
Ġcar b
pect ed
Ġde bit
Ġ8 14
Ġmiss ed
Ġk ap
Ġpl umb
Ġnon resident
b ach
Ġequ als
d uty
Ġover r
Ġbo p
Ġeng ines
ene z
bank ruptcy
Ġhabit ual
Ġcolumb us
ĠĠĠĠĠĠĠĠĠĠĠĠĠĠĠĠĠĠĠĠĠĠĠĠĠĠĠĠĠĠĠĠĠĠĠĠĠĠĠĠĠĠĠĠĠĠĠĠĠĠĠĠĠĠĠĠĠĠĠĠĠĠĠĠĠĠĠĠĠĠĠĠĠĠĠĠĠĠĠĠĠĠĠĠĠĠĠĠĠĠĠĠĠĠĠĠĠĠĠĠĠĠĠĠĠĠĠĠĠĠĠĠĠĠĠĠĠĠĠĠĠĠĠĠĠĠĠĠ ĠĠĠĠĠĠĠĠ
Ġpresent ment
49 7
oid s
Ġsolic ited
Ġ19 31
d am
Ġdan iels
Ġga o
cor p
Ġintox ication
Ġholl and
work s
Ġdi xon
Ġvolat ility
claim s
nf und
Ġexempl ary
Ġam p
Ġd ill
Ġr ic
Ġp x
lus ions
por nve
inc inn
Ġdisc oura
Ġascert ained
2 99
Ġperform s
ire ment
Ġab ortion
Ġal v
Ġto e
qu encies
Ġpurp orts
Ġ6 47
. /
Ġindian apolis
Ġf oun
Ġ7 57
Ġsch wartz
Ġdemand ing
Ġde a
p g
Ġdesign ating
Ġequ ities
Ġcard io
li ability
Ġcompet ence
Ġfreder ick
5 12
Ġparticular s
Ġdraf ts
35 2
Ġ19 23
Ġconsent ing
Ġgir lfriend
Ġ8 18
Ġu zi
Ġport s
Ġapproach ing
r ition
ry s
Ġred undant
ent ed
Ġ7 54
ns ome
fe rent
incinn ati
o ly
Ġcor rupt
Ġfl ash
Ġestopp ed
8 77
Ġbid der
Ġgentle man
Ġdisturb ance
Ġre e
Ġ8 50
\': \'/
Ġsim pl
less ness
48 7
Ġpart ition
or ient
Ġcur rencies
Ġacc omplice
Ġ7 66
Ġweigh s
Ġrat ios
33 7
Ġp atell
Ġ8 40
Ġ6 34
Ġ9 07
Ġhand cuff
Ġde me
Ġins ider
h im
ra ham
hedul ed
Ġs ca
Ġgriev ances
expl aining
Ġtre es
Ġmarket place
Ġspac es
bre ak
her ty
lj k
o i
aint ed
ier ra
Ġsc re
Ġnarrow ly
le en
Ġg erald
Ġinter f
Ġbid ding
Ġwilling ness
03 8
Ġun changed
Ġunenforce ability
Ġ7 65
back s
ident ified
Ġinter bank
requ ired
ugh lin
ment ally
37 4
Ġdair y
Ġsusp icious
Ġoutwe ighed
Ġe lic
Ġre ader
Ġdeli vers
Ġ69 3
v m
Ġinter vertebral
d g
Ġdeliver ies
Ġserv ant
Ġspok en
viron mental
Ġwarrant less
Ġconserv ator
Ġc dc
Ġforec ast
Ġliber ally
n so
Ġ7 31
Ġcor ruption
38 9
Ġ68 5
Ġunconsc ion
Ġnichol s
Ġplant ar
46 8
compl aint
Ġappro aches
un iary
Ġ7 12
Ġmet als
Ġhealth y
no per
Ġprogram ming
Ġgar nish
itor ious
Ġconcess ion
Ġshap iro
Ġ8 53
Ġab road
oc ated
Ġnear by
p es
u ing
w ing
f if
ge tt
cy cle
Ġthorough ly
ite es
mm mm
Ġinvalid ate
0 55
Ġleg acy
corpor ation
Ġ7 37
Ġlo ading
Ġpar i
Ġsyll abus
Ġe ports
Ġfat ig
Ġg ay
Ġlieuten ant
agn osed
Î ¸
Ġnor man
Ġprox ies
Ġcomp aring
el ines
Ġe minent
Ġundert akes
Ġarri ve
Ġsuff ice
Ġnys cef
Ġrestr ain
Ġyell ow
Ġplural ity
Ġinjust ice
Ġ9 17
Ġaud iting
Ġ7 74
29 1
Ġv ill
28 2
Ġcompet itor
port ed
pt sd
Ġw ade
Ġ6 97
ol ph
Ġ8 56
Ġselect ing
Ġundert akings
Ġsegreg ated
Ġco bra
con spir
Ġcut ting
Ġoc ga
Ġ11 54
Ġwilliam son
Ġ8 07
Ġsome how
Ġbehavior al
Ġaet na
Ġexempt ed
o ch
Ġgen e
b lo
Ġsil ence
Ġafford able
Ġ7 59
39 6
Ġapp ar
Ġesc al
u y
pr im
tra k
Ġbullet in
3 13
Ġtruth ful
Ġd vance
p al
Ð °
! !
Ġ8 43
Ġjacob s
w o
Ġut ter
Ġhard ly
Ġear s
Ġn ie
Ġtra vis
Ġaar on
op sy
Ġunf unded
Ġ7 88
Ġspecific ity
Ġe ug
Ġlast ly
Ġmed ial
Ġkle in
Ġluc as
Ġgrand mother
Ġ6 63
will iam
ed er
Ġla ura
Ġintermedi aries
Ġtransp arency
Ġjoin ing
warrant ed
an ity
Ġbe th
Ġpater nity
Ġst ack
Ġfail ures
39 5
ĠĠĠĠĠĠĠĠĠĠĠĠĠĠĠĠĠĠĠĠĠĠĠĠĠĠĠĠĠĠĠĠĠĠĠĠĠĠĠĠĠĠĠĠĠĠĠĠĠĠĠĠĠĠĠĠĠĠĠĠĠĠĠĠ ĠĠĠĠĠĠĠĠĠĠĠĠĠĠĠĠĠĠĠĠĠĠĠĠĠĠĠĠĠĠĠĠĠĠĠĠĠĠĠĠĠĠĠĠĠĠĠĠĠĠĠĠĠĠĠĠĠĠ
Ġme zz
Ġfatig ability
39 1
v r
75 9
Ġ7 51
Ġtrig gered
Ġremun eration
Ġper kins
ĠĠĠĠĠĠĠĠĠĠĠĠĠĠĠĠĠĠĠĠĠĠĠĠĠĠĠĠĠĠĠĠĠĠĠĠĠĠĠĠĠĠĠĠĠĠĠĠĠĠĠĠĠĠĠĠĠĠĠĠĠĠĠĠ ĠĠĠĠĠĠĠĠĠĠĠĠĠĠĠĠĠĠĠĠĠĠĠĠĠĠĠĠĠĠĠĠĠĠĠĠĠĠĠĠĠĠĠĠĠĠĠĠĠĠĠĠĠĠ
Ġmarket able
Ġs ie
Ġclin ton
Ġsh an
Ġ7 33
Ġres p
29 2
38 3
Ġdisc ern
54 8
35 9
Ġcapt ure
ac a
99 8
nh ow
Ġty ler
Ġ8 37
col o
est ock
Ġ7 48
ine es
Ġconduct s
br and
% $
Ġferg uson
39 0
Ġmechan isms
Ġk nox
Ġ________ ___
Ġha ck
Ġlog ic
Ġwat kins
Ġsleep ing
55 5
Ġfix ing
Ġs ib
Ġsatisf ying
w right
Ġthereto fore
Ġpredecess ors
Ġprerequ isite
Ġpregn ancy
Ġconceal ment
Ġan onymous
Ġ( \
Ġpay ne
Ġint ra
Ġro les
e ight
Ġprec lusion
Ġbur ton
Ġwh istle
Ġhypot he
ter ror
Ġd b
Ġv as
Ġst uff
Ġpauper is
Ġ7 53
Ġschizophren ia
Ġ8 21
46 9
ag her
Ġmex ican
act ual
Ġsatell ite
Ġgather ing
re new
Ġundi vided
st ers
Ġbla ke
n if
Ġperiod ically
l g
Ġ7 72
Ġosteo arth
re ach
aw a
d et
Ġchap man
Ġaustral ia
r ange
nd ef
Ġb ard
Ġn p
n res
itz er
% \
ph is
49 5
Ġjew el
Ġno on
36 7
ate l
Ġclot hes
ce ments
Ġg la
Ġp ap
r ams
Ġrec ount
56 8
l m
Ġalloc able
Ġbra ck
Ġf ruit
g if
b ors
u i
Ġsp in
Ġcho ices
v ie
43 2
Ġpark way
Ġisol ation
f red
he m
................................................................ ................
Ġporn ography
Ġrecapital ization
ph an
Ġn g
Ġth igh
Ġlay er
Ġ9 50
p rom
Ġ7 60
Ġf loyd
Ġnot ion
og rap
Ġmell on
j y
Ġrobert son
nbe en
Ġsett ling
Ġd al
Ġambul ance
Ġa le
Ġ8 65
bor ah
Ġdo j
np etition
p ower
Ġ6 53
g us
b x
54 1
Ġcho osing
Ġguardians hip
Ġ9 18
Ġk rist
Ġsix teen
sy stem
Ġl au
19 60
Ġdis ruption
ĠĠĠĠĠĠĠĠĠĠĠĠĠĠĠĠĠĠĠĠĠĠĠĠĠĠĠĠĠĠĠĠĠĠĠĠĠĠĠĠĠĠĠĠĠĠĠĠĠĠĠĠĠĠĠĠĠĠĠĠĠĠĠĠ ĠĠĠĠĠĠĠĠĠĠĠĠĠĠĠĠĠĠĠĠĠĠĠĠĠĠĠĠĠĠĠĠĠĠĠĠĠĠĠĠĠĠĠĠĠĠĠĠĠĠĠĠĠĠĠ
ing e
Ġ7 36
38 6
Ġtact ical
fx phqw
Ġort iz
n no
Ġ8 30
Ġcult ural
Ġreplace ments
Ġsp encer
Ġwag ner
Ġ____ _
Â ¼
Ġelimin ating
Ġdip l
Ġcontradict ed
al so
Ġ6 99
Ġaccident al
Ġunder go
Ġsenior ity
Ġg ru
Ġma je
c ongress
Ġ13 28
Ġsp ell
58 9
dep artment
Ġ69 5
Ġh icks
Ġbelief s
Ġbr anches
j r
Ġth row
p ac
Ġs ight
Ġflo res
Ġnumb ered
Ġo re
nc ongress
Ġconvention al
Ġchev ron
Ġsoph ist
74 7
Ġ6 71
to ok
quot ation
he e
3 18
3 16
Ġpref erences
Ġn an
t op
Ġo liver
Ġ7 94
Ġco ol
Ġhold co
Ġro ger
Ġsu gar
Ġcler ical
Ġshel ter
Ġthir teen
Ġgr ain
Ġ8 33
Ġre affirm
Ġspan ish
g ate
d ou
Ġ89 5
Ġsym bol
ĠĠĠĠĠĠĠĠĠĠĠĠĠĠĠĠĠĠĠĠĠĠĠĠĠĠĠĠĠĠĠĠĠĠĠĠĠĠĠĠĠĠĠĠĠĠĠĠĠĠĠĠĠĠĠĠĠĠĠĠĠĠĠĠ ĠĠĠĠĠĠĠĠĠĠĠĠĠĠĠĠĠĠĠĠĠĠĠĠĠĠĠĠĠĠĠĠĠĠĠĠĠĠĠĠĠĠĠĠĠĠĠĠĠĠĠĠĠĠĠĠĠ
Ġmar ia
Ġs ad
Ġarre ars
n amed
rimin atory
tern ational
Ġsoon er
Ġmor rison
Ġmar ion
78 9
nis su
Ġow es
Ġproduct ivity
Ġst ur
Ġvac ant
ns pec
39 4
Ġdivers ion
.\ '
Ġimplic ated
Ġreg s
45 7
88 8
Ġwashstate b
Ġf ing
Ġny m
affili ate
nt ime
( (
Ġ9 14
ob serv
na ut
Ġcigare ttes
ust ration
Ġst a
Ġqu o
Ġnom inees
Ġ69 6
Ġ69 2
ou bted
nth rough
Ġevery body
q l
Ġsafe ly
im bursed
ev alu
Ġ8 42
Ġc incinnati
Ġ8 60
Ġdil ution
Ġsign als
ion ate
x ad
Ġroad way
Ġ7 99
Ġad here
ne ed
Ġ7 39
Ġpost er
Ġ7 69
Ġed ition
pla ced
Ġfluctu ations
administr ation
over ty
Ġw o
Ġbu chan
worth y
Ġwhere upon
Ġ9 08
Ġappar atus
re venue
Ġ* ."
ce ive
Ġ6 72
19 57
Ġ7 16
Ġsupplement ary
ag on
ind ependent
Ġassess or
affili ated
Ġwar ned
Ġcharacter istic
Ġ8 72
604 16
Ġ7 23
Ġab usive
Ġ8 55
2 19
Ġun iv
Ġquas i
Ġ8 27
nte chn
3 80
ng en
it i
Ġpriv ately
y r
Ġreconst ruction
qu ist
Ġ89 3
Ġclos er
Ġar ra
Ġ79 2
o ise
Ġi q
Ġab ide
Ġ8 70
Ġaudi ological
Ġac uity
Ġcat ch
Ġ8 16
Ġ9 05
Ġsuper f
acceler ated
Ġenact ing
ount ered
int estinal
Ġrent ed
Ġconne ctions
w oman
Ġmed i
Ġinterven or
Ġrevers ing
Ġst ages
u ments
Ġk ings
Ġopt ical
Ġextr insic
bal ance
] .âĢĿ
Ġ8 94
Ġ19 36
Ġ8 23
Ġst om
Ġagg ressive
ĠĠĠĠĠĠĠĠĠĠĠĠĠĠĠĠĠĠĠĠĠĠĠĠĠĠĠĠĠĠĠĠĠĠĠĠĠĠĠĠĠĠĠĠĠĠĠĠĠĠĠĠĠĠĠĠĠĠĠĠĠĠĠĠ ĠĠĠĠĠĠĠĠĠĠĠĠĠĠĠĠĠĠĠĠĠĠĠĠĠĠĠĠĠĠĠĠĠĠĠĠĠĠĠĠĠĠĠĠĠĠĠĠĠĠĠĠĠĠĠĠ
Ġt ies
Ġn athan
n ect
Ġelev ated
Ġforb earance
Ġchronic ity
uli ar
ce mber
Ġobject ing
Ġran ges
Ġinsured s
li able
h man
Ġt ed
Ġbath room
Ġf ult
Ġadhe rence
Ġpun ished
Ġfun eral
Ġinvest s
Ġp ou
Ġram irez
45 9
Ġb ore
Ġ8 89
-------- ----
Ġkel ley
al ter
red u
ange red
Ġ9 19
Ġcl iff
Ġinco ordination
y g
Ġfin ish
Ġ8 12
Ġoccup ants
Ġ7 43
Ġblock ed
ant on
Ġcoerc ion
Ġfro zen
49 8
Ġrif le
Ġdev iation
Ġobserv ance
ail ed
Ġ8 34
m f
Ġf tc
Ġc ty
6 01
Ġm end
author ization
Æļ sg
Ġcharl otte
g ra
Ġes p
i atory
Ġst ark
Ġint ending
ip a
Ġbas in
leg isl
Ġver itext
bl m
pur suant
f ax
z el
Ġaccount able
Ġbat tle
n any
Ġdetri mental
Ġ ï¬ģ
Ġassemb led
Ġan ger
Ġv ance
Ġ[Â¶ ]
Ġpharm ac
Ġdischar ges
Ġ6 98
Ġcertific ated
Ġcounter fe
Ġ9 10
Ġvary ing
lap se
Ġf s
Ġautom otive
Ġmaje ure
se en
Ġcoordin ator
Ġproof s
3 76
Ġtest ament
Ġrele asing
Ġre sume
3 22
46 5
Ġth ro
Ġpoint ing
sett led
of of
Ġhar old
Ġplumb ing
Ġun warranted
se ver
ob ject
Ġsp ray
us able
Ġ8 36
ell a
Ġelev ator
Ġpromot ional
Ġexc er
un a
n ick
Ġform ing
Ġgamb ling
Ġkid ney
Ġimp lies
wh ite
Ġpromot ed
Ġdivers ified
pp s
Ġbelong ed
ba um
y x
Ġsec s
77 0
Ġ à
Ġoffer ings
ke le
Ġder mat
Ġinc rimin
Ġcab in
Ġmiche lle
als h
Ġelli ott
ct he
gr ad
Ġenc ountered
Ġlad ies
Ġh k
n est
Ġcoal ition
Ġdi et
Ġve get
lin ing
ok ay
Ġj x
am an
Ġ7 56
Ġconsist ency
Ġindemn ities
Ġd in
Ġcl ock
44 4
Ġ' (
9 50
Ġbo b
Ġloan ed
Ġâĺ Ĳ
Ġland owner
Ġmer itorious
d ated
ag ainst
Ġside walk
Ġse min
59 3
comp ens
Ġy u
m arch
ah n
Ġdos washington
Ġsupersed ed
Ġelectronic s
Ġmechan ics
Ġun persu
Ġcoron avirus
Ġgastro intestinal
45 1
lo qu
Ġapp r
Ġab rog
Ġhighlight s
Ġex terior
Ġdele ting
l ab
att ach
ust er
au x
125 60
38 1
Ġapp oints
55 9
p kc
Ġhalluc inations
Ġc z
Ġend anger
npro cess
str ateg
> ?
reat ment
36 3
66 6
f el
oin ing
Ġde borah
13 99
Ġ7 76
.] \
Ġr ash
isd iction
Ġdel uca
Ġdisp la
Ġstom ach
ann ie
Ġ7 73
ne g
r ative
Ġsam pling
q v
Ġpen it
j i
Ġrecoup ment
Ġr ib
st ic
Ġ7 78
Ġcopy ing
Ġaccident s
Ġabnormal ities
Ġmin ne
Ġpay out
prin ts
Ġtele gram
Ġst iff
Ġcirc le
is se
Ġbever ages
Ġchrist i
Ġ7 19
dw in
Ġst im
Ġbro s
Ġbuchan an
Ġcr ude
nt est
Ġhy p
e le
j oint
Ġd ues
Ġun ified
Ġcomm ander
------ -
Ġmeas uring
h are
o ir
Ġdeath s
Ġfore man
Ġj ump
includ ed
Ġag enda
Ġdoc s
Ġent rust
Ġfire f
Ġ7 47
Ġinv itation
Ġbut t
Ġmcc orm
Ġgl ad
Ġtren d
Ġspous es
Ġath let
Ġ79 0
54 4
Ġwebs ites
c io
b od
Ġconced e
Ġbas ket
6 17
48 5
Ġ9 09
wlrq v
Ġhe ating
comp etition
kle lw
â Ĩ
ah l
m outh
p resident
Ġserious ness
Ġdisproportion ate
hes is
Ġpre ca
Ġrest ed
m end
m and
Ġliquid ating
Ġto y
Ġ$ .
Ġinstruct ing
Ġco bb
38 4
ond a
Ġsw aps
Ġelect ors
Ġtrans form
nm ar
Ġund oubted
Ġh ood
Ġ8 57
Ġcr ane
Ġadjour n
Ġ7 97
f iling
Ġenl arge
Ġg rav
19 59
Ġmechan ic
Ġpractition er
nre quire
38 2
n em
Ġd re
Ġ9 15
Ġbroadcast ing
dec ision
76 9
45 8
Ġ19 19
Ġlib el
Ġinterf ered
Ġcommand s
78 8
Ġin ev
Ġequip ments
Ġ19 20
Ġdec rees
Ġsuppress ed
Ġfeas ibility
xxxx xxxx
Í ³
Ġunder ground
Ġc lick
am atory
Ġh ung
dis ability
ob iles
Ġ8 51
Ġins ist
et o
Ġp ump
Ġ7 63
4 20
Ġeug ene
ort on
Ġcase y
Ġterrit orial
m akers
Ġcb p
Ġinter action
um s
Ġ8 32
nth ose
ment o
Ġappro ves
Ġdecl arant
americ a
Ġh ars
Ġ8 26
Ġin action
Ġis o
Ġstep hens
re ra
03 4
Ġ8 35
Ġ8 47
Ġh ole
Ġcardio vascular
n management
thir ds
38 8
Ġrecover ies
Ġs ierra
Ġ78 2
Ġsk illed
Ġheight ened
Ġre a
Ġt ill
Ġprogress ive
Ġsett ings
Ġhar vest
Ġva ugh
' (
Ġdecla res
pe ll
Ġ8 22
bar g
03 2
Ġmort on
Ġ8 48
our s
08 3
Ġ1036 14
Ġdown load
Ġ79 1
; (
it er
son s
Ġaim ed
ang ibles
right s
n incre
Ġ7 41
secret ary
ur able
com b
Ġcoordin ated
Ġbe verage
Ġat rophy
Ġcult ure
wkh u
Ġsub tenant
Ġ7 28
Ġcounsel or
Ġdischar ging
Ġlight ing
Ġabb ott
Ġlabel ed
claim ed
Ġe li
Ġrapid ly
Ġdet ected
he y
Ġex ca
origin al
Ġcount ing
le an
Ġem er
ian n
Ġgener ating
n av
ut ers
Ġherb icides
Ġtort feas
nam eric
ning ham
Ġth umb
Ġmarg aret
Ġdenomin ator
e ch
Ġactu arial
Ġmatthe ws
Ġren umbered
Ġdia z
37 2
Ġrestrict ing
Ġthreat en
Ġl ut
Ġgu er
Ġgrad uate
Ġbow el
Ġ78 5
the n
Ġcompuls ory
am ended
Ġdes k
Ġ8 28
og ram
Ġhand ed
Ġext ract
empt ions
19 58
Ġan terior
Ġ7 71
assess able
Ġr ug
Ġliquid ate
sul t
Ġliv estock
Ġunderwrit ten
55 6
77 9
Ġtx sd
c ock
[.] âĢĿ
, .
Ġpenit entiary
em s
Ġv incent
Ġn aming
Ġmat rix
Ġdefinite ly
Ġfult on
sell er
stat utory
j b
og ue
lim it
Ġ8 99
34 2
Ġhe nd
at rix
ĠÂ »
Ġproport ional
ad der
f ull
n committee
19 49
ith older
Ġ8 73
disc losure
be zz
Ġgrant ors
Ġ19 26
Ġadvant ages
Ġgarnish ment
Ġhar per
Ġsynd ication
nn ational
Ç Ģ
Ġn s
Ġadjudic ating
Ġl arc
Ġbelie ving
ime ter
Ġimplicit ly
br id
Ġfil ter
Ġtrans lation
subsid iary
Ġ00 01
anc ock
Ġpar ol
Ġjohn ston
Ġduplic ative
77 7
66 7
Ġinspect ors
Ġadopt s
Ġins anity
Ġ8 49
Ġhaw kins
Ġminne apolis
f ill
38 7
nre commend
Ġsubpo enas
Ġc eme
st s
ever y
Ð ½
Ġbren nan
Ġatt itude
Ġcyber security
03 9
Ġne al
ec o
Ġ7 61
Ġfelon ies
Ġstrengthe n
Ġlo go
Â ¹
77 8
Ġdef amatory
Ġbro ke
k el
Ġpop ular
Ġib id
Ġnumer ator
Ġw c
Ġprosec utors
Ġret rie
p ret
Ġre h
Ġpropri et
Ġpec uliar
ther lands
76 8
organ ization
Ġcol loqu
or ily
Ġle ver
Ġtend on
Ġ78 4
Ġrestaur ants
y ah
Ġup ward
Ġdemoc racy
Ġstrick en
Ġun incorporated
Ġvou cher
Ġm fg
are r
Ġpe op
Ġmar ie
Ġ78 6
y ard
n people
Ġfor c
Ġ8 75
Ġdispos ing
Ġ7 79
Ġsw eep
aug ust
Ġpec uniary
Ġmon te
Ġm ul
Ġsubscri bers
cript ive
Ġ9 23
Ġno se
Ġ8 62
ok er
Ġhunt ing
y f
Ġsp ort
nwe re
Ġem pt
Ġ88 6
Ġch and
3 14
Ġoff ensive
Ġe h
Ġground water
Ġhand ic
Ġinter active
Ġm ask
Ġlev in
s ince
Ġ8 19
establis h
Ġanch or
Ġf an
' .
p ose
con nection
Ġreg ents
Ġven ire
d ut
Ġinit iation
not hing
Ġsh o
sum ing
0 75
Ġp overty
Ġunre imbursed
off s
Ġn od
ren di
Ġorient ed
Ġar ab
Ġexpress ing
ol ving
76 5
Ġdiv est
Ġste gall
Ġ79 5
Ġosteoarth ritis
55 4
ferent ial
Ġsol v
: ]\
Ġrel uct
Ġredu ces
Ġf law
Ġattrib utes
nin ter
er ion
Ġe f
Ġrefund ed
Ġca v
Ġo st
registr ation
Ġr he
Ġs ach
Ġs ender
Ġdi ane
7 13
Ġbre wer
Ġnort on
pro b
Ġaff iant
48 8
Ġemphas ize
Ġlo yal
opin ion
Ġdrive way
Ġphr ases
Ġw ine
os h
Ġw alsh
). âĢĿ
54 6
Ġchild hood
Ġdest ination
l if
3 27
Ġse gments
Ġannual ized
Ġtu ition
Ġ20 96
b ad
Ġm use
Ġp ne
Ġpeters burg
at ur
Ġreview er
Ġv amc
z ip
Ġpart ly
qual ity
Ġwon der
Ġis a
Ġgre ens
atisf ied
3 99
ab e
Ġfinal ity
z ier
Ġtele copy
Ġfender son
Ġt ons
Ġd p
Ġinconsist encies
Ġst y
Ġ7 98
w ich
Ġg ained
ma jor
z one
p ress
Ġral ph
Ġprotoc ols
Ġ8 80
Ġbal dwin
Ġ78 1
Ġacknowledge ment
n support
Ġb end
Ġre id
imon ial
39 7
Ġmagaz ine
Ġabet ting
Ġ8 68
Ġ9 27
Ġvict or
Ġh ancock
Ġear l
Ġgrand parent
Ġend angered
la ke
Ġh hs
Ġint angibles
no pp
Ġj and
Ġenjoy ed
ĠÂ °
Ġpe ak
Ġcomplic ated
enforce ment
Ġem bezz
Ġh iv
5 16
Ġameric as
Ġwill is
iv en
Ġrec ru
Ġ8 58
de velop
e ur
el and
m il
Ġg olf
k n
Ġt at
nt on
Ġfre quencies
Ġ8 38
miss ibly
Ġd angers
Ġw aco
p rem
Ġan ne
Ġmus cul
z lwk
z h
ro ph
nf in
Ġred emptions
red it
Ġr anging
Ġassaul ted
46 6
Ġship s
ome z
Ġundoubted ly
Ġ7 64
4 29
Ġundi agnosed
Ġ78 3
78 6
Ġremand ing
mid t
lo aded
Ġ8 76
Ġmisappropri ation
ee ee
Ġme at
Ġqu inn
Ġcard iac
Ġny se
Ġadjour ned
or ld
49 6
nth ink
Ġinher it
k bo
Ġ8 31
Ġre nov
Ġres istance
Ġv w
Â ¸
Ġproced urally
Ġen ables
Ġw ig
or ous
fl ow
Ġcl im
Ġro ot
Ġtime liness
Ġcongress man
Ġ13 72
Ġforfe it
Ġcons ort
Ġmil estone
Ġn ode
Ġ[ ****
ve tte
Ġopt im
Ġus da
Ġgeneral ized
Ġsh ir
Ġ---- ,
o or
met z
Ġre aches
het ic
Ġh idden
36 2
ay ed
s is
accept able
Ġt ie
Ġlo gan
Ġrecomm ends
Ġvis iting
46 7
Ġwant on
j ob
Ġaccum ulation
Ġdep uties
st rom
Ġlarc eny
Ġconf used
7 03
Ġinjun ctions
6 75
fa ith
05 8
ant icip
Ġdiff ers
Ġ7 104
) âĢĶ
Ġch ip
Ġles lie
hatt an
ter day
Ġlou d
Ġcred ential
Ġfed eration
Ġsm oke
ĠĠĠĠĠĠĠĠĠĠĠĠĠĠĠĠĠĠĠĠĠĠĠĠĠĠĠĠĠĠĠĠĠĠĠĠĠĠĠĠĠĠĠĠĠĠĠĠĠĠĠĠĠĠĠĠĠĠĠĠĠĠĠĠĠĠĠĠĠĠĠĠĠĠĠĠĠĠĠĠĠĠĠĠĠĠĠĠĠĠĠĠĠĠĠĠĠĠĠĠĠĠĠĠĠĠĠĠĠĠĠĠĠĠĠĠĠĠĠĠĠĠĠĠĠĠĠĠ ĠĠĠ
sh a
Ġpost ure
ro duct
Ġ9 28
Ġinfl amm
hart man
Ġ8 59
Ġul cer
let ion
Ġimprison ed
fac es
Ġsubs cribe
Ġexcell ent
Ġpos es
Ġ8 39
Ġenc umber
Ġdu ke
Ġdevelopment al
Ġfoc using
Ġse vent
Ġd q
h ist
Ġ8 97
Ġfried man
Ġcho oses
Ġendorse ments
Ġrough ly
Ġlabel ing
ore m
Ġsurge on
Ġpublic ity
Ġteleph onic
Ġrub ber
Ġinter fer
Ġtract or
Ġt ent
Ġfunda mentally
Ġpreserv ing
Ġarrest s
Ġabs or
t ake
res a
Ġfulfill ment
Ġcon verse
n ard
Ġ9 74
Ġcondu it
Ġvide os
Ġrecip ro
ber ly
4 99
n just
Ġrand all
Ġpatter ns
oc ument
Ġeffect ing
en sual
4 40
g ic
Ġmain ly
Ġencoura ging
Ġout door
Ġ53 21
37 3
Ġt um
Ġwel ch
Ġdon or
Ġorigin als
Ġ88 5
Ġfing ers
05 7
g erald
ra mento
Ġpeop les
Ġwe alth
Ġl unch
Ġtr unk
Ġretal iatory
Ġadvoc acy
v ac
Ġl er
Ġ19 32
Ġc ass
Ġ9 12
Ġjand reau
Ġ9 54
ww kh
Ġschol ars
Ġjud icially
Ġ79 3
Ġinflict ed
Ġconf erences
Ġ9 30
Ġer a
Ġl on
aint s
Ġpow der
Ġd ic
Ġe ea
f m
Ġclean up
Ġboe ing
Ġstake holders
Ġcun ningham
n see
Ġam trak
n ership
Ġbre aking
Ġremed ied
07 0
: /
Ġsect ors
nd iff
Ġl av
Ġrep ud
Ġdimin ution
ny our
iat ric
ma res
rys ler
5 25
Ġbar nett
Ġmin es
6 10
Ġl dr
Ġtrave led
Ġequ ipped
Ġdis bursed
Ġappeal ing
Ġinnov ative
Ġinvalid ated
Ġretail er
Ġvolum es
ur ring
om as
Ġ8 29
ign ed
Ġx ii
Ġbag s
Ġret ard
77 1
Ġwin ston
Ġss oc
Ġblank et
Ġautom obiles
Ġrese t
? âĢĿ
Ġdo se
kele tal
Ġz o
Ġse ars
sure r
Ġequip oise
Ġapart ments
Ġprofit ability
Ġcat al
Ġcrit erion
Ġeti ologically
Ġgold berg
Ġdifferent ial
Ġsy n
fourt h
Ġpro ves
Ġl ub
z quez
4 39
Ġlib o
d eli
a ffect
Ġpop ulations
Ġmccart hy
Ġkle iman
Ġhop kins
e uro
Ġpent ler
, ''
iv able
ur ate
Ġinter cept
Ġadj oining
Ġv ind
Ġu mb
Ġintell igent
Ġinspect ed
an ine
Ġth r
Ġeconom ically
Ġ8 61
nc ol
cro ft
x h
Ġrichard s
e g
Ġlitig ate
Ġ9 16
regard less
Ġs om
Ġsand ra
Ġsand oz
8 66
Ġ8 63
Ġretail ers
Ġelect ro
Ġb un
" "
Ġinsu fficiency
Ġhut ch
6 15
54 7
ign ificant
Ġ89 1
appro xim
Ġplatform s
Ġin active
Ġ8 74
nin vest
Ġbrook lyn
Ġprocess or
Ġdec ade
ard on
3 23
Ġliteral ly
Ġwhere fore
Ġnav igation
Ġnight mares
Ġass ignees
Ġolymp ic
Ġre ward
Ġf et
Ġch lor
Ġun safe
, &
Ġsumm arily
ser ies
Ġtank s
Ġbot tle
x ac
: ;
Ġtouch ing
Ġr r
Ġsout heast
Ġcontra ven
Ġrack ete
Ġpack ages
Ġca ught
b is
Ġhome owners
Ġcomplic ations
ect omy
78 5
Ġmultip lying
Ġsh oe
Ġeas ier
Ġdu ff
Ġpen ny
lo oked
ar ious
Ġassign able
Ġc rown
Ġp nc
Ġmat urities
Ġende avor
Ġ8 64
Ġincreasing ly
44 7
rel ations
Ġcon sumed
Ġg am
Ġatt ained
Ġrestr ained
Ġk em
Ġneglect ed
Ġ19 28
Ġes quire
n ine
Ġcontain ers
Ġdes cent
Ġcar son
59 0
Ġsh am
Ġdeme anor
Ġris ing
48 6
Ġoak land
Ġel abor
Ġl sa
ten ess
Ġdynam ic
Ġf let
Ġaffili ation
% %
j w
Ġte ach
Ġindic ations
hip s
77 99
Ġbarcl ays
Ġms a
Ġmus cles
ans on
79 5
Ġ9 56
Ġfron ting
s ource
it ate
Ġdev oted
ĠĠĠĠĠĠĠĠĠĠĠĠĠĠĠĠĠĠĠĠĠĠĠĠĠĠĠĠĠĠĠĠĠĠĠĠĠĠĠĠĠĠĠĠĠĠĠĠĠĠĠĠĠĠĠĠĠĠĠĠĠĠĠĠĠĠĠĠĠĠĠĠĠĠĠĠĠĠĠĠĠĠĠĠĠĠĠĠĠĠĠĠĠĠĠĠĠĠĠĠĠĠĠĠĠĠĠĠĠĠĠĠĠĠĠĠĠĠĠĠĠĠĠĠĠĠĠĠ ĠĠĠĠ
# $
Ġdisp atch
Ġinfring ed
Ġliquid ator
99 6
Ġt il
deal ers
n us
Ġacknowled ging
Ġl is
solic itation
rav ention
37 1
p olicy
n security
Ġdoubt ful
7 20
Ġconf using
m ult
v k
Ġin effect
Ġchart ered
5 40
f riend
Ġtop ics
8 25
Ġr ide
ra id
.\' \'
ore n
77 6
Ġdel ine
76 4
Ġintr usion
Ġrent als
Ġ9 80
ul ly
Ġ8 67
Ġshot s
Ġnew man
Ġg or
lo ading
b ons
Ġchrist ine
Ġ500 3
Ġt ions
Ġf ry
Ġag u
er isa
Ġl ag
Ġmis placed
Ġhe lic
Ġt ec
6 14
q gh
ĠĠĠĠĠĠĠĠĠĠĠĠĠĠĠĠĠĠĠĠĠĠĠĠĠĠĠĠĠĠĠĠĠĠĠĠĠĠĠĠĠĠĠĠĠĠĠĠĠĠĠĠĠĠĠĠĠĠĠĠĠĠĠĠ ĠĠĠĠĠĠĠĠĠĠĠĠĠĠĠĠĠĠĠĠĠĠĠĠĠĠĠĠĠĠĠĠĠĠĠĠĠĠĠĠĠĠĠĠĠĠĠĠĠĠĠĠĠĠĠĠĠĠĠĠ
Ġb ic
Ġun itholder
Ġstu art
Ġreim bur
ground ed
Ġexpand ing
Ġr uth
Ġgro ve
Ġfranch ises
nper cent
Ġb omb
Ġcou pon
mo vant
q wh
Ġdiscrimin ate
clear ly
vis ed
================ ================
Ġauthent ic
Ġlicense es
Ġhot els
Ġdisp at
Ġsp a
Ġauthent ication
n when
Ġman hattan
Ġus aid
4 12
Ġprodu ces
Ġprosec utions
p read
Ġep stein
???? ????
Ġ11 00
+ -
Ġrus h
Ġpl s
Ġgra ve
Ġyield s
Ġdept h
p ublished
Ġquant um
crib es
Ġma j
Ġpleas ure
7 01
4 55
Ġemploy s
11 177
Ġign ores
4 80
Ġarr anger
d ig
Ġ79 6
Ġse w
Ġd ating
Ġw n
Ġarrest ing
Ġall erg
re ce
Ġfir ing
Ġtransport ing
Ġstip ulations
Ġcigare tte
Ġ }
05 1
m aker
end on
Ġalle y
per iod
Ġbl k
Ġcontempor aneously
Ġvide ocon
Ġin line
f irm
Ġcontempl ate
t own
es ter
Ġrec order
Ġsch ne
Ġd tc
Ġdissemin ation
ens ing
Ġdiscontin ue
Ġre act
Ġreckless ly
Ġr amp
Ġpr c
ne xt
Ġpledge e
Ġ9 33
Ġmed ian
Ġf illing
## ##
Ġover due
Ġfight ing
Ġgr ass
f ld
du w
Ġmem phis
Ġgun shot
pro ve
Ġnomin ated
Ġindemn itor
Ġcod efendant
Ġdr ill
49 3
Ġcler ks
ag ram
Ġ98 3
dq djh
ab ove
Ġ8 79
Ġpear son
Ġobserv able
Ġkell er
Ġstay ing
Ġintent ions
Ġpror ated
99 5
un it
Ġwas tes
oc cur
Ġadvertise ments
59 5
Ġcut s
Ġhur ric
Ġfisher ies
s outh
Ġauthent icated
j n
Ġdoc k
provid ing
char ged
b ee
default ing
Ġsens ation
ac re
Ġtruck ing
Ġsurpr ise
Ġman n
Ġlay ing
e o
Ġarr angers
writ ing
pat rick
Ġcollateral ized
Ġparticular ity
Ġg s
worth iness
ul qj
Ġtreat ments
Ġvic inity
e ff
Ġcre am
, -
nm r
Ġhead ache
su fficient
.\ \
Ġmotor cycle
g b
Ġyes terday
Ġbroad band
Ġnurs es
Ġpreced ential
Ġlo ose
Ġstand by
5 20
ap ore
Ġdoub ts
Ġpost s
state ments
Ġc cc
gg s
Ġmaxim ize
discuss ing
Ġrest ate
Ġsustain able
Ġprovid ence
Ġaff ixed
Ġd h
pro ject
78 7
renew al
Ġimm igrant
Ġmig raine
Ġdi verse
Ġ89 0
Ġt ight
Ġnon payment
Ġpregn ant
6 30
55 2
h ur
se paration
Ġkat z
Ġpne um
/ (
Ġop ine
Ġdr ink
Ġpot ter
Ġmd l
z k
Ġconcess ions
Ġcomp iled
Ġh h
Ġwrit s
Ġplan e
con forming
Ġbur g
Ġun specified
75 2
Ġconsc ience
Ġd itch
Ġretain er
Ġbar rett
omin al
d well
t one
66 5
heim er
Ġvar ied
Ġco inc
Ġg est
Ġindi ans
fr ank
Ġfull er
Ġstring ent
Ġmiss ions
Ġword ing
05 9
Ġdon dero
Ġgar rett
Ġpass es
Ġop io
the ir
do j
Ġr it
g w
Ġf uels
Ġrat ify
04 5
59 8
77 4
Ġdisclaim er
sum mary
Ġcomplex ity
k al
Ġin patient
79 0
pl ant
Ġdenial s
Ġcou s
Ġ9 46
3 24
ach ute
Ġfoot notes
t ure
Ġf annie
Ġse ed
Ġex ert
Ġm old
75 5
es c
Ġne therlands
p ack
h us
nb en
oc o
p her
Ġmanip ulation
06 274
ove mber
Ġguarant ies
6 03
Ġgot ten
Ġst al
Ġch amp
Ġiniti ating
Ġh ors
st op
Ġun im
Ġled ger
is ites
s pon
49 4
Ġp ak
Ġo y
g ross
ounc ing
Ġmot el
Ġfor get
f it
Ġfeel ings
Ġirr igation
04 9
Ġ9 29
ital ics
bar red
it ur
nsh ould
Ġbre ast
Ġwil der
us iness
3 28
Ġhans en
Ġten ancy
ar r
Ġv and
Ġmod ule
Ġdiscrimin ated
Ġrec ess
cl ing
Ġinqu ired
Ġ12 91
46 4
rehens ion
i aries
Ġa i
Ġcry stal
Ġstein metz
Ġcon gest
p res
q s
hod whg
Ġr iding
oc ate
Ġcontempl ation
adjust ed
Ġz immer
56 1
Ġsound s
ĠĠĠĠĠĠĠĠĠĠĠĠĠĠĠĠĠĠĠĠĠĠĠĠĠĠĠĠĠĠĠĠĠĠĠĠĠĠĠĠĠĠĠĠĠĠĠĠĠĠĠĠĠĠĠĠĠĠĠĠĠĠĠĠ ĠĠĠĠĠĠĠĠĠĠĠĠĠĠĠĠĠĠĠĠĠĠĠĠĠĠĠĠĠĠĠĠĠĠĠĠĠĠĠĠĠĠĠĠĠĠĠĠĠĠĠĠĠĠĠĠĠĠĠ
Ï¯ ÏŃ
Ġheight s
f are
zz ers
Ġadmitted ly
Ġ11100 8
Ġbrid ges
Ġbever ly
Ġre mitted
Ġover d
h av
Ġmad am
Ġnat urally
Ġt m
Ġab uses
11 11
Ġdecre ed
Ġbreak down
Ġbraz il
Ġes pir
Ġ11 37
Ġval orem
Ġund isc
Ġmarket ed
45 3
Ġcolloqu y
aff irmed
Ġlouis ville
Ġ9 53
st aff
Ġpetition ed
it arian
Ġartific ial
Ġ88 2
Ġsac ramento
) *
Ġinj ection
Ġc pl
Ġpost traumatic
app lying
Ġarm ory
99 0
ljk odqg
Ġr hod
Ġeth ical
Ġst ern
Ġunnecess arily
l ocation
ig o
Ġinj ure
Ġre un
Ġconcur rence
Ġexplo re
Ġrecord ation
Ġbow en
Ġbound s
med ic
Ġt ub
Ġ9 51
Ġprohib itions
Ġsegreg ation
Ġlink ing
Ġbl u
ï ¼
Ġappeal ability
Ġw m
4 30
Ġfra gment
nhe alth
Ġen ro
Ġi h
Ġcar cin
Ġins ists
55 8
Ġwe iss
un ct
poss ession
Ġelic ited
Ġinterfer ing
ay a
Ġbl ow
n ad
19 56
Ġdetect ives
fail ure
Ġcra ft
Ġs ag
prof essional
Ġ8 52
Ġhelic op
54 3
Ġ8 98
Ġannex ation
Ġconsort ium
Ġd f
p ed
Ġwa ited
Ġinf ect
om on
Ġmis under
noff ice
Ġ____________________________________________ __
child ren
includ e
Ġf isc
76 6
he a
er ies
land o
Ġcontact ing
ne ither
contin uing
Ġnegoti able
Â ¾
Ġerect ile
rem ain
controll ing
Ġbrief ed
Ġceme tery
b ally
Ġ9 34
be it
Ġj p
Ġbreat hing
Ġ9 48
Ġcomple teness
Ġguard s
v f
in itis
Ġhar v
Ġmean while
Ġrese arc
e lection
Ġ9 49
ra c
Ġf usion
39 2
Ġhe id
collateral ization
Ġdon na
Ġfitz gerald
3 29
9 42
ou x
Ġfact ory
Ġal umin
Ġ13 32
Ġresign ed
comm ercial
o ard
Ġspeak s
Ġwe ld
ist rant
dist rict
Ġch a
Ġcf o
Ġembod ied
Ġd t
ne ffect
fe ctions
Ġsh ape
Ġ8 69
greg ious
app ed
t or
Ġ89 6
Ġhop cat
Ġ88 3
Ġco pper
Ġgate way
Ġ9 37
Ġquant itative
Ġre la
Ġout reach
. $
gu id
Ġhe in
Ġbl adder
Ġsure ly
Ġneurolog ic
Ġire land
Ġpropos ing
ides pread
56 9
Ġwood bridge
Ġespir itu
Ġhel ps
met ic
46 1
Ġinf o
co a
Ġaudit ory
Ġextr ad
Ġflet cher
ass oci
Ġfol ks
rog en
general ly
Ġ9 39
79 8
Ġaf raid
+ +
Ġ9 76
n man
du g
Ġmargin al
Ġmathe mat
Ġe g
ret irement
Ġk l
Ġour selves
Ġb if
Ġdepend ence
Ġattain ment
Ġsach s
48 1
Ġweak ened
Ġtouc hed
Ġprogress ion
56 5
) âĢĿ
Ġpre ferential
Ġm lp
Ġ11100 9
ss oc
Ġticket s
Ġre yes
78 4
pro gram
m ort
Ġ12 01
resol ved
Ġmezz anine
Ġn ix
209 65
Ġde br
Ġsav age
particip ant
n min
d ro
we b
Ġdivid e
Ġs li
âĤ¬" </
Ġ9 72
Ġ9 55
Ġimport ed
fund ed
b ec
b g
f ind
Ġ89 2
n know
Ġp ond
Ġdoctr ines
trust ee
Ġdisag rees
fur ther
99 4
Ġ88 4
54 2
Ġoccup y
Ġreconc ile
Ġt d
75 7
Ġqu ar
Ġ________________________________ ________
Ġsanction ed
Ġobstruct ive
in ated
o vers
Ġpun ct
Ġwor st
Ġpred e
em b
75 8
Ġt t
Ġth ur
3 19
Ġfeed back
Ġla un
Ġconting encies
Ġpract ically
Ġirrit ability
Ġcomp liant
Ġmc m
m ph
Ġbroad way
pl ain
Ġ9 44
de cember
Ġascertain able
Ġflu id
4 17
Ġcogn itive
Ġelect or
Ġsub lux
Ġcommercial ization
Ġpar is
Ġmel issa
lic ensed
hor n
Ġdeploy ed
Ġcur ric
Ġland owners
Ġmcla ughlin
âĨ ©
ne got
Ġnow here
Ġtrans l
Ġsystem ic
Ġ8 78
Ġb old
Ġche n
Ġrepurch ased
Ġda u
4 22
Ġunconstitution ally
z d
const ruction
03 1
Ġsophist icated
Ġ100 2
h p
Ġdisadvant age
Ġwhe at
Ġkath leen
Ġt sa
45 2
65 7
Ġpus hed
ns en
Ġgreen berg
Ġsub account
rev olving
fif th
Ġn ak
Â µ
Ġinc red
Ġpreempt ive
appeal able
ans wer
Ġk ra
Ġash ley
Ġw end
enth al
Ġsupervis ing
ud a
Ġdes ist
ir d
Ġ .,
56 7
................................................................ ................................
Ġaid ed
nb el
j x
Ġnegative ly
Ġmoder ately
Ġvideocon ference
Ġdo yle
Ġexplan ations
Ġcal dwell
Ġvar iation
cc c
x ii
Ġdimin ish
Ġlo gs
99 7
ren ces
Ġwea ver
Ġfo ley
Ġannot ated
46 2
Ġg omez
i able
ar iness
Ġha ul
Ġmagn itude
Ġflow ing
s mb
Ġtend ency
v ia
Ġgrad es
Ġfor g
nal so
reg istrant
Ġib m
Ġhere unto
d um
Ġforward ing
c ott
les see
Ġb ax
04 6
ĠĠĠĠĠĠĠĠĠĠĠĠĠĠĠĠĠĠĠĠĠĠĠĠĠĠĠĠĠĠĠĠĠĠĠĠĠĠĠĠĠĠĠĠĠĠĠĠĠĠĠĠĠĠĠĠĠĠĠĠĠĠĠĠ ĠĠĠĠĠĠĠĠĠĠĠĠĠĠĠĠĠĠĠĠĠĠĠĠĠĠĠĠĠĠĠĠĠĠĠĠĠĠĠĠĠĠĠĠĠĠĠĠĠĠĠĠĠĠĠĠĠĠĠĠĠĠ
ÆĮ z
Ġenhance ments
quest ions
Ġfle e
it ute
Ġd ust
m ass
Ġd x
Ġ9 68
psy ch
cent ral
49 1
n statement
Ġmak ers
Ġste am
ch i
Ġcirc ulation
Ġdep ot
Ġunre liable
Ġ12 18
s pe
Ġsy l
Ġcontradict ory
sept ember
Ġe aton
Ġcommunic ating
ĠĠĠĠĠĠĠĠĠĠĠĠĠĠĠĠĠĠĠĠĠĠĠĠĠĠĠĠĠĠĠĠĠĠĠĠĠĠĠĠĠĠĠĠĠĠĠĠĠĠĠĠĠĠĠĠĠĠĠĠĠĠĠĠ ĠĠĠĠĠĠĠĠĠĠĠĠĠĠĠĠĠĠĠĠĠĠĠĠĠĠĠĠĠĠĠĠĠĠĠĠĠĠĠĠĠĠĠĠĠĠĠĠĠĠĠĠĠĠĠĠĠĠĠĠĠĠĠ
Ġgard en
l ings
supp lement
Ġcamer on
Ġspon d
Ġ* "
Ġ358 2
Ġconf ident
Ġatm osp
Ġevid ences
Ġ é
Ġdishon esty
Ġgra ves
Ġ9 38
Ġdef s
equ ity
79 6
Ġput s
Ġconstant ly
Ġme als
Ġmat er
rec ourse
um ps
Ġer ie
Ġnas a
Ġp ush
Ġcolle ges
se ts
Ġexplos ion
igh ters
Ġdesign ates
Ġterrit ories
Ġpredict ed
Ġk am
75 6
ens ively
Ġst ret
nm ember
Ġbes ides
re quest
Ġlas ted
Ġgr am
Ï ³
s ay
Ġadd s
Ġunfair ly
ur d
Ġquestion able
Ġrede velopment
Ġh uff
Ġl aches
Ġcompass ionate
Ġconsec ut
; "
Ġperpet rator
Ġcompan ion
dqdjh phqw
Ġdisp ense
âĢĶâĢĶ âĢĶâĢĶ
Ġelect ing
Ġc atherine
f ts
n ro
Ġdec k
dut ra
09 0
sec ured
Ġsens ory
Ġenjoin ing
Ġdetain ees
tw ined
np re
Ġgood man
Ġ9 41
Ġobserv ing
58 5
Ġste ad
Ġrep oss
lf h
Ġbar ber
Ġthorac ic
l jl
Ġar isen
vol unt
w ind
Ġrefin anced
Ġroll ing
terror ism
Ġunder took
Ġdevelo pers
Ġcal iber
Ġf en
m k
t aking
Ġimpract ical
Ġwhistle bl
7 25
nd irect
Ġper ception
Ġdu ress
Ġrob ber
Ġro e
Ġunconscion able
Ġom aha
s ki
Ġsquare ly
Ġbo oth
Ġpre med
Ġnar rative
Ġsupp ose
Ġ99 6
Ġm u
pro ceed
Ġapp li
Ġour s
Ġlar son
al aska
Ġwar s
it ored
Ġcompr ises
em ia
Ġadd iction
j ack
re ck
Ġz e
Ġp df
Ġcast le
naut hor
Ġb ah
l at
Ġbra ce
Ġ9 73
Ġtechn ological
er ror
Ġdc s
Ġo sb
Ġag ing
Ġresid ency
Ġhol t
d allas
Ġla und
Ġsuggest ive
Ġ9 31
ca pp
Ġe is
Ġfin ed
np ublic
Ġk h
b p
Ġmarc us
erv ice
Ġfact finder
Ġdraw down
4 11
Ġbar rier
Ġdil igent
3 54
Ġd v
os keletal
Ġd ors
ra ck
kee per
_- _
Ġprior it
Ġcle ared
Ġdefer rals
Ġc il
Ġal ibi
Ġp ag
Ġafter wards
r ass
Ġorigin ating
sh aw
Ġbank er
Ġjewel ry
Ġ29 29
Ġinitial s
ord ered
Ġclass ifications
44 1
Ġjess ica
4 21
Ġor g
Ġpb gc
Ġt ended
Ġjust in
Ġmis led
ext ension
Ġf asc
Ġthe at
Ġlab els
Ġ9 60
Ġsim s
aa a
Ġ19 24
a us
ul es
Ġcons ensus
Ġ100 3
30 76
tr ade
Ġble eding
nserv ice
Ġn it
Ġlev ies
Ġsublux ation
Ġtell s
Ġphot os
74 1
ha zard
00 212
6 78
Ġ9 35
ant o
Ġdod d
dan iel
55 7
_ ]
Ġ88 7
Ġt ate
hab it
n contract
Ġcont ravention
Ġindic ators
Ġalex and
Ġin ch
Ġad ea
j v
op a
Ġbur lington
Ġshel by
Ġout rage
Ġcoff ee
Ġ9 59
Ġbir d
on ce
et ing
Ġunex pected
Â º
Ġpromulg ate
Ġschne ider
Ġb ass
s ky
Ġimp uted
4 16
Ġgall agher
benef it
Ġsystem atic
Ġe aster
Ġshar on
Ġmcdon nell
Ġcomp atible
Ġsearch ing
Ġeth an
Ġk os
Ġoccup ations
Ġfm la
c ateg
nim portant
Ã Ł
Ġt ony
e i
Ġ11 23
Ġbr ick
Ġsw ift
Â ª
Ġm ilit
Ġfe ld
68 8
Ġmost ly
19 54
000 43
72 20
Ġnas al
Ġf u
Ġpert ain
Ġstrong er
Ġmin i
Ġd ug
te le
Ġet f
Ġmuscul oskeletal
Ġto ure
ig e
Ġregul ators
Ġenab led
at eness
nt rust
nthe m
Ġun cle
c ery
Ġp air
rop ract
0 54
Ġconsecut ively
- ,
Ġdisc om
q vh
m ers
olog ic
Ġserv ants
Ġmcc oy
Ġweek end
Ġwe ber
Ġpar as
le ased
r m
Ġsch midt
Ġinf irm
ru p
Ġv on
Ġv p
nc ur
re ne
st ri
Ġimper missibly
Ġnut rition
Ġc ec
ult z
nb et
Ġcur b
m atic
Ġmis use
on nell
Ġhu ge
Ġroll over
Ġelect ive
Ġmar gins
Ġref lex
Ġbuil ders
Ġdetail ing
7 06
ot es
Ġv iv
Ġattrib ute
56 4
Ġv ba
Ġun fore
ind a
Ġfac es
Ġtap es
Ġinter twined
mor row
Ġber man
Ġse vered
it ivity
Ġrecomm ending
Ġsubstant iated
av ored
Ġmisc ar
Ġexpo sures
Ġeye witness
Ġthom son
ov ich
Ġnewspa pers
Ġconstitu ent
Ġma h
Ġ9 32
Ġmat ured
Ġdiscrep ancy
t ree
Ġ11 22
Ġclass room
4 35
Ġp ill
ol o
6 60
Ġw ing
Ġdis f
rib uted
feb ruary
ot ex
58 8
Ġwithhold ings
Ġlab ore
Ġtw itter
Ġ9 78
enc umbered
al g
Ġs mell
Ġre uters
Ġholid ays
Ġaudi ometric
Ġincrimin ating
r ations
Ġbip olar
r l
m obile
Ġ9 47
19 55
p ages
Ġlex ington
Ġinterest ing
Ġval ve
Ġtam pa
4 24
Ġarbitr arily
nprogram s
ch a
Ġpick up
Ġp ion
Ġapp rehend
Ġm p
Ġp up
Ġ* ****
Ġconstit utions
Ġenro lle
Ġtr an
Ġnor ris
Ġsing apore
Ġw ach
56 6
Ġher bert
79 7
m ings
Ġse quest
Ġsatisfact orily
Ġorient ation
Ġsupp lying
Ġdies el
ha ving
Ġabd ominal
Ġlist en
Ġce iling
lw do
Ġwk dw
Ġtotal ed
n new
Ġdow nt
Ġy ards
Ġup gr
at able
Ġsold iers
Ġacquit ted
Ġdomic ile
z q
Ġartic ulate
Ġbook er
Ġd s
v asive
Ġjust ifying
ruct ive
Ġb in
Ġgr id
Ġn ico
Ġeff ic
os o
Ġd ir
04 7
pur pose
bb a
Ġadv ancing
Ġcath olic
Ġtail ored
r ud
Ð µ
Ġcomm ences
work er
it ud
b ard
Ġw idespread
Ġst ap
Ġplay ers
5 15
) '
Ġfor gery
Ġtri ps
Ġit ar
Ġte eth
Ġcomment ary
Ġt ension
Ġced ar
Ġ11 16
Ġfoun der
Ġmor ales
Ġunpersu asive
Ġlod ge
Ġab ol
Ġvac ating
s ibility
âĢĿ) :
av oid
Ġdiscom fort
Ġan a
en ary
4 13
rel ating
Ġsut ton
Ġaffirm ance
Ġ-------------------------------- ----------------
55 1
Ġm ast
ly h
Ġbr andon
\\ \
Ġexp ose
Ġwid th
ph arm
Ġmer gers
Ġround ed
ib id
Ġre be
q a
Ġch rysler
Ġ99 5
assign ed
Ġprec ision
Ġ9 36
if ted
ss a
Ġembod iment
Ġco a
Ġbuff alo
Ġsupport ive
n pr
enn ial
Ġ11 14
Ġsing er
mich ael
Ġcr ash
Ġh inder
49 2
Ġcan non
Ġpar amount
Ġchi ropract
ĠÂ ³
Ġed ison
nne ed
Ġfav ored
Ġse mic
pt ed
4 23
Ġ19 17
Ġrep orters
Ġcas ino
Ġ100 5
04 8
Ġdisqual ify
mb h
Ġneigh bors
Ġe gregious
in as
Ġaut opsy
reg ulatory
hu v
Ġincur ring
Ġexplo itation
Ġpra c
5 11
v ass
6 19
Ġher n
y o
Ġs aint
i ations
ny ear
re pe
44 3
Ġin land
Ġdisturb ances
39 3
Ġascert aining
74 3
Ġtechn ician
" âĢĿ
Ġgro cery
Ġpaper work
77 3
46 3
Ġr f
Ġposter ior
Ġ9 43
Ġdev ote
t l
dq w
55 3
c ore
Ġ9 88
65 1
Ġsch w
Ġu d
Ġbudge ts
Ġrem ic
an ies
sub se
Ġont ario
Ġatt aches
Ġt ilton
Ġhead s
ative ly
des cription
ul um
Ġcompr ise
Ġk end
cj c
Ġbor ders
Ġconver ting
Ġb ta
Ġencompass es
ill er
Ġvalu ations
c ated
Ġes cap
Ġcoordin ating
Ġ9 99
Ġfraud s
Ġlab s
Ġprec ip
Ġstop s
Ġmetric s
Ġhunt ington
Ġdis interested
Ġship ments
Ġmid west
Ġx xx
Ġsuggest ions
nb usiness
Ġdetermin able
um e
Ġf ru
Ġ99 0
ier rez
] âĢĿ
Ġar sen
0000 0000
Ġp ope
Ġge ographical
Ġecc n
Ġm aps
Ġ10 99
Ġpar ap
Ġpled ges
Ġrackete ering
03 3
miss ive
Ġ9 57
rit ical
om s
Ġm oss
Ġapp ur
Ġ12 00
cor re
Ġd sm
Ġw er
Ġover collateralization
Ġang le
f j
argu ed
Ġinstall ations
Ġcur ve
com ple
cod ified
Ġang ry
Ġax is
Ġag es
Ġh rs
Ġsci atic
06 5
Ġtherap ist
Ġp aw
Ġcarp al
Ġprem ier
Ġn ord
Ġ ----------
us courts
ne al
68 5
ds lwdo
x ious
izz iness
n att
se ct
w is
66 9
Ġvari ations
Ġh oc
Ġme ter
Ġmob il
Ġce re
Ġign or
approxim ately
p he
Ġph ones
nex p
Ġoccup ant
Ġcar lson
Ġmodern ization
Ġst aged
d m
Ġbe am
Ġju ul
Ġche ster
Ġann uit
w i
pt ively
Ġqu ad
Ġinequ itable
Ġdeal ership
76 1
Ġse es
58 7
c ular
t arge
48 3
it ory
al tern
Ġincur s
Ġash croft
m ia
Ġur inary
Ġanaly tical
n x
Ġman ning
Ġbro ck
om o
Ġp ir
Ġf ow
Ġfinanc es
app oint
Ġend ow
Ġsusp ending
bour g
Ġsu isse
Ġmc gu
Ġappear ances
Ġgr abbed
ag ger
Ġsubs cribed
Ġswe et
nben ef
Ġed gar
Ġmerc ury
fd wlrq
4 18
Ġver izon
Ġcomp ounds
m ake
Ġstopp ing
qu in
Ġrefin ing
nopp ort
vh g
Ġdissol ve
Ġinjur ious
# "
Ġmon itored
Ġvisit ors
Ġmort ality
58 6
yy y
Ġglo be
h qw
Ġde la
Ġpenet ration
sp lus
78 1
Ġste phan
Ġeth nic
barg aining
ch ool
pro of
Ġstiff ness
iv a
Ġin fections
Ġc ba
68 1
ot he
5 30
Ġreserv oir
Ġpredomin antly
5 60
r and
Ġpl ates
us d
75 1
Ġtechn ique
Ġmor an
Ġout break
Ġdiabet ic
Ġpass word
5 13
oper ating
re ject
Ġannot ation
Ġtract s
Ġchand ler
t em
Ġco ach
Ġind isp
Ġcaus ally
ul se
Ġconf ers
Ġresid ue
jan uary
68 7
Ġd izziness
8 56
Ġthere unto
79 4
Ġwat ts
et z
Ġhow ell
se ven
Ġhe ns
st ill
Ġefficient ly
Ġbeck er
Ġs ke
Ġenl ist
Ġsubstant ively
Ġdispar ity
x g
Ġp atel
v ic
Ġr su
Ġuncont ro
Ġres ist
Ġmccorm ick
Ġmans field
Ġe q
pon t
Ġà ¸
Ġev iction
Ġab c
Ġthe ater
ar bitr
Ġse l
Ġconv ince
nre qu
Ġrebut ted
Ġswitch ing
Ġsupersed ing
Ġcent re
74 2
Ġjen nings
sign ificant
Ġ9 66
Ġpray ed
ne ill
en vironmental
Ġaccept ances
Ġrob ust
Ġend urance
Ġl ans
Ġcounterfe it
Ġby pass
Ġinherit ance
Ġlic ensure
k g
Ġnew ark
06 9
Ġover ly
) [
Ġhawa i
Ġelder ly
Ġmiscar riage
Ġal together
nm a
issu es
Ġrecover ing
Ġinterven ors
Ġjoh ns
u ities
Ġmin istry
Ġdisallow ance
Ġb il
Ġow en
Ġu e
Ġp ants
ent it
Ġres isting
69 0
Ġearn est
sm all
Ġpo ison
77 2
mail s
Ġentit ling
Ġped est
Ġrep aired
Ġvaugh n
z man
Ġpro ponent
Ġb auer
" âĦ¢
Ġcomb ine
Ġdem ol
Ġsh irt
pro posed
Ġman ually
occ up
Ġf led
perform ing
+ $
700 3076
Ġ355 7220
Ġ3557220 7003076
Ġdecision al
fol k
ll s
Ġmat uring
n ac
Ġaccru es
Ġob ey
., \
ess on
Ġrare ly
Ġover looked
Ġanalog y
6 40
Ġincorpor ating
nc ase
Ġguid ed
Ġli a
Ġh ollow
Ġjul ie
Ġbur ger
19 50
w id
Ġt ing
* ,
Ġun encumbered
ĠĠĠĠĠĠĠĠĠĠĠĠĠĠĠĠĠĠĠĠĠĠĠĠĠĠĠĠĠĠĠĠĠĠĠĠĠĠĠĠĠĠĠĠĠĠĠĠĠĠĠĠĠĠĠĠĠĠĠĠĠĠĠĠĠĠĠĠĠĠĠĠĠĠĠĠĠĠĠĠĠĠĠĠĠĠĠĠĠĠĠĠĠĠĠĠĠĠĠĠĠĠĠĠĠĠĠĠĠĠĠĠĠĠĠĠĠĠĠĠĠĠĠĠĠĠĠĠ ĠĠ
Ġunre ported
iv ities
Ġlod ging
ĠĠĠĠĠĠĠĠĠĠĠĠĠĠĠĠĠĠĠĠĠĠĠĠĠĠĠĠĠĠĠĠĠĠĠĠĠĠĠĠĠĠĠĠĠĠĠĠĠĠĠĠĠĠĠĠĠĠĠĠĠĠĠĠ ĠĠĠĠĠĠĠĠĠĠĠĠĠĠĠĠĠĠĠĠĠĠĠĠĠĠĠĠĠĠĠĠĠĠĠĠĠĠĠĠĠĠĠĠĠĠĠĠĠĠĠĠĠĠĠĠĠĠĠĠĠ
Ġtort ure
ens urate
ed u
Ġcu yah
59 4
Ġtrans act
Ġg mbh
erc la
Ġ98 5
Ġpostpon e
Ġl b
Ġsome where
unt il
âĢĻ ,
Ġvert ical
Ġreject s
Ġcover ages
Ġn sf
it em
78 3
Ġclar ke
Ġtherapeut ic
79 2
Ġcuyah oga
Ġorigin ation
Ġret rial
Ġham pton
05 2
sen ior
an es
ici ously
od ay
Ġinvent ories
07 1
la ce
Ġ13 13
Ġren al
Ġminister ial
Ġde lusions
Ġ9 89
Ġloyal ty
07 9
Ġacquies cence
Ġcorrobor ate
Ġ11 53
enz ie
Ġbar ker
Ġä ¸
Ġfly nn
$ .\
b lack
Ġsp ur
nd on
Ġre affirmed
n where
Ġor lando
Ġto morrow
Ġ9 94
Ġar mal
Ġimplic ate
Ġreferen dum
Ġlaw son
co vid
e ec
and s
Ġabs urd
Ġamount ing
-- -
ell o
Ġsche mes
Ġprobation ary
Ġcro ps
n page
Ġ10 85
Ġtrigger ing
ud get
prim ary
75 3
Ġab ilities
Ġconve ying
Ġne pa
Ġ9 71
Ġv ascular
11 15
Ġpl ains
og rams
Ġover lap
represent ation
Ġarmal ite
Ġpoll ing
Ġsevent een
Ġarre ar
Ġnin et
ls en
Ġst ories
Ġbenef ited
gr fxphqw
Ġreserv ations
acqu isition
Ġco in
7 08
Ġm b
Ġindividual ized
Ġfor ged
Ġfro st
4 60
pt ure
4 34
Ġfac ially
Ġcorre l
lo h
09 5
co x
Ġse an
c n
Ġhydro car
Ġcor rid
Ġfarm ing
Ġexpress ions
Ġtechn ically
Ġbla ir
Ġser vers
4 70
Ġst airs
Ġ Ñ
Ġextr aneous
Ġin ject
Ġnone x
Ġconnect ing
ï¬ Ĥ
j oin
Ġb rent
as is
le ctions
Ġ19 18
Ġhars h
Ġunivers ities
Ġpract icing
Ġmis statement
p v
ert on
Ġcro s
Ġfavor ably
td iu
Ġ9 52
Ġencumb ered
Ġselect ive
x w
rec urring
cust od
ex erc
Ġrif les
Ġfi ber
Ġ51 10
Ġaggreg ated
Ġwash ar
05 3
gg ing
Ġtact ics
m ad
Ġde ll
Ġmult if
nre port
Ġdev oid
r adict
olog ists
Ġdem ised
Ġoccasion ed
sc hedular
rul es
Ġdivor ced
9 20
ath am
ug g
Ġrefin ance
) "
dou bt
ugh ters
intention ally
\ &
ick ers
Ġsp ain
Ġo u
Ġrhod es
Ġpl enary
Ġobs er
x s
Ġmc n
Ï ħ
Ġshel ton
Ġ98 2
affirm ing
69 4
ar illo
Ġest e
Ġox ford
Ġm igration
Ġind ec
Ġfals ity
Ġfa ul
Ġben son
Ġcash ier
Ġthro at
Ġadministrative ly
Ġpersu ade
) /
or f
Ġgra vel
h ot
im ilar
assess ment
Ġch ad
59 7
Ġexclusion ary
nc ost
g one
sc heduled
commun ication
n cap
Ġmanifest ation
Ġsecre cy
q d
de termin
04 1
Ġappra ised
phys ical
co v
cl in
n administration
n um
4 45
Ġvalid ation
Ġme al
am ple
Ġcum mings
Ġdece it
Ġl ied
Ġad s
do o
id ian
Ġaver red
9 06
Ġinfer ior
Ġembar rass
Ġcons ensual
Ġbirth day
me as
Ġnot ional
Ġfr inge
Ġchair person
ab a
Ġle ve
Ġh in
Ġcomp ute
p ie
Ġamb ass
Ġal fred
Ġcomb inations
Ġdeterior ation
5 75
Ġan gu
Ġp sr
conc luding
Ġinter change
reg ulation
Ġimag ine
recogn ized
f ault
Ġinterval s
ell er
Ġmckin ney
Ġwall er
Ġexp un
Ġtransmit tal
68 9
Ġsimilar ity
Ġder og
Ġr fc
f ox
irm ingham
ed es
Ġ.. ."
Ġsolv ency
Ġg ear
Ġdo gs
l ength
substant ially
v y
vi et
gor ith
a ustin
Ġun established
Ġf ug
Ġak in
Ġbase ball
sch ool
Ġcou ch
Ġprompt ed
nf ac
Ġc nty
Ġl amb
Ġfoot age
Ġinvolunt arily
ograp her
d rop
Ġinterpre ter
Ġ Î
Ġintrodu cing
Ġdeduct ing
Ġpl ug
Ġrecy cling
l ass
f th
Ġ9 75
Ġamend s
Ġal beit
ss ss
def er
ag g
Ġam alg
Ġfas b
is k
Ġhan na
Ġcoll ier
Ġ98 1
Ġcop ied
Ġnomin ating
Ġtrad itionally
Ġl g
Ġass n
Ġunst able
Ġwrit ings
napp endix
b id
Ġk ane
nserv ices
Ġbut ton
con version
Ġ9 65
nm ay
Ġinconven ient
p y
Ġafford ing
o ley
04 4
Ġ( [
Ġlow e
Ġv td
69 5
Ġcomm ensurate
direct or
ngen eral
Ġar lington
Ġfle ming
er ced
Ġac ou
app ing
Ġcard i
Ġeffic acy
Ġun acceptable
Ġsp ill
Ġs ki
yyyy yyyy
Ġ9 42
5 14
pt o
Ġtortfeas or
n going
Ġ____________________________ __
ry ing
76 2
Ġcharacter ize
Ġstip ulate
Ġlat in
f at
1 103
Ġl s
âĢĻ âĢĿ
anc o
Ġinf ected
Ġeconom ics
Ġsan itary
ex cess
omet hing
ant i
Ġbax ter
en ius
Ġembod iments
includ es
Ġarchitect ure
bbbb bbbb
r sw
19 51
Ġapportion ed
Ġrebe cca
g ro
Ġne il
Ġproff er
st ead
llll llll
ny ears
op y
Ġmess rs
73 2
doc s
Ġgen es
Ġce le
7 75
59 6
Ġfav our
ninte rest
as ted
Ġper missive
Ġam en
nth ia
Ġx iii
x qg
Ġw ra
58 3
Ġex on
Ġact ors
Ġpower ful
Ġgat hered
Ġresc ue
Ġep idem
68 3
prot ected
affect ed
Ġgood win
w il
hv v
Ġ9 67
9 01
76 3
Ġfem a
Ġhard y
Ġculp ability
uc ing
66 3
58 4
Ġ11 63
Ġa unt
ict itious
Ġ9 98
Ġnon qualified
Ġche s
Ġstress ful
cf c
Ġmal one
Ġunif or
Ġmind ful
consent ing
ge ment
08 5
re ase
Ġp ink
un published
Ġinter agency
Ġimm unities
vw r
Ġat f
Ġex xon
Ġch in
Ġkim berly
Ġempt y
Ġhum ph
Ġp itt
Ġany way
Ġpass ion
Ġattach ing
Ġg el
Ġur l
ft c
ost a
Ġnational ity
Ġvacc ination
Ġpool ing
st ad
68 6
ave z
Ġ99 1
Ġinstrumental ities
Ġout er
Ġg rew
Ġwholes al
7 30
Ġli u
Ġ$ [
Ġwarrant ing
Ġphilipp ines
Ġl ent
Ġbat son
cal c
ollow ing
nimp lement
t m
im s
Ġimped e
Ġ9 69
Ġur gent
Ġal ice
19 52
em bourg
ext ra
001 80
Ġt ube
Ġ9 70
Ġref rig
report ing
Ġcritic ism
ch lor
Ġpay or
Ġdomin ant
Ġc ock
Ġapp rent
cert ific
56 3
Ġr m
Ġindict ments
t u
che ster
Ġcr am
Ġ10 39
Ġtransfe rees
o ig
Ġev ade
65 3
Ġshoulder s
reason ably
Ġcol omb
f ish
Ġineffect iveness
Ġdi x
Ġlu is
Ġred irect
5 17
Ġde ception
Ġvideot ape
Ġdece ive
Ġa j
79 3
Ġe at
Ġintr usive
serv icer
mr m
88 7
Ġgar za
Ġindic ia
Ġpronoun ced
n very
Ġnot ifications
Ġmurder s
] ]
i ree
l rq
s n
Ġexplos ive
6 12
b ond
Ġ99 2
66 2
Ġb irmingham
ant om
Ġdisplay s
ap ed
Ġbase ment
su bt
Ġper ceive
ue la
ant ed
or o
Ġsa ving
Ġcarl os
Ġth rew
Ġembezz lement
Ġc ic
19 53
Ġcircum vent
nd efendant
less ly
66 1
Ġdomic iled
Ġcomp ression
Ġhors es
Ġcon ject
Ġhurric ane
pre ced
78 2
66 8
ote chn
r ml
Ġin a
commit ment
Ġrecipro cal
npro vid
Ġod or
Ġprof itable
Ġbloom berg
Ġwithdraw ing
Ġmat ched
work ing
Ġparticip ates
Ġindefinite ly
v ine
Ġ10 40
Ġdaw son
cr iminal
5 26
68 4
Ġunilateral ly
89 7
Ġr p
ncon sid
ili ary
Ġpen is
g ender
Ġamort ized
Ġpure tone
9 72
Ġspecial ists
Ġspons ors
ri el
Ġfav ors
Ġtri able
69 3
Ġsw iss
Ġr um
Ġste ward
n who
56 2
respond ents
Ġgriff ith
08 2
b ms
Ġident ities
compens ation
Ġjo el
Ġrev oc
y an
Ġ11 17
q fh
red ited
Ġ ith
Ġmerch ants
7 40
Ġl d
Ġwol fe
ear ned
nacc ount
l gh
emb ered
an ders
Ġtur key
Ġsp l
Ġrestraint s
form ed
Ġpresum ptively
w ife
npro vide
se a
Ġcare y
ame la
m ilitary
Ġ00 1
Ġnew ton
Ġho ok
7 05
t f
06 8
Ġthor nton
Ġpas su
Ġhis pan
4 28
Ġover broad
Ġqual itative
Ġprevail ed
exc luded
Ġal gorith
ri ve
h ier
Ġbri bery
oct ober
iz able
Ġly ons
Ġsa i
Ġdeliver able
Ġan at
Ġcre ative
Ġv ista
ad judic
Ġfee ls
Ġvict oria
Ġconverse ly
ale y
gr and
69 1
Ġtul sa
ic z
Ġce ment
Ġrip e
l ers
Ġco ch
Ġneg ate
) %
Ġk ram
Ġoccur rences
Ġfriend ly
Ġgut ierrez
Ġafford s
69 8
ox ide
Ġinv oking
Ġam put
99 1
Ġstation ed
nc are
Ġde er
Ġun question
60 501
Ġb und
Ġhy brid
Ġ16 92
Ġsubparagraph s
Ġabnormal ity
Ġrein vested
Ġdod ge
Ġciv ic
stre et
e h
5 80
Ġ19 13
Ġo sc
app lied
mar ked
Ġfranchis ee
07 2
nc ould
88 9
pon ents
Ġopp on
Ġd ana
Ġun resolved
Ġeditor ial
Ġdri ves
Ġminim is
Ġl omb
Ġstand point
Ġfrank ly
ine ural
Ġo un
nc ounsel
Ġk ass
wk dw
Ġalumin um
Ġcontest ing
im en
ap y
n ovember
Ġm h
Ġs ake
Ġp ic
Ġnor folk
Ġshan non
Ġunemploy ed
Ġlot tery
Ġj as
Ġdes ert
Ġreform s
Ġkirk land
Ġf h
ant z
Ġno ble
Ġtur p
el ing
Ġtu ber
ĠÃ °
Ġconstr aints
Ġconsp ired
Ġconvey ances
he ny
Ġup s
Ġappli ances
Ġsch ul
nin t
ĠÃ ¸
pl ate
Ġpres criptions
Ġspok ane
Ġje rem
Ġfranchis or
t v
it ting
Ġ ï¼
Ġj et
Ġchapter s
f ad
Ġun registered
Ġstrugg le
Ġab duction
n review
pa ired
n like
Ġsumm aries
Ġhick son
hazard ous
inc rimination
Ġur ine
Ġread ings
c dc
Ġcounterpart ies
Ġ13 80
Ġwatch ing
) $
7 35
Ġcondemn ed
ro let
Ġconsp ic
Ġrep os
erent ial
c am
Ġcop d
b orne
Ġ20 23
z ed
Ġs inking
Ġsa ved
89 8
69 6
Ġ9 61
Ġass ail
Ġaer os
69 2
Ġsw it
Ġt ires
Æļs zy
7 60
Ġ" ...
Ġp am
66 4
ra ction
ip e
Ġinter actions
pl ained
Ġbill ings
Ġconform ing
Ġrepay ments
Ġtro ops
Ġtoll ed
Ġpollut ants
Ġun sub
19 40
rin ted
ud i
v as
6 80
Ġg rown
Ġreported ly
Ġp ont
Ġperfect ly
Ġca ve
Ġ11 32
Ġrem embered
aut omatic
bl ue
r n
Ġline up
corpor ate
f ound
s able
Ġca reg
ut ure
Ġk oh
Ġmaster s
p ol
Ġmass ive
Ġdetain ee
Ġk atherine
Ġcomprom ised
Ġgen etic
Ġh ref
exp enses
Ġ525 7
Ġd ensity
ac ia
Ġtotal s
Ġsensor ineural
Ġredesign ated
Ġree ves
Ġfib rom
urb an
r ans
ra il
Ġdict ate
nc or
Ġcontamin ated
Ġtest imonial
5 70
Ġgu ys
Ġc reat
en berg
Ġstee le
Ġf ha
Ġro utes
sp acer
Ġrecon cil
Ġrand olph
Ġere cted
n question
ot yp
de oh
qu er
nth an
Ġar son
Ġdeliber ative
Ġhs bc
Ġinvestig atory
Ġfoot ball
Ġl ading
Ġdevis e
nc ir
h ud
o ys
icular ly
Ġundisc losed
Ġcost ly
Ġland ing
Ġcor r
Ġangu ish
b ill
Ġcolle ague
Ġmerit less
Ġcy nthia
4 38
Ġb ak
ÆĮ g
Ġf ictitious
regard ing
Ġ100 8
Ġber ger
Ġrese ll
g mail
\\ /
Ġu st
Ġbrad ford
Ġb ending
4 36
g art
Ġp ound
Ġextrad ition
Ġd ss
06 6
Ġanalyst s
Ġsing h
Ġhe m
Ġreal ization
Ġjur ies
lo bal
Ġ9 77
Ġintimid ation
li en
Ġattack ing
Ġnol o
4 54
bor ough
Ġpl r
Ġwork man
rem o
Ġp ue
Ġg aps
Ġaustral ian
Ġcharge able
Ġt ips
Ġchev rolet
th ose
Ġa ber
Ġmist akes
Ġextingu ished
Ġto es
ig en
Ġjackson ville
ows ky
Ġflaw ed
Ġwaste water
Ġcontrovers ies
n contin
Ġda ughters
Ġ94 11
Ġau x
Ġ________________________________ _
constitution al
Ġm ue
Ġp cr
Ġmuse um
Ġtr s
Ġam ici
Ġtele cop
Ġen orm
m und
Ġingred ients
Ġen sures
erg ency
Ġt ac
Ġcurric ulum
Ġx iv
Ġdu pont
p ath
trans action
ia h
7 07
Ġentrust ed
Ġphill ip
Ġam pl
Ġencompass ed
Ġj ensen
re issue
roduct ory
Ġs v
98 5
6 99
Ġuncontro verted
ard i
Ġn es
Ġhans on
Ġsu ing
Ġrec itation
Ġsch ro
Ġdecre ases
best case
Ġbic y
Ġg ol
Ġhe ss
Ġc rest
air d
Ġo v
um ont
Ġprec luding
Ġguest s
nde velopment
Ġpak istan
Ġintell igently
Ġre no
Ġpool s
Ġhemorrh oids
Ġconstruct ing
k as
Ġtre mend
Ġlaf ayette
ig roup
f raud
ve en
Ġcontr ad
Ġrela x
Ġd l
Ġrivers ide
og ical
Ġ100 7
Ġ9 63
ipp le
Ġnex point
or ical
me re
Ġvolat ile
6 46
m ac
Ġsecond ly
Ġstro ke
Ġhog an
Ġle hman
l arge
nn umber
Ð¾ Ð
necess ary
Ġo j
Ġmix ture
Ġmcl endon
w at
nd em
Ġam anda
d il
n law
Ġuphold ing
om en
Ġl anc
Ġhand written
Ġh oney
can ada
04 2
Ġp ly
ind ex
Ġdu i
Ġde re
Ġ19 09
Ġext ensively
89 5
7 14
ed pa
Ġair line
ent ions
Ġpalp ation
Ġuniform ly
Ġe y
% &
Ġcan e
6 22
Ġp inc
Ġ10 59
Ġhel en
n add
bu yer
sent ence
iver se
Ġdistingu ishing
Ġl ion
Ġisa ac
Ġt ang
Ġis lam
sett lement
Ġn ass
Ġdef ensive
Ġpreced ents
Ġad r
Ġpion eer
Ġcomm ing
! ,
Ġtreat ies
Ġgrandparent s
serv ices
provid e
Ġjes se
ncon c
Ġlen ex
u za
Ġ9 79
Ġdict ates
Ġk on
Ġcorrobor ation
ar is
Ġillustr ated
Ġh os
Ġcontract ually
Ġpublis her
? @
Ġst all
Ġv om
Ĳ â
Ġ98 4
Ġsubsid y
Ġrese mb
n ance
v iate
Ġguarantee ing
yal gia
Ġh ull
el man
Ġmedi ator
7 26
Ġl ida
6 11
Ġculp able
Ġbrig gs
Ġbo iler
Â·Â· Â·Â·
7 09
Ġsound ness
Ġnew port
par k
Ġout look
Ġtestament ary
; ;
z Æ¶
le te
Ġsc rew
5 35
= >
Ġp amela
er ous
Ġdistrib utable
Ġdr unk
89 6
Ġvac ancies
Ġflow ers
tre as
8 60
remain der
Ġrac ing
Ġf ert
7 15
Ġcondition ing
; âĢĿ
Ġ10 26
Ġins ervice
Ġalph a
as y
Ġ19 22
Ġc mt
ik a
Ġtr ash
Ġuniform ity
Ġcan vass
ock s
nb ack
Ġva zquez
Ġbelong s
Ġacre age
Ġn iss
Ġg on
e ers
Ġreport able
Ġindic ator
5 21
Ġby ron
Ġleg ends
Ġwet lands
Ġbow man
omb ly
ow ing
~~ ~~
Ġcharl eston
Ġp ep
pl ane
Ġjapan ese
Ġcel otex
Ġh mo
33 76
Ġed ema
Ġfe ver
mill er
ag a
at ial
Ġe ee
Ġdis orient
Ġder ive
Ġblock ing
8 40
Ġsp as
Ġill icit
radict ed
Ġper il
Ġ101 1
Ġbur ial
or ously
ad i
ear ns
Ġfisc her
19 43
Ġwh is
pa ul
defin itions
book s
Ġcher ry
Ġ101 0
lif eration
Ġ[ (
Ġfunctional ity
4 76
Ġh ierarchy
Ġbar ring
Ġba ile
Ġhod ge
second ary
Ġapprais als
th s
Ġt l
Ġcomp lement
Ġcr imin
ĠĠĠĠĠĠĠĠĠĠĠĠĠĠĠĠĠĠĠĠĠĠĠĠĠĠĠĠĠĠĠĠĠĠĠĠĠĠĠĠĠĠĠĠĠĠĠĠĠĠĠĠĠĠĠĠĠĠĠĠĠĠĠĠĠĠĠĠĠĠĠĠĠĠĠĠĠĠĠĠĠĠĠĠĠĠĠĠĠĠĠĠĠĠĠĠĠĠĠĠĠĠĠĠĠĠĠĠĠĠĠĠĠĠĠĠĠĠĠĠĠĠĠĠĠĠĠĠ Ġ
Ġpar achute
6 16
Ġem an
Ġws ou
g ard
Ġred ef
Ġant ic
for fe
Ġsol vent
Ġdiff ering
wh ole
ov ia
uls ion
4 27
Ġint roductory
Ġv in
Ġcredit ing
8 30
rell a
Ġtw in
Ġh t
Ġx vi
Ġ98 6
Ġjan et
Ġalb any
Ġimport ation
Ġt urb
Ġ9 64
Ġviol ative
Ġteam sters
Ġa ur
Ġby rd
Ġstr at
Ġ111 000
Ġk ro
Ġann ouncing
Ġlam bert
p ow
Ġpip es
am o
Ġvolunt ariness
ident al
n legisl
Ġman ul
Ġ($ )
s ens
Ġaccess ories
Ġdatab ases
act ory
Ġvi ability
Â ©
Ġunder cover
Ġa vers
Ġdes erv
pro hib
st own
Ġno body
Ġinfect ious
hu y
Ġfavor ing
o va
Ġth rown
Ġcon way
ay e
Ġf allen
x bd
Ġliber ties
Ġof ac
employ ed
ric ably
da vid
Ġrailroad s
Ġth un
Ġhe w
Ġbif ur
Ġnr c
8 10
Ġensu ing
x uh
Ġcertificate holders
Ġsp ite
Ġhay nes
Ġproc uring
Ġlt ip
/ .
Ġreview able
Ġpharm a
Ġunemploy able
Ġf on
Ġrow e
Ġcy st
Ġequal ization
Ġmult ic
8 44
Ġpers ian
Ġm asc
Ġpreced ed
Ġal ive
r ina
Ġrand y
Ġsubstit uting
Ġqu arant
Ġ100 6
int ended
Ġitem ized
Ġrecruit ment
en h
58 1
ĠÃ Ł
79 1
Ġrebut table
Ġinconven ience
Ġtr im
oper ation
Ġpriv ity
6 45
roph ic
Ġar ter
5 22
and um
Ġz ones
Ġv enez
na ud
Ġawa iting
r pp
Ġth in
Ġs ip
Ġ12 52
Ġhome less
Ġrev oking
com a
Ġmanag erial
Ġharm s
Ġb aa
Ġillustr ates
Ġreal m
Ġit aly
Ġcopyright ed
Ġmile age
Ġplay er
Ġsister s
m aint
se al
wh y
Ġk u
Ġann a
Ġburg ess
Ġturp itude
npro ble
Ġconfig ured
7 10
Ġ10 75
on duct
requ iring
Ġenlist ment
purch aser
Ï ±
Ġfr ames
ivers ity
Ġnat o
Ġsucceed ed
Ġca fe
Ġunequivoc al
Ġrobb ins
Ġell en
Ġw ool
Ġco erced
5 23
ina ud
Ġint imate
Ġl ug
Ġrec edes
f ast
Ġfres enius
Ġambass ador
Ġpros per
Ġange l
n well
4 37
Ġtw ombly
69 7
Ġbra zzers
n here
010 21
ther ly
Ġshipp er
Ġca ptions
Ġadjourn ment
Ġwhistlebl ower
Ġfibrom yalgia
est ones
Ġall ison
Ġpoly graph
nm illion
Ġstart s
Ġrh initis
Ġbudget ary
Ġincom ing
or ge
ari os
9 11
Ġp omer
civ il
ï¬ Ģ
jg k
Ġcliff ord
ad ata
Ġemb ed
Ġpreca utions
Ġdeliber ation
Ġun mat
nm on
Ġhorizon tal
Ġdirect ory
ars al
Ġly mph
ĠÂ ¬
Ġ~ ~
Ġconce ived
Ġdisc rete
ncur rent
Ġâ ľ
021 85
Ġ99 3
ncon cer
Ġhig gins
Ġk re
l vw
f al
i ates
Ġenc ro
n its
Ġb oss
Ġwill s
Ġmed ina
ĠâĢ ł
Ġmonop oly
qu es
Ġp hen
ķ Ĳâ
Ġlog ically
Ġpack ing
Ġfra zier
Ġ526 0
Ġw ich
Ġsens itivity
k em
: </
le ep
Ġ100 4
Ġarra ignment
Ġacou stic
Ġdi ver
Ġapprais ers
Ġathlet ic
Ġrein surer
Ġprin ter
Ġtro y
Ġstr s
08 4
Ġka iser
Ġsuit ability
ul ates
Ġre sumed
Ġv r
Ġpass port
Ġexpect ancy
5 24
lo sures
3 77
Ġph ases
pat ch
Ġbe quest
Ġpanel s
Ġe ps
st ud
Ġcal uza
Ġentit les
59 2
ve t
Ġp ru
oh ge
Ġp se
uca ipa
Ġpol k
Ġimp ulse
ob vious
Ġmcc ull
Ġded ication
Ġbreak s
Ġram os
Ġneg ro
Ġ9 62
Ġrep utable
99 2
Ġma ur
Ġir ish
Ġperman ency
ual s
under s
Ġscre ens
Ġh f
ow ed
Ġap olog
Ġunavail ability
ra ce
Ġtransmit ting
Ġch ick
Ġcontend ere
Ġab ate
Ġunequivoc ally
ter ms
Ġrel ators
pr ice
Ġpur view
Ġc ercla
Ġday ton
inaud ible
Ġup grade
8 16
Ġw ake
4 19
h ou
Ġun su
Ġm me
less or
08 7
fr ath
per ing
targe t
Ġsh ifting
Ġprotest s
c pa
p ine
acqu ired
Ġe licit
m ut
isd om
Ġintox icating
v ar
Ġdut ch
Ġkram er
Ġdi vert
9 03
nf irst
Ġin h
Ġrep rim
Ġste ering
Ġemb ass
Ġfulf illing
5 34
y k
Ġm ou
Ġremitt ance
Ġregistrant s
it as
Ġ13 67
conf irm
Ġfred die
Ġmod est
Ġstre ams
dec rease
Ġintern ally
Ġscha frath
nh ad
Ġd uck
ank s
du p
Ġlay no
Ġenc ry
nre ason
al i
Ġelimin ates
Ġabst ention
Ġconstr ained
! "
9 100
Ġreun ification
Ġde lo
7 80
Ġin verse
guarant or
Ġvoid able
Ġmanual s
Ġdam aging
Ġaccess ibility
Ġconserv ative
k lv
nind ividual
av y
npetition er
Ġf itch
Ġcorrobor ating
Ġch avez
don ald
Ġappropri ateness
Ġarchitect ural
iw an
Ġb sg
Ġman ages
Ġstam ps
Ġstaff ord
ig nty
8 55
Ġ9 97
subse quent
Ġliving ston
8 70
r ine
8 20
Ġ( %)
Ġdest ro
df k
Ġm om
le ad
Ġben e
Ġscient ists
Ġr l
ret ies
Ġtoy ota
Â« Â®
Ġfacilit ating
Ġk yle
Ġmisrepresent ed
3 79
19 47
Ġass ent
Ġfront ier
65 2
Ġforec asts
Ġfor cing
Ġgib bs
Ġlod ged
Ġstem ming
ins ert
Ġemp ire
s or
Ġt ca
n up
ust ry
Ġ100 9
Ġoutrage ous
Ġret rieved
Ġattract ive
Ġdiscoura ge
) âĢľ
Ġ. \
gu yen
Ġp ant
Ġeconom ies
Ġtable ts
68 2
Ġchart s
Ġpre par
Ġan xious
de pos
Ġc ull
Ġleg ate
" ?
58 2
Ġn is
Ġ374 3
i Ã°
6 70
ro b
Ġdeter rence
Ġne u
sh op
> ,
Ġt ack
Ġinstruct s
Ġir u
Ġbre ad
Ġval ent
9 44
uc ation
res h
Ġdis approved
7 18
Ġ13 78
Ġins ur
Ġint estate
4 26
____ _
Ġsem iann
Ġquot es
Ġep ic
Ġemphas izes
Ġker r
Ġallerg ic
ĠĠĠĠĠĠĠĠĠĠĠĠĠĠĠĠĠĠĠĠĠĠĠĠĠĠĠĠĠĠĠĠĠĠĠĠĠĠĠĠĠĠĠĠĠĠĠĠĠĠĠĠĠĠĠĠĠĠĠĠĠĠĠĠĠĠĠĠĠĠĠĠĠĠĠĠĠĠĠĠĠĠĠĠĠĠĠĠĠĠĠĠĠĠĠĠĠĠĠĠĠĠĠĠĠĠĠĠĠĠĠĠĠĠĠĠĠĠĠĠĠĠĠĠĠĠĠĠ ĠĠĠĠĠĠĠĠĠ
Ġal s
Ġlux embourg
Ġstamp ed
f re
Ġunder payment
Ġcard inal
ct ure
Ġrec ites
9 04
port ation
r v
Ġste pped
Ġba pt
Ġint ake
20 22
Ġ13 25
Ġn pr
Ġlaund ry
Ġ12 14
Ġlast ing
br ight
n whether
re levant
Ġfirm ly
wa iver
Ġuncont radicted
Ġassaul ts
Ġin habit
Ġadvert ised
Ġn h
Ġhelicop ter
Ġdis ney
re ading
Ġmon ica
y z
5 38
Ġru iz
Ġgrant ees
Ġclar ifying
Ġtra cy
Ġmcc oll
Ġcon gen
Ġab a
uss ion
Ġto ile
Ġexclus ivity
Ġroche ster
Ġfiduc iaries
Ġfer nandez
Ġdiscrep ancies
Ġbr ut
g old
ee l
Ġcat aly
az ar
Ġw ore
Ġth ick
d ent
Ġomit s
99 3
f ri
ĠÂ ®
Ġger d
as tern
Ġint ensive
Ġload s
n ik
j ay
Ġadvoc ates
Ġassist ants
develop ed
Ġcost a
cf a
Ġ14 00
igu ously
Ġrig id
b ing
Ġso viet
.âĢĻ âĢĻ
ro bert
Ġjust ifiable
Ġ10 21
Ġpip elines
Ġo e
Ġsch ultz
off er
Ġ11 25
person s
Ġm ate
arm s
Ġgab elli
umb le
Ġoxy gen
Ġsever able
Ġargu endo
9 25
Ġlitig ating
Ġta ught
Ġhighlight ed
y b
cul osis
06 1
ne ff
Ġingred ient
7 45
8 11
Ġf ont
Ġpresum ptions
npro ject
Ġfow ler
in vol
ķĲâ ķĲâ
Ġp cb
Ġse ated
ne il
Ġvest s
Ġv l
Ġcou gh
Ġer nest
Ġhe ller
Ġillustr ate
ne ar
Ġgreen wich
Ñ Ĥ
Ġham mond
ak a
Ġconf isc
Ġcat ast
Ġh ide
n orth
wh v
Ġthe od
Ġ\ '
Ġover la
t ier
Ġdef ence
Ġip o
Ġenl ar
Ġbart on
Ġat kinson
Ġpro cl
3 78
Ġp to
vis ions
Ġ................................................................ ................................................................
Ġmater nal
Ġj aw
Ġforb idden
Ġmon s
Ġ526 1
Ġ11 67
Ġclin ician
Ġdram atically
Ġloc om
09 8
ah y
5 33
Ġk or
0 76
li x
Ġhom icidal
jur isdiction
Ġrep etition
____ __
Ġr n
Ġpur se
Ġargu able
Ġround s
vid ence
Ġissu ances
Ġabb rev
Ġhop ef
Ġforc ible
irs ch
6 13
Ġd ign
Ġexecut es
t urn
Ġconc ise
Ġtar rant
ini ine
Ġreb ate
Ġpre ston
Ġsc alia
c uit
Ġsu reties
Ġimp ress
Ġcous in
Ġindemn itees
im medi
Ġdiscuss es
Ġnarrow ing
Ġd as
19 48
Ġn f
cc cc
Ġhe ir
5 37
98 6
Ġcarcin oma
Ġlaure n
Ġsuperf icial
Ġhome owner
nde velop
Ġvas quez
c g
o van
Ġs gt
mar ks
d j
06 2
Ġg an
b eck
Ġher man
Ġ10 31
Ġcoerc ive
nd es
89 0
Ġsur faces
ve ment
nb efore
t ar
Ġfe ij
Ġrad ius
Ġw isdom
phqw v
Ġdepict ed
as see
Ġapp end
Ġare n
doc uments
Ġevid ently
Ġaffirm ation
Ġ98 7
Ġhuman itarian
Ġknock ed
Ġcar o
Ġlaun ched
Ġkap lan
pr ime
Ġlat itude
59 1
Ġarbitr al
du h
Ġpf izer
min imum
Ġph antom
Ġcomplain ants
Ġfeij oo
6 21
Ġrece ption
âĢĿ âĢĶ
Ġsh ifted
Ġch ron
ru w
Ġs edent
de termination
Ġwach ovia
Ġrend ition
pro du
ale igh
Ġka uf
Ġwal let
6 33
Ġ13 77
Ġf ires
Ġcontest s
Ġsedent ary
le ases
Ġfinger prints
Ġex igent
Ġb rib
Ġhon ored
dis miss
ur red
ins ky
19 41
Ġmol est
+ ,
Ġhub bard
off icer
Ġch ond
ist on
Ġab ut
m us
Ġ0 21
Ġa ld
Ġand re
ark ana
Ġstor ing
: .
Ġar gent
Ġgeneral the
Ġm ud
Ġcur ry
Ġreadjudic ated
Ġsh r
record ed
Ġlong standing
Ġg y
04 275
sul ts
her nal
Ġchair woman
Ġ12 41
Ġsuspect s
5 27
ro se
ie re
max imum
Ġpro ud
Ġdef erential
sup reme
Ġ13 61
Ġsal em
Ġc res
ph il
Ġsudden ly
Ġtherapeut ics
Ġcross ed
Ġp ud
Ġsub lessee
com plete
th reat
080 42
Ġopio id
Ġt ile
is ive
Ġ11 70
ter ly
Ġprov inc
Ġtun c
dec isions
fund ing
Ġconsider ably
Ġtempor al
cc ase
ref eren
5 29
Ġd ump
Ġcit igroup
Ġill umin
Ġill ogical
Ġstandard ized
Ġwal ton
Ġnu veen
Ġresort ing
dist ribution
william s
ros is
l os
Ġla ur
Ġupd ating
ch ain
Ġex ited
Ġy ucaipa
Ġse ize
Ġdict a
lt ry
Ġen unc
4 48
08 6
- $
Ġequ itably
Ġbra ke
Ġagg ress
08 9
Ġun qualified
Ġrep rinted
ee red
Ġmas ks
ic its
Ġnico le
con nect
Ġu bx
Ġsl ide
sc i
Ġcomp artment
es ity
Ġadapt ed
Ġmil estones
Ġalv arez
g p
Ġsovere ignty
Ġdishon or
Ġstephan ie
Ġbronch itis
Ġ510 6
Ġtime line
Ġar row
me yer
6 47
t ok
sole te
7 12
atisf actory
Ġparap hernal
Ġpear l
06 4
Ġiq bal
Ġp ills
Ġl ith
Ġs inc
em ail
Ġsy ria
Ġboy friend
Ġsqu ad
x uw
tex as
Ġjoy ce
Ġthe ore
Ġp si
Ġpollut ant
Ġt icker
Ġconserv ators
Ġdebr is
t is
x vh
Ġmet at
st airs
art isan
pen al
Ġperpet ual
entit led
lender s
9 05
ca ption
Ġnatural ization
vl rq
comp etitive
Ġcapt ured
Ġc isco
recogn izing
Ġc lement
indemn ified
Ġ10 30
6 27
Ġlanc aster
Ġcamer as
sum er
Ġout going
Ġbuil der
benef icial
Ġin e
nst ud
Ġlif ted
n inc
19 46
re ro
pt ic
Ġpar r
ger ies
Ġpatent ed
Ġdis k
Ġdur ham
9 80
Ġg amble
Ġup coming
Ġtreat s
Ġcomput ations
exam ined
Ġunmat ured
Ġfisher y
en o
Ġg rey
op ath
Æļ z
Ġcomp els
oc ial
cont ent
Ġber m
Ġper vasive
la ir
Ġle thal
Ġparticular ized
Ġadmiral ty
Ġus ury
Ġethan ol
ronic s
Ġpres cribing
n including
Ġmisle ad
Ġmar king
govern ing
Ġ" .
Ġport al
Ġf ec
l ot
Ġcomb ust
Ġcast ro
ep a
6 18
Ġcod ification
Ġgar nis
Ġsemic onduct
Ġ* .
su n
Ġbat on
techn ical
Ġsalv age
Ġsun set
Ġ13 01
Ġc ia
ach ment
ber man
mer ger
Ġunex plained
4 49
Ġwor ry
ul ge
Ġunp re
9 10
u ating
b ia
Ġn guyen
Ġparaphernal ia
Ġgreg g
Ġmer idian
Ġreprodu ction
ht x
ex per
Ġdocument ing
Ġz eal
6 24
Ġinstruction al
Ġall ies
nrequire ments
Ñ Ģ
Ġland fill
5 36
Ġcan on
8 000
Ġaff d
06 3
u ance
nc r
Ġenlarge ment
Ġwilder ness
the m
Ġmc mill
ĠĠĠĠĠĠĠĠĠĠĠĠĠĠĠĠĠĠĠĠĠĠĠĠĠĠĠĠĠĠĠĠĠĠĠĠĠĠĠĠĠĠĠĠĠĠĠĠĠĠĠĠĠĠĠĠĠĠĠĠĠĠĠĠĠĠĠĠĠĠĠĠĠĠĠĠĠĠĠĠĠĠĠĠĠĠĠĠĠĠĠĠĠĠĠĠĠĠĠĠĠĠĠĠĠĠĠĠĠĠĠĠĠĠĠĠĠĠĠĠĠĠĠĠĠĠĠĠ ĠĠĠĠĠĠĠĠĠĠĠ
Ġinc omp
nmar ket
Ġapp s
Ġcontin ually
Ġmer ck
c ad
me aning
Ġi an
Ġillness es
Ġdeep ly
Ġange la
Ġâ Ĥ¬
Ġensu ed
Ġa us
Ġforth coming
st ore
Ġst ick
Ġtremend ous
greg ate
Ġcil ins
ong o
Ġgain es
Ġstress ed
Ġannoun ce
rx uw
Ġseat s
odlp v
Ġo tt
direct ly
Ġcooper ating
+ (
lv p
Ġconscious ness
al one
f il
Ġdef eas
be an
Ġ19 10
Ġ101 9
Ġlau der
Ġalexand ria
98 3
b age
Ġsw ed
Ġgar ner
Ġl und
or andum
Ġtuber culosis
Ġk ol
fund s
as suming
Ġauthor itative
Ġconsolid ating
Ġexhaust ive
Ġairport s
al m
Ġper imeter
out standing
Ġn unc
Ġe ck
Ġco v
8 17
q b
Ġsol ve
rit t
Ġte en
Ġmir ror
m cc
o is
Ġ________________________ _
Ġchrist mas
Ġwich ita
tra ck
25 00
Ġa ra
Ġinter act
Ġ13 26
Ġpull ing
ict ed
nch air
Ġexcer pts
Ġult ra
Ġdau bert
Ġmot ives
6 26
Ġc es
be y
89 3
Ġ49 75
ot w
n represent
Ġsurviv ors
n questions
Ġm oin
Ġshort age
Ġdisorient ation
Ġg w
chan nel
Ġprevail s
Ġp estic
che m
hodwhg grfxphqw
Ġh orton
Ġimplied ly
n ant
stand ings
Ġunamb iguously
Ġinadvert ent
Ġdow ns
Ġconstruct ively
n ge
r f
er able
Ġal bu
Ġtarge ting
Ġdial ogue
y c
ir up
88 5
Ġbe g
om ical
n address
Ġsm st
man ager
Ġpat ton
wl hv
spec ifically
] "
en na
Ġcru ise
Ġfamiliar ity
7 27
htt p
Ġy vette
07 3
Ġvers a
Ġcomfort able
Ġmeaning less
5 71
Ġlo op
Ġelev ation
Ġopp ressive
Ġur ging
Ġguard ing
advis or
Ġro uting
ss ol
Ġfel ix
k owski
Ġno va
Ġconfess ed
Ġste re
ul u
Ġret iree
Ġalter cation
Ġrepair ing
et a
Ġsol omon
=" /
in ternational
de b
Ġenh ancing
mill ion
Ġme e
Ġsew age
Ġp ensions
j ad
j ames
Ġy r
sh ire
Ġr aleigh
5 18
Ġdef icits
Ġbe ard
Ġun identified
p ing
Ġaccus ation
Ġob solete
ogen ic
ack s
og g
Ġherein above
our cing
5 19
Ġund ist
Ġad oles
Ġrefer rals
Ġcontrib utes
dc pa
k an
Ġsimult aneous
tt a
Ġin app
19 42
a verage
Ġconcent rations
Ġstrengthe ning
Ġmo on
Ġn ra
Ġram sey
uls ki
Ġr as
Ġlia ison
su ng
Ġf sa
Ġstur m
s ar
to x
ount ain
88 4
Ġflo ors
ne very
Ġt bi
ro soft
Ġp endent
Ġsur charge
Ġlands cape
7 28
Ġbrother hood
Ġt sg
Ġ" '
lf k
Ġ101 4
she et
Ġrestrict s
Ġw orn
th us
Ġ13 34
Ġchar ity
Ġdown stream
advis ory
/ $
m all
n rec
serv ed
Ġn ice
Ġcap s
Ġimpract icable
on to
te c
Ġd ba
Â¿ Â´
w ash
98 4
Ġreit er
6 35
es es
Ġspec ulate
Ġwil kinson
n ms
r if
z j
, *
Ġremin ded
Ġt et
c ite
Ġwere n
ud q
Ġcontrib utor
Ġla pt
Ġent ert
cor r
Ġm j
d raw
Ġrein vest
Ġfe in
Ġpro ds
Ġinc lined
Ġdiagn ose
report s
r at
Ġpresent ations
08 8
um a
Ġob esity
Ġte va
ompet itive
^ ^
n get
Ġl ak
Ġmc r
6 29
u eness
Ġj v
Ġdis location
Ġsu ntrust
Ġst okes
val id
Ġrecru iting
os ystem
Ġaw x
Ġrepos itory
Ġassoc s
Ġpou ltry
am en
Ġfr ances
19 45
Ġab oard
Ġrom ero
r wlrq
ll igence
Ġclin ically
ig a
Ġcontraven e
ad mitted
Ġimpro pri
Ġtimes hare
as set
ut ah
Ġreimbur sable
Ġles sees
char ges
est yle
pos sible
Ġreall ocation
la us
lud e
Ġisra eli
Ġproport ions
Ġw en
ag ents
Ġnum eric
Ġlas alle
Ġbaile e
ate c
Ġ101 2
caption ed
ĠÂ ¿
Ġint ense
st ra
Ġadopt ive
Ġfat ca
Ġorgan ize
nre search
pro ced
Ġh ou
j td
Ġoffic ially
Ġhe ll
Ġback log
Ġ10 28
Ġtime frame
Ġmes a
Ġalleg heny
.'' \
ell ing
anticip ated
Ġ10 20
Ġshir ley
4 71
d t
in jury
[.] "
Ġa ub
Ġtr u
Ġres ili
Ġseem ingly
r ata
sum ption
nc laim
on is
Ġdiscip lined
Ġcar ib
Ġpo le
Ġpost operative
find ings
chan ges
6 44
Ġan ten
Ġtri ple
w orld
Ġfr amed
ar ized
Ġ13 96
Ġunf it
rep rene
06 7
"> \
Ġintr insic
9 75
Ġreal istic
Ġ101 7
Ġdermat itis
Ġinapp osite
Ġ13 43
Ġsh ad
Ġcaution ed
Ġc ain
04 3
sc ale
Ġenorm ous
Ġout line
Ġbond ed
Ġrec usal
Ġgab riel
Ġ[**** *]
ru ed
88 3
et ies
Ġwa ve
Ġendow ment
Ġeff usion
Ġnondisc riminatory
Ġc do
Ġb ert
ag ara
li o
ww r
dom en
Ġproportion ately
Ġth orn
Ġremote ly
c u
Ġmed al
Ï ²
us doj
Ġredeem able
Ġappr ised
Ġro uge
ian g
ist ant
Ġclass ic
n ent
nt oday
Ġdevis ed
d rug
Ġh ines
Ġ11 82
Ġzo om
Ġcla w
m os
Ġoverr iding
od q
Ġant ib
4 78
4 72
Ġbe e
Ġ15 00
Ġwil ful
Ġt orn
en ergy
9 45
le ton
Ġstal king
Ġcolon ial
Ġexc usable
Ġs ore
Ġin hib
Ġvan der
Ġporn ve
Ġexca vation
Ġsub landlord
Ġ11 26
Ġg sa
er man
Ġwork load
Ġrapid s
se lect
design ated
Ġer nst
Ġprogram me
Ġo lsen
Ġr ationally
Ġregister ing
n z
Ġ7 107
tax es
Ġb our
Ġw ax
Ġl ars
9 60
Ġdra g
d ir
98 2
ni op
Ġaffirm s
Ġjust ifies
in ine
Ġta iwan
d les
Ġm im
nfin ancial
Ġthreat ens
6 36
Ġkore an
es a
Ġv aries
Ġpar an
np rev
Ġenunc iated
uh g
Ġmc daniel
Ġ101 5
Ġreprim and
Ġso y
Ġteleph oned
19 38
x iii
Ġ13 11
c z
Ġoverturn ed
Ġinsu b
Ġtar o
Ġh ov
Ġbra kes
7 48
Ġhe aled
Ġy y
Ġnumer ical
Ġder ives
m ain
d iss
Ġharv ard
Ġincred ible
Ġstabil ization
Ġapp rendi
Ġhas t
Ġâ ĪĴ
nm y
09 1
8 80
i q
h j
x l
.] "
Ġbr am
: -
oc al
Ġoutweigh s
Ġmoin es
Ġjudg ed
Ġmovant s
Ġsu lf
Ġl illy
Ġpb m
Ġanim us
Ġgrav ity
Ġer ick
Ġbel g
Ġ5 101
Ġinadvert ently
Ġc pa
Ġl amp
Ġor ly
Ġh ang
Ġresid ences
Ġmue ller
Ġbapt ist
Ġfin ra
Ġgr p
conspir ators
e at
Ġgr ab
Ġexperi ment
et ics
Ġjack et
88 6
Ġhispan ic
7 17
Ġelect oral
Ġinv ite
o il
Ġ11 03
Ġg ue
Ġ13 30
Ġpromot ions
Ġclar a
re x
or i
Ġtow ers
Ġvig orously
nch ild
exerc ise
Ġre actions
Ġ11 04
Ġworth y
Ġretrie ve
supplement al
se vere
Ġhart man
te ll
Ġex ch
Ġab raham
Ġc ater
Ġan est
Ġirregular ities
Ġber k
Ġ12 45
Ġden ise
Ġdiss ents
bod ily
Ġpl as
Ġread just
Ġbehav iors
8 33
9 49
> >
** *]
Ġobsc ure
Ġt we
Ġ10 33
Ġgre im
ro driguez
4 31
8 15
ed e
ch rist
5 99
Ġv iz
Ġtheod ore
Ŀ ĳ
Ġth inks
Ġor r
Ġab domen
about s
f wlrq
inter pret
div ision
Ġs ong
Ġdis m
Ġpostpon ed
Ġfif teenth
Ġmid night
it imate
Ġwil kins
Ġo z
Ġy n
Ġsurpr ising
5 28
Ġarth ro
Ġcult iv
Ġapp rehension
Ġscar ring
reject ing
pro duction
Ġir ving
deli very
4 79
Ġsc al
Ġform ul
np resident
adequ ate
Ġholly wood
Ġ13 91
Ġzimmer man
ff e
Ġbrack ets
Ġsw itzer
Ġn am
Ġham mer
olit ical
s ess
Ġcont iguous
Ġf ca
Ġdes criptive
Ġr av
v corr
Ġbut ter
Ġcal ib
Ġterror ists
Ġp ains
Ġantic ompetitive
% ;
Ġlib r
on i
Ġpronoun cements
Ġty son
Ġdetain er
Ġni agara
al k
07 4
l isted
Ġadjust ing
Ġb rett
Ġscient er
Ġhens ley
n order
Ġge o
Ġembra ced
n such
Ġl id
Ġ27 86
Ġsib lings
ns p
Ġfr ustration
Ġdisc ard
Ġad hes
Ġtele graph
Ġcustod ians
Ġinvent or
p q
cum st
Ġseason al
Ġyear ly
Ġfeld man
Ġincapacit ated
Ġas u
Ġy o
Ï °
Ġa ca
appro val
Ġexpir y
Ġpres cribes
8 58
Ġg ree
Ġshield s
Ġa is
Ġmid land
Ġl ax
Ġexplos ives
7 34
* \
00 199
Ġlan ham
cs r
Ġle ban
9 29
Ġrel it
Ġ101 3
Ġreflex es
r ps
u um
ct r
Ġbet ty
g f
Ġt ainted
6 23
ir k
07 433
Ġnecess itated
Ġsubt ract
08 1
Ġer os
Ġcon ner
Ġwrit er
+ /
b ig
Ġve ins
nd istrict
ld g
wl q
Ġl one
Ġphotograph ic
Ġst earns
Ġo dd
Ġsa unders
Ġdon ations
Ġr sa
Ġn rs
Ġundermin ed
Ġpar ity
part nership
ill es
Ġ ).
Ġco at
Ġ________________ _
ape ake
Ġpil ots
Ġoak s
Ġrug er
Ġembass y
Ġsub total
Ġ17 01
de velopment
w p
Ġ( #
ã Ģ
09 2
Ġk as
ess a
feas ance
w ald
Ġaccus ations
Ġshort ness
Ġobjection able
r ice
Ġsurvey or
Ġob ama
Ġsp rain
in ch
Ġs ends
Ġ11 15
Ġn n
Ġas leep
Ġcol lapse
day s
Ġdis figure
Ġde e
Ġz en
are l
Ġvacc ines
preced ential
Ġar bit
Ġdelay ing
Ġblack rock
Ġp all
Ġdraw s
pro c
nres ources
Ġy ar
Ġinflamm atory
des cribed
Ġhod ges
Ġi Ã°
Ġearth qu
Ġc bs
ah assee
Ġali ke
Ġcomm end
88 1
sim ilar
9 40
Ġâĸ ł
Ġr ag
Ġoffset ting
Ġreluct ant
Ġb ny
Ġwal d
Ġ101 6
om it
Ġz ie
u ously
g ency
od lq
cons istent
ncon f
' )
Ġh atch
6 28
Ġk um
Ġtransp arent
ace y
Ġpay ables
Ġsten osis
Ġtelecop ier
Ġpersu asion
Ġank les
Ġ____________________ __
gr q
Ġgu am
ur rency
Ġbr c
Ġdiscontin uance
k p
Ġf its
Ġic c
Ġc n
Ġcol vin
Ġforb id
ak h
Ġburn ed
Ġz ach
---- -
Ġsurv ived
ĠÃ Ĺ
Ġmeant ime
Ġw ong
Ġbart lett
5 76
Ġ10 24
Ġpr att
Ġtrail ers
Ġdill on
9 07
Ġsur rog
f rey
Ġdraw er
5 39
Ġk w
Ġtrans itional
Ġpos itively
4 74
Ġ250 5
Ġ19 00
corre cted
Ġmart ha
Ġcaro lyn
Ġ____ ___
t cb
Ġfil ms
Ġvol t
Ġ101 8
Ġsi oux
Ġmar qu
Ġcar pet
Ġintim ates
t aken
Ġcle mons
Ġat las
Ġexpress es
Ġdefeas ance
Ġsp atial
Ġu ber
Ġanticip ates
Ġ12 50
Ġwheel chair
Ġmc gee
Ġbi ased
dis patch
Ġpus hing
Ġsub class
Ġhous ed
abb ing
Ġinev itable
comm erce
Ġ11 05
Ġ13 41
Ġsm o
nwas hington
hel ps
Ġequal ity
Ġindisp ensable
9 54
Ġcrimin ally
dis p
Ġ____________ _
Ġpl ot
Ġr c
Ġbent on
Ġun to
Ġdis gor
Ġgen ital
na ff
Ġà¸ ĩ
Ġcabin et
endo za
Ġ ers
Ġa ks
Ġin ext
Ġst ab
all ed
Ġw u
Ġtransfer ability
Ġbed s
Ġr app
Ġsick ness
Ġnavig able
Ġunjust ified
b aker
Ġhar der
Ġrent able
Ġtent ative
b rown
Ġbr us
r one
Ġsub limit
cit iz
Ġ215 1
he astern
Ġw ins
Ġp our
s il
Ġsumm ers
Ġlad y
6 54
n plan
Ġin ner
ll p
Ġair plane
Ġgar rison
8 13
0 77
Ġw ires
88 2
Ġsc rap
Ġ____________________________ _
ws ki
Ġ10 23
Ġextra ction
Ġth y
Ġis che
ec d
Ġscen arios
attach ments
Ġamput ation
Ġcongen ital
Ġv oy
4 77
6 76
reg ister
Ġmc gr
Ġtib ia
Ġplead s
Ġpatron s
Ġdy st
ct ic
Ġcele br
7 46
8 18
% *
oc a
Ġadd res
Ġwar m
min ute
= ?
"/ ></
7 24
bri ef
Ġche ro
Ġhol es
ac les
Ġok l
Ġ13 56
Ġpe pper
Ġcongest ion
ntest imony
Ġf aster
Ġgen ger
Ġembed ded
Ġcategor ical
Ġa il
priv ile
der m
Ġbr an
Ġdepri ving
19 33
nst at
x iv
Ġroll s
9 73
Ġaccred itation
Ġsw im
red ict
Ġaug ment
Ġsen ators
b n
Ġpsych otic
g is
. ~
Ġdo i
Ġ11 02
Ġdec imal
Ġestablish ments
Ġtoler ance
Ġj s
ifi ers
Ġg ust
any on
Ġcorre lation
Ġlandlord s
Ġlans ing
Ġcub a
Ġinhabit ants
man aged
Ġconfess ions
Ġcolomb ia
Ġlif estyle
Ġtall ahassee
9 30
Ġmonop ol
rom b
wid th
il ated
Ġencoura ges
Ġna use
7 16
Ġext ortion
an ium
Ġn da
accord ingly
Ġunder gone
Ġrevoc able
ve h
Ġus ps
an ia
Ġwein stein
Ġkil ograms
Ġst ef
Ġnon suit
con cer
Ġparan oid
.) \
nm ake
Ġu g
7 11
Ġhe el
Ġmod ifies
Ġt ant
ap a
Ġo sha
. âĢĸ
i ens
Ġcorrid or
ncom mission
Ġh onda
Ġdenomin ations
Ġfru its
Ġsu z
Ġproposition s
9 43
ent ing
Ġ10 25
Ġnational s
Ġj av
Ġsurpr ised
Ġmal es
on omy
19 31
Ġvag ueness
Ġdisfigure ment
v ict
rom al
quer que
5 77
Ġnor ms
sw ick
ns r
Ġimper ative
clin ical
ym ptom
Ġtowns end
s man
Ġbl ame
Ġgener ator
Ġ120 2
s app
ip ment
9 15
Ġs z
ic ers
con ting
commission er
nch allen
4 73
Ġtin to
re ference
Ġhe ather
Ġbo ot
otechn ology
l ain
Ġend o
Ġwes ley
f oc
nin to
Ġse g
n additional
Ġm ents
to o
Ġnecess it
Ġcomp ounded
Ġhob bs
6 77
lu ent
Ġwaters hed
Ġlabore rs
j rg
Ġl ng
a mental
Ġbe ating
6 56
Ġf mc
89 4
Ġs is
Ġmistaken ly
Ġt rent
Ġl ance
Ġnix on
Ġt va
Ġd ressed
Ġtermin ology
Ġw iley
im er
Ġrein for
Ġbr as
Ġne phe
Ġoblig ate
89 1
Ġdeb ra
d cf
Ġcollabor ative
il ization
Ġdisc on
Ġro an
6 31
el ed
ab led
in til
7 36
Ġhandcuff ed
w agen
Ġsub let
Ġ/ //
so h
re ated
Ġreprodu ced
Ġv ine
Ġline ar
Ġelabor ate
Ġdor sey
ne utral
9 16
Ġlas er
Ġparame ter
osp ital
Ġse ab
Ġcr ut
d h
Ġc aring
Ġservic ed
s and
end ez
Ġmcgu ire
ot ine
Ġdep o
Ġtroub led
Ġvig il
claim ant
9 38
nt ax
sex ual
Ġconcer ted
Ġint ensity
Ġlev ine
Ġfixt ure
f ect
19 39
ric ular
id iv
Ġfinger print
Ġdin ner
Ġcredential s
ine l
Ġharass ing
Ġpor ch
Ġrhe um
ight ing
ipp ing
ri ver
ish able
Ġdistin ctions
d oug
Ġz ur
Ġaud ience
Ġap i
Ġexped ite
Ġwat ched
6 48
Ġl ing
nd a
9 09
Ġr iv
Ġun pro
hf w
Ġass uring
Ġ13 00
por ary
pl ans
Ġsl ander
Ġfract ures
f da
ncomm unity
r aining
7 33
Ġ20 24
Ġauthentic ity
Ġpse ud
Ġmo vie
nc ar
ucc i
ud ed
Ġcurt ail
bo e
just ice
Ġware hous
6 34
ch ard
Ġ16 81
0 99
n go
Ġrecord keeping
ref und
Ġf lying
Ġconn olly
dep o
loss es
Ġlun gs
ion ally
13 134
mi ke
Ġmc gin
Ġident ifier
Ġ0 40
Ġst air
Ġ10 22
Ġrap ed
s pace
Ġjo a
ncount ry
Ġpet ty
qr w
hard t
w it
Ġalloc ating
6 38
Ġdisappro ve
rig o
at ri
Ġ10 60
Ġcontamin ants
Â ¥
Ġind ices
Ġprop ensity
Ġjud ith
su h
Ġorgan izing
tt i
Ġjerem y
Ġ16 77
Ġinext ricably
6 49
ru h
Ġfelon ious
Ġcher yl
19 44
n section
Ġj d
Ġt ong
Ġt inea
Ġg ins
Ġevol ution
ath on
Ġoverla pping
Ġlow ered
record s
Ġcor ners
Ġdep letion
Ġout right
Ġreferen cing
g reat
spon sored
Ġel k
Ġ10 43
Ġen gel
Ġinformation al
l ene
oc ard
Ġthir teenth
Ġsecret aries
pac ific
es co
altern ative
Ġæ ľ
n hearing
art ered
____________ __
Ġuk raine
Ġcam bridge
Ġsj v
5 74
s ales
95 80
9 02
ch allen
th an
Ġfluct uate
Ġann uities
Ġl m
Ġphot oc
Ġdis app
98 1
Ġcall er
greg ation
Ġintern ationally
Ġimport ing
Ġ13 18
Ġma z
Ġdi em
Ġtour ism
Ġless ons
6 37
Ġent rap
ĠĠĠĠĠĠĠĠĠĠĠĠĠĠĠĠĠĠĠĠĠĠĠĠĠĠĠĠĠĠĠĠĠĠĠĠĠĠĠĠĠĠĠĠĠĠĠĠĠĠĠĠĠĠĠĠĠĠĠĠĠĠĠĠĠĠĠĠĠĠĠĠĠĠĠĠĠĠĠĠĠĠĠĠĠĠĠĠĠĠĠĠĠĠĠĠĠĠĠĠĠĠĠĠĠĠĠĠĠĠĠĠĠĠĠĠĠĠĠĠĠĠĠĠĠĠĠĠ ĠĠĠĠĠĠĠĠĠĠĠĠ
bri ety
Ġles ter
Ġvar ic
Ġev asion
rit e
Ġapprent ices
8 29
us o
Ġbu ffer
intention al
Ġe in
wk lv
Ġsemiann ual
Ġ______ \
6 58
Ġplaus ibly
b inding
Ġpreced ence
7 44
bo y
pm g
Ġunquestion ably
; </
Ġcr us
h arm
Ġunex erc
Ġan om
Ġn un
Ġpi ke
Ġdemol ition
Ġun issued
Ġdevelop s
89 2
Ġn ig
wh a
Ġhandic apped
defer red
fac ility
Ġrepla ces
nmember s
Ġdr um
Ġmo le
Ġb ache
ind e
Ġc nc
Ġdon ovan
author ity
mart ial
Ġp sc
0000 00
Ġv ib
Ġann ul
exp ressed
5 31
Ġdal ton
Ġk s
Ġpros cribed
min or
Ġscholars hip
nopport unity
n person
Ġrel ocate
se par
9 13
Ġout standings
Ġtrans gender
Ġpe ers
9 88
Ġwith stand
Ġ13 10
Ġs ion
cor on
os hi
Ġrub in
Ġrobb ed
Ġdign ity
Ġl ant
Ġmas sey
Ġu pl
Ġa edpa
ol k
au ge
net te
Ġprospect ively
yl ene
Ġcatal og
Ġp ach
is her
Ġ10 89
Ġins ane
Ġnondisc losure
Ġlind sey
Ġpeace ful
es y
Ġ10 29
art on
Ġc q
Ġo ber
8 12
ssol fdwlrq
stand ards
Ġtx sb
product s
lq wkh
Ġgrad uated
Ġsl ot
8 78
Ġbre w
Ġvolunt eers
Ġsynd icate
Ġ13 33
Ġref lux
disc retion
Ġaccess ing
ugh u
Ġab und
Ġqu i
Ġb ord
ack er
know ingly
Ġdu ct
n ins
Ġmon ument
Ġprof ound
Ġbo one
________ ___
Ġjer ome
98 7
9 55
Ï µ
Ġinterpret ive
doll ars
Ġport ray
] )
Ġe isen
Ġrep lic
Ġg ly
9 23
v or
ok la
Ġign oring
Ġcaption ed
ident ification
$ %
Ġmel vin
Ġkauf man
^ \
Ġun earned
Ġvict ory
Ġped iatric
Ġdr s
Ġf p
ign a
Ġ20 25
os ph
Ġproblem atic
Ġnum eral
Ġprote in
Ġn em
Ġaggreg ation
Ġa es
Ġd ad
blo od
9 14
exp ense
inte l
Ġunavail ing
Ġdisappro val
Ġb ing
Ġal der
09 7
Ġapprehend ed
Ġpro minent
Ġches apeake
gh w
Ñ ģ
om nia
Ġlist ening
Ġirregular ity
Ġpropriet or
Ġd g
Ġth rust
Ġun affiliated
id y
Ġbid en
Ġste al
Ġ19 11
Ġconvers ions
Ġtow ing
uh h
ns a
Ġ13 95
Ġ[* .
Ġh il
nameric an
Ġd art
Ġhar rington
oblig ations
Ġen vision
Ġport able
Ġknowledge able
Ġnon public
Ġsil icon
appropri ately
j f
ĠÂ ½
ee e
Ġher rell
Ġsand y
Ġcampaign s
per mit
Ġbip artisan
Ġd cf
nfund ing
Ġv ick
ĠĠĠĠĠĠĠĠĠĠĠĠĠĠĠĠĠĠĠĠĠĠĠĠĠĠĠĠĠĠĠĠĠĠĠĠĠĠĠĠĠĠĠĠĠĠĠĠĠĠĠĠĠĠĠĠĠĠĠĠĠĠĠĠĠĠĠĠĠĠĠĠĠĠĠĠĠĠĠĠĠĠĠĠĠĠĠĠĠĠĠĠĠĠĠĠĠĠĠĠĠĠĠĠĠĠĠĠĠĠĠĠĠĠĠĠĠĠĠĠĠĠĠĠĠĠĠĠ ĠĠĠĠĠĠĠĠĠĠ
9 17
Ġ ),
Ġmar vin
Ġ224 1
Ġ11 08
Ġfrustr ated
referen ced
de z
Ġ[*. *]
Ġcl ine
page id
Ġlam ar
n after
ack now
Ġs per
Ġcow ork
n id
Ġ10 42
ol lo
8 45
Ġ19 16
Ġwhere abouts
Ġind ucing
Ġgraph ic
we igh
& '
Ġcriminal s
l r
6 74
Ġhe y
Ġat kins
ano va
Ġpar sons
Ġjuven iles
8 35
Ġsar a
Ġfore arm
inf ring
0 78
Ġatmosp here
m ag
Ġtermin ations
Ġlock ing
Ġres orts
Ġde af
Ġjud y
Ġtor onto
âĢ ł
Ġve x
ic ult
et ric
c ab
Ġham m
prot ect
Ġaver aging
Ġnic otine
Ġdist ancing
Ġj m
sel ess
Ġb m
de v
Ġbrit t
Ġshed den
Ġdipl omatic
Ġar cher
5 72
Ġpolicy holder
ov o
Ġconve ys
âĢĵ âĢĵ
Ġbi os
Ġb ang
Ġv ha
por ter
Ġam bit
Ġchamp ion
Ġclin ics
eng ine
Ġs ow
Ġkir by
rib le
Ġ15 45
Ġed mond
mort gage
all ing
Ġy ates
man ufact
di vid
endant s
Ġinstall ing
Ġabst ain
5 73
Ġduff y
Ġex agger
st ain
Ġ13 62
Ġconject ure
9 24
Ġover look
Ġg ren
Ġsc ler
ser ious
u if
Ġag ed
ploy ees
Ġresol ves
br ide
Ġ10 50
Ġp iv
Ġjo an
Ġforfe itures
Ġannoun ces
Ġk g
Ġvo gel
Ġsur geries
Ġwire t
Ġnerv es
non ly
Ġschro eder
Ġblack s
Ġl w
umin ous
nhow ever
ec ker
comp ete
Ġver bally
appe aled
Ġevent ual
Ġprede termined
be a
Ġsn ap
Ġg ould
p oints
Ġwhit ney
Ġpr y
exp ress
) âĢĻ
Ġmay er
dow ns
Ġpoor ly
" '
09 6
Ġignor ance
Ġc anyon
9 56
f lu
Ġjoin s
Ġgold stein
Ġadoles cent
Ġroan oke
Ġbo yle
y w
Ġwill ie
Ġchrist ensen
Ġb ones
Ġsha h
volunt ary
Ġemp ower
Ġcoch ran
- (
Ġp ik
Ġ14 41
Ġdeb atable
sup ra
Ġt andem
Ġsign atories
x ual
Ġtam pering
Ġnond is
8 14
en eration
Ġauthor ised
Ġspecific s
Ġwil cox
le ted
Ġ10 35
Ġusc is
Ġdim ensions
Ġver acity
tr aded
19 34
Ġswitzer land
Ġchero kee
Ġentrap ment
Ġrec idiv
bel ie
ns ur
Ġalbu querque
l ive
Ġb ac
st art
Ġbl um
def ining
< =
Ġradio active
Ġpar ale
Ġam t
elig ibility
Ġsemiconduct or
nb ased
9 65
Ġ12 92
Ġman uel
Ġreckless ness
] ),
Ġle o
serv ing
Ġbar ge
Ġpsychiat ry
Ġcontradict s
h ul
Ġ________ _
7 23
ific ated
Ġpat ently
Ġhead ed
Ġbott les
Ġrec a
10 45
Ġdon ation
Ġrig orous
6 42
Ġirrit able
7 21
Ġf dcpa
Ġpro gen
Ġ --------
Ġso briety
ing house
d ad
Ġp helps
Ġpleas ant
im age
Ġlut her
8 24
Ġmon et
7 39
Ġlap sed
Ġnot ations
major ity
. âĨ©
Ġlat ent
Ġec osystem
nrecommend ations
n ap
Ġbi om
Ġt ens
Ġd it
Ġpress ed
Ġve to
Â¿ Â§
Â ¨
9 12
in to
Ġmil ton
% ),
Ġt b
ha ul
Ġamp ly
Ġgreen house
Ġvulner ability
Ġada ptive
6 32
Ġe ating
ij ing
Ġed win
bb b
ba ugh
Ġme yers
7 22
ntechn ology
Ġcan nab
sub s
Ġeros ion
Ġdisf avored
Ġpl um
requ ire
Ġuncert ificated
Ġ11 07
Ġere ction
f ix
f on
Ġdesign ing
Ġjud ice
ot y
Ġbr istol
Ġresearc hers
7 37
Ġd red
Ġ11 06
Ġb iv
Ġent reprene
Ġdist al
Ġtrans lated
nchair man
om es
ak i
ak s
ph in
Ġhur ting
ast ics
omet ry
nex per
account s
Ġcrow d
Ġassail ant
romal acia
Ġe gg
Ġc ds
Ġtc pa
vh v
09 4
8 39
h qg
nass oci
Ġpedest rian
Ġ10 32
nag ency
6 39
Ġapprec iated
Ġ13 22
Ġbank r
Ġalign ment
Ġfor rest
nbe ing
n right
Ġrehabilit ative
Ġunfortun ate
Ġunder insured
Ġmal oney
in eness
termin ate
& &
Ġp ee
k dw
Ġintr atec
Ġfl an
Ġexc ited
Ġasbest osis
Ġenviron ments
Ġclub s
nim prove
5 32
sw orth
Ġcpl r
Ġk rs
Ġf ayette
rast ate
Ġsurrog ate
Ġbro ch
Ġsa udi
Ġdisrupt ive
Ġtr inity
Ġfree ze
Ġh oy
8 21
Ġus able
Ġhit ting
mot ions
Ñ ĸ
ks wagen
Ġvag ina
Ġas ian
Ġinstru ctive
r ather
Ġmasc ul
Ġind entures
Ġtr ains
Ġplay s
Ġsub categ
Ġcol ony
Ġba um
Ġconstitu ents
Ġr q
Ġcry ing
Ġhonest ly
n air
Ġh ips
Ġstand still
Ġke en
Ġev il
est ar
ang le
appoint ment
Ġfurnis hes
Ġcast illo
nd oes
Ġtwel fth
5 78
01 754
Ġtyp ed
d iff
corp us
l ss
Ġ97 140
Ġinterfe res
Ġunconsc ious
de a
Ġprepared ness
Ġreposs ess
and ing
ident ify
Ġdram atic
Ġshoot er
Ġdepartment al
Ġclos est
Ġint rastate
atisf action
ÃŁ o
al ong
Ġn ag
Ġital ics
own ership
bat im
Ġalph abet
j oh
Ġl r
Ġrevol ution
6 79
led o
Ġenlar ged
Ġk et
Ġsod ium
Ġcommand ed
Ġreadjudic ation
Ġartic ul
9 89
en al
Ġ11 58
Ġninet een
Ġretire es
d k
Ġlay off
Ġdec om
8 54
Ġgrand children
Ġse th
Ġdepart ed
Ġles ions
Ġworth less
Ġbuck ley
Ġm fs
he et
@ =
Ġclass ify
7 99
09 3
Ġtermin als
Ġpromulg ation
Ġcont ex
Ġexplan atory
Ġumb rella
l ich
sche dule
Ġat e
ame ter
lim itation
7 19
Ġmagaz ines
l ps
+- +-
weight ed
Ġquarant ine
e gs
Ġ10 41
t reatment
cor ruption
Ġrosen berg
Ġri ot
Ġdes erve
Ġie p
Ġâľ Ķ
Ġin gram
Ġfinal ized
ter ans
ĠĠĠĠĠĠĠĠĠĠĠĠĠĠĠĠĠĠĠĠĠĠĠĠĠĠĠĠĠĠĠĠĠĠĠĠĠĠĠĠĠĠĠĠĠĠĠĠĠĠĠĠĠĠĠĠĠĠĠĠĠĠĠĠĠĠĠĠĠĠĠĠĠĠĠĠĠĠĠĠĠĠĠĠĠĠĠĠĠĠĠĠĠĠĠĠĠĠĠĠĠĠĠĠĠĠĠĠĠĠĠĠĠĠĠĠĠĠĠĠĠĠĠĠĠĠĠĠ ĠĠĠĠĠĠĠĠĠĠĠĠĠ
Ġacqu aint
Ġ____________ ___
Ġst o
iqu id
Ġle af
Ġde w
Ġst abbed
re search
d in
d un
Ġchond romalacia
Ġsp ar
ĠÂ ¼
Ġ27 92
Ġmcc all
acc redited
Ġpolicy holders
Ġpicket ing
Ġgenu ineness
Ð º
enn ium
( $
q y
ph ase
Ġ13 66
Ġpolit ics
Ġsant os
Ġprocl amation
i per
Ġaeros pace
r as
nm any
Ġspr int
Ġvag inal
Ġdor othy
uh gl
Ġremo ves
9 27
ass is
Ġende av
v ig
Ġsec ures
5 000
Ġhospital ity
Ġå ı
Ġestim ation
Ġill ustration
Ġca ret
Ġgall ons
c ases
Ġsal mon
Ġpar ad
Ġmo oney
Ġcorrect ing
Ġy ang
Ġinterrupt ed
9 46
oun ced
Ġdeleg ates
bo at
Ġç ļ
Ġanat omical
Ġ10 51
Ġcy c
Ġfer ry
bur ger
Ġconservators hip
5 79
os ity
Ġ12 51
eric a
6 59
nb udget
Ġamb ac
Ġcul min
Ġnause a
Ġbr ink
Ġes a
Ġb illy
Ġre y
Ġsummar izes
y gr
Ġalter ing
[...]
