{"[UNK]":0,"[CLS]":1,"[SEP]":2,"[PAD]":3,"[MASK]":4,"!":5,"\"":6,"#":7,"$":8,"%":9,"&":10,"'":11,"(":12,")":13,"*":14,"+":15,",":16,"-":17,".":18,"/":19,"0":20,"1":21,"2":22,"3":23,"4":24,"5":25,"6":26,"7":27,"8":28,"9":29,":":30,";":31,"<":32,"=":33,">":34,"?":35,"@":36,"[":37,"\\":38,"]":39,"^":40,"_":41,"`":42,"a":43,"b":44,"c":45,"d":46,"e":47,"f":48,"g":49,"h":50,"i":51,"j":52,"k":53,"l":54,"m":55,"n":56,"o":57,"p":58,"q":59,"r":60,"s":61,"t":62,"u":63,"v":64,"w":65,"x":66,"y":67,"z":68,"{":69,"|":70,"}":71,"~":72,"¡":73,"¢":74,"£":75,"¤":76,"¥":77,"¦":78,"§":79,"¨":80,"©":81,"ª":82,"«":83,"¬":84,"®":85,"¯":86,"°":87,"±":88,"²":89,"³":90,"´":91,"µ":92,"¶":93,"·":94,"¸":95,"¹":96,"º":97,"»":98,"¼":99,"½":100,"¾":101,"¿":102,"Â":103,"Ã":104,"Ä":105,"Å":106,"Æ":107,"Ç":108,"È":109,"É":110,"Ê":111,"Ë":112,"Í":113,"Î":114,"Ï":115,"Ð":116,"Ñ":117,"Ò":118,"Ó":119,"Ô":120,"Õ":121,"Ö":122,"×":123,"Ø":124,"Ù":125,"Ú":126,"Û":127,"Ü":128,"Ý":129,"Þ":130,"ß":131,"à":132,"á":133,"â":134,"ã":135,"ä":136,"å":137,"æ":138,"ç":139,"è":140,"é":141,"ê":142,"ï":143,"ð":144,"ó":145,"Ġ":146,"Ģ":147,"ģ":148,"Ĥ":149,"ĥ":150,"Ħ":151,"ħ":152,"Ĩ":153,"ĩ":154,"Ī":155,"ī":156,"Ĭ":157,"ĭ":158,"Į":159,"į":160,"İ":161,"ı":162,"Ĳ":163,"ĳ":164,"Ĵ":165,"ĵ":166,"Ķ":167,"ķ":168,"ĸ":169,"Ĺ":170,"ĺ":171,"Ļ":172,"ļ":173,"Ľ":174,"ľ":175,"Ŀ":176,"ŀ":177,"Ł":178,"ł":179,"Ń":180,"ĠĠ":181,"ĠĠĠĠ":182,"Ġt":183,"Ġa":184,"ĠĠĠĠĠĠĠĠ":185,"he":186,"in":187,"Ġo":188,"re":189,"Ġthe":190,"on":191,"er":192,"Ġc":193,"Ġs":194,"en":195,"at":196,"Ġp":197,"ed":198,"it":199,"is":200,"Ġof":201,"or":202,"ĠĠĠĠĠĠĠĠĠĠĠĠĠĠĠĠ":203,"an":204,"ion":205,"Ġd":206,"Ġan":207,"Ġf":208,"Ġb":209,"Ġin":210,"Ġw":211,"es":212,"--":213,"al":214,"ent":215,"Ġto":216,"ing":217,"ar":218,"Ġre":219,"Ġm":220,"ic":221,"Ġand":222,"Ġth":223,"ct":224,"ro":225,"Ġn":226,"Ġe":227,"as":228,"ou":229,"le":230,"----":231,"Ġh":232,"Ġ1":233,"ment":234,"Ġor":235,"Ġl":236,"st":237,"il":238,"ation":239,"ve":240,"Ġ(":241,"ot":242,"id":243,"ce":244,"Ġthat":245,"Ġbe":246,"ĠĠĠĠĠĠĠĠĠĠĠĠĠĠĠĠĠĠĠĠĠĠĠĠĠĠĠĠĠĠĠĠ":247,"..":248,"Ġu":249,"om":250,"Ġde":251,"ur":252,"Ġcon":253,"Ġsu":254,"Ġ2":255,"im":256,"Ġfor":257,"se":258,"ly":259,"âĢ":260,"Ġas":261,"ch":262,"ĠĠĠ":263,"ate":264,"Ġis":265,"Ġpro":266,"Ġse":267,"ut":268,"Ġst":269,"if":270,"pp":271,"ant":272,"ol":273,"Ġg":274,"Ġnot":275,"ter":276,"Ġon":277,"her":278,"ig":279,"Ġex":280,"Ġv":281,"--------":282,"Ġcom":283,"ith":284,"00":285,"ab":286,"der":287,"ay":288,"Ġby":289,"Ġun":290,"Ġwith":291,"ction":292,"ain":293,"ll":294,"Ġcou":295,"Ġr":296,"qu":297,"Ġany":298,"Ġsh":299,"ir":300,"Ġapp":301,"ge":302,"Ġj":303,"Ġhe":304,"Ġit":305,"red":306,"ri":307,"ver":308,"Ġat":309,"est":310,"....":311,"__":312,"su":313,"ow":314,"Ġ3":315,"ity":316,"end":317,"Ġdis":318,"ad":319,"ess":320,"Ġag":321,"ther":322,"Ġthis":323,"ive":324,"Ġwh":325,"res":326,"am":327,"ect":328,"Ġwas":329,"art":330,"nt":331,"ud":332,"ies":333,"Ġper":334,"rt":335,"all":336,"Ġcomp":337,"oc":338,"Ġwe":339,"et":340,"vid":341,"ul":342,"un":343,"Ġad":344,"la":345,"os":346,"Ġsuch":347,"us":348,"ort":349,"ld":350,"Ġcourt":351,"ated":352,"ice":353,"ĠĠĠĠĠĠĠĠĠĠĠĠ":354,"Ġ4":355,"ial":356,"ra":357,"ase":358,"ff":359,"pt":360,"Ġy":361,"able":362,"em":363,"Ġcont":364,"Ġinc":365,"01":366,"ist":367,"and":368,"ard":369,"----------------":370,"od":371,"Ġpart":372,"cc":373,"'s":374,"Ġdef":375,"ust":376,"âĢĻ":377,"Ġother":378,"ary":379,"Ġ5":380,"ill":381,"ich":382,"rom":383,"Ġch":384,"ition":385,"ree":386,"Ġshall":387,"per":388,"th":389,"ance":390,"iv":391,"Ġsub":392,"Ġha":393,"Ġfa":394,"Ġunder":395,"Ġfrom":396,"Ġne":397,"Ġle":398,"Ġ\\":399,"Ġal":400,"Ġno":401,"Ġ19":402,"Ġtr":403,"lo":404,"Ġam":405,"ĠÂ":406,"age":407,"ĠâĢ":408,"Ġare":409,"ore":410,"Ġpl":411,"ht":412,"ber":413,"Ġres":414,"ans":415,"ence":416,"Ġall":417,"Ġwhich":418,"ĠĠĠĠĠ":419,"ments":420,"ĠĠĠĠĠĠĠĠĠĠĠĠĠĠĠĠĠĠĠĠĠĠĠĠĠĠĠĠĠĠĠĠĠĠĠĠĠĠĠĠĠĠĠĠĠĠĠĠĠĠĠĠĠĠĠĠĠĠĠĠĠĠĠĠ":421,"ip":422,"te":423,"ict":424,"ations":425,"Ġhave":426,"ire":427,"âĢĿ":428,"min":429,"........":430,").":431,"erv":432,"Ġappe":433,"ord":434,"Ġwhe":435,"____":436,"Ġstate":437,"Ġthere":438,"Ġcla":439,"um":440,"Ġcomm":441,"Ġ6":442,"ĠĠĠĠĠĠĠ":443,"ie":444,"Ġrequ":445,"ight":446,"for":447,"Ġrep":448,"Ġsec":449,"ec":450,"ĠâĢľ":451,"ers":452,"Ġhis":453,"Ġagree":454,"ĠĠĠĠĠĠ":455,"Ġi":456,"Ġpur":457,"aint":458,"Ġclaim":459,"Ġmay":460,"ne":461,"Ġco":462,"Ġk":463,"Ġ7":464,"20":465,"Ġrec":466,"Ġacc":467,"pon":468,"ould":469,"ac":470,"ied":471,"Ġind":472,"Ġhas":473,"any":474,"Ġits":475,"ag":476,"Ġcase":477,"Ġ\"":478,"Ġserv":479,"ru":480,"lic":481,"son":482,"Ġpre":483,"Ġsection":484,"Ġoff":485,"Ġact":486,"Ġif":487,"Ġ8":488,"ak":489,"Ġ9":490,"ign":491,"Ġve":492,"ount":493,"lud":494,"ions":495,"iff":496,"ure":497,"19":498,"Ġfin":499,"Ġstat":500,"ue":501,"Ġass":502,"Ġyou":503,"ime":504,"ib":505,"Ġme":506,"eral":507,"aw":508,"Ġagreement":509,"Ġreg":510,"ility":511,"endant":512,"Ġab":513,"Ġob":514,"Ġem":515,"Ġcompany":516,"Ġca":517,"form":518,"Ġsp":519,"du":520,"Ġprovid":521,"Ġwill":522,"Ġim":523,"ach":524,"iz":525,"Ġdefendant":526,"use":527,"Ġdo":528,"Ġar":529,"ical":530,"Ġ201":531,"Ġent":532,"ens":533,"Ġ200":534,"),":535,"Ġlaw":536,"Ġexp":537,"Ġter":538,"Ġevid":539,"Ġ0":540,"ited":541,"Ġcons":542,"Ġ10":543,"ĠĠĠĠĠĠĠĠĠ":544,"ities":545,"Ġpay":546,"oll":547,"Ġtime":548,"Ġfil":549,"Ġissu":550,"ted":551,"Ġen":552,"Ġ$":553,"anc":554,"ee":555,"Ġdoc":556,"loy":557,"--------------------------------":558,"und":559,"Ġrel":560,"Ġdate":561,"iss":562,"ploy":563,"ty":564,"Ġevidence":565,".,":566,"Ġhere":567,"ĠÂ§":568,"ual":569,"Ġdist":570,"Ġ11":571,"Ġdec":572,"Ġbo":573,"Ġright":574,"Ġveter":575,"Ġhad":576,"ĠĠĠĠĠĠĠĠĠĠ":577,"Ġbeen":578,"ating":579,"out":580,"Ġinv":581,"Ġjud":582,"aintiff":583,"Ġgo":584,"rant":585,"ffect":586,"Ġadd":587,"ert":588,"Ġplaintiff":589,"Ġwould":590,"ason":591,"Ġemploy":592,"vis":593,"pos":594,"Ġli":595,"Ġmat":596,"are":597,"Ġso":598,"ific":599,"Ġsee":600,"ative":601,"resent":602,"Ġperson":603,"fter":604,"Ġqu":605,"pect":606,"ome":607,"ous":608,"Ġpr":609,"Ġint":610,"Ġcl":611,"ors":612,"Ġ[":613,"ĠĠĠĠĠĠĠĠĠĠĠĠĠĠĠĠĠĠĠĠĠĠĠĠĠĠĠĠĠĠĠĠĠĠĠĠĠĠĠĠĠĠĠĠĠĠĠĠ":614,"Ġatt":615,"ress":616,"rest":617,"Ġwere":618,"Ġdisc":619,"ered":620,"Ġcor":621,"mit":622,"ef":623,"Ġtrans":624,"10":625,"rict":626,"row":627,"Ġtri":628,"Ġinclud":629,"ade":630,"Ġdocu":631,"enc":632,"ject":633,"ract":634,"Ġreason":635,"ise":636,"Ġinte":637,"Ġservice":638,"Ġlo":639,"Ġfiled":640,"ame":641,"ine":642,"Ġev":643,"Ġmar":644,"Ġ12":645,"so":646,"Ġthan":647,"ail":648,"ear":649,"ability":650,"Ġbut":651,"ory":652,"ii":653,"ca":654,"ings":655,"Ġveteran":656,"ified":657,"Ġappeal":658,"ose":659,"Ġproper":660,"Ġman":661,"ug":662,"lig":663,"Ġ20":664,"ren":665,"Ġsupp":666,"Ġeach":667,"Ġfact":668,"................":669,"ĠĠĠĠĠĠĠĠĠĠĠ":670,"Ġapplic":671,"Ġcir":672,"Ġboard":673,"ile":674,"Ġsecur":675,"Ġimp":676,"fore":677,"ork":678,"el":679,"________":680,"Ġrem":681,"cess":682,"21":683,"Ġamount":684,"rib":685,"the":686,"Ġone":687,"Ġrev":688,"Ġrecord":689,"irect":690,"Ġinterest":691,"Ġid":692,"Ġro":693,"ax":694,"Ġ.":695,"Ġmot":696,"Ġconc":697,"Ġafter":698,"Ġtrial":699,"termin":700,"Ġpri":701,"ts":702,"Ġpage":703,"ia":704,"ock":705,"ired":706,"Ġus":707,"Ġinter":708,"rit":709,"ub":710,"nd":711,"istr":712,"ass":713,"Ġac":714,"ph":715,"Ġreport":716,"Ġ13":717,"Ġorder":718,"Ġeffect":719,"ution":720,"one":721,"ĠÂ·":722,"Ġalso":723,"Ġdetermin":724,"Ġaut":725,"000":726,"Ġstates":727,"ank":728,"aid":729,"Ġrece":730,"Ġrespect":731,"ased":732,"Ġinform":733,"Ġref":734,"ced":735,"11":736,"Ġout":737,"Ġspec":738,"Ġaction":739,"Ġterm":740,"Ġtest":741,"Ġdes":742,"Ġyear":743,"Ġtheir":744,"Ġgen":745,"Ġher":746,"Ġwhen":747,"Ġupon":748,"Ġcert":749,"ĠĠĠĠĠĠĠĠĠĠĠĠĠ":750,"Ġinst":751,"Ġdirect":752,"ĠĠĠĠĠĠĠĠĠĠĠĠĠĠ":753,"Ġmade":754,"old":755,"its":756,"Ġappro":757,"Ġamend":758,"sel":759,"of":760,"Ġte":761,"ollow":762,"Ġconst":763,"cept":764,"ute":765,"Ġjur":766,"Ġappell":767,"iew":768,"Ġ*":769,"Ġfollow":770,"Ġsc":771,"Ġfund":772,"li":773,"sul":774,"act":775,"hed":776,"led":777,"ond":778,"Ġdid":779,"Ġday":780,"Ġset":781,"inc":782,"wn":783,"ast":784,"Ġ15":785,"ange":786,"Ġthey":787,"Ġnew":788,"op":789,"Ġ-":790,"Ġben":791,"Ġdistrict":792,"por":793,"Ġparty":794,"Ġoffic":795,"hor":796,"Ġaff":797,"ake":798,"Ġest":799,"Ġfe":800,"Ġunited":801,"Ġdep":802,"Ġexec":803,"lect":804,")(":805,"ision":806,"ates":807,"80":808,"Ġcan":809,"Ġtax":810,"Ġlim":811,"Ġprovided":812,"Ġfir":813,"Ġext":814,"cause":815,"ry":816,"we":817,"Ġmore":818,"Ġagent":819,"ong":820,"iod":821,"Ġwhether":822,"oin":823,"oss":824,"Ġinformation":825,"ender":826,"ember":827,"now":828,"Ġbecause":829,"duct":830,"Ġmust":831,"ceed":832,"Ġpursu":833,"Ġdocument":834,"Ġperiod":835,"Ġcoun":836,"Ġwho":837,"ack":838,"15":839,"Ġ14":840,"ĠĠĠĠĠĠĠĠĠĠĠĠĠĠĠ":841,"Ġcred":842,"gu":843,"Ġval":844,"ost":845,"Ġform":846,"Ġinvest":847,"Ġrespon":848,"Ġagain":849,".\\":850,"Ġjudg":851,"Ġauthor":852,"ense":853,"con":854,"Ġ199":855,"uring":856,"Ġgu":857,"Ġbenef":858,"Ġbor":859,"Ġhow":860,"Ġoblig":861,"Ġonly":862,"iness":863,"Ġproperty":864,"Ġbus":865,"Ġappellant":866,"Ġcount":867,"ices":868,"Ġleg":869,".\"":870,"Ġbank":871,"ici":872,"Ġover":873,"Ġclaims":874,"Ġplan":875,"ission":876,"Ġshe":877,"Ġequ":878,"Ġrequired":879,"og":880,"Ġadmin":881,"Ġnotice":882,"Ġpursuant":883,"Ġop":884,"Ġcontract":885,");":886,"Ġexam":887,"Ġstock":888,"Ġgeneral":889,"Ġconsid":890,"Ġmr":891,"Ġfind":892,"ained":893,"Ġgrant":894,"Ġtrust":895,"Ġown":896,"ged":897,"Ġpol":898,"Ġmed":899,"Ġresul":900,"reat":901,"Ġpartic":902,"ible":903,"our":904,"Ġfirst":905,"Ġprovis":906,"Ġret":907,"Ġ18":908,"ify":909,"Ġmotion":910,"Ġprior":911,"Ġborrow":912,"Ġbusiness":913,"ap":914,"ret":915,"25":916,"lement":917,"Ġpub":918,"Ġ16":919,"ption":920,"Ġthese":921,"ck":922,"vern":923,"Ġaddition":924,"Ġ38":925,"Ġaccount":926,"Ġour":927,"Ġdoes":928,"rent":929,"Ġins":930,"Ġrequest":931,"Ġbefore":932,"Ġwithout":933,"Ġjudgment":934,"Ġtw":935,"Ġfail":936,"ult":937,"mitted":938,"Ġfur":939,"Ġaccord":940,"ident":941,"ving":942,"lis":943,"Ġden":944,"Ġlender":945,"Ġwork":946,"Ġshould":947,"ys":948,"Ġadministr":949,"30":950,"erial":951,"Ġchar":952,"Ġagainst":953,"Ġrepresent":954,"ness":955,"ward":956,"Ġexecut":957,"etition":958,"Ġsha":959,"Ġpurch":960,"Ġcond":961,"Ġsubject":962,"Ġduring":963,"Ġfed":964,"Ġcredit":965,"ved":966,"Ġconf":967,"aring":968,"12":969,"ally":970,"Ġgovern":971,"oug":972,"ized":973,"ok":974,"Ġparties":975,"ound":976,"Ġ17":977,"older":978,"Ġcas":979,"com":980,"ctions":981,"man":982,"Ġmon":983,"Ġapplicable":984,"Ġmaterial":985,"Ġwithin":986,"Ġer":987,"Ġreview":988,"roug":989,"ild":990,"Ġsecurities":991,"Ġsal":992,"Ġsy":993,"14":994,"Ġproceed":995,"ide":996,"Ġfinanc":997,"bt":998,"13":999,"Ġrequire":1000,"Ġcirc":1001,"Ġwhere":1002,"Ġwrit":1003,"Ġshares":1004,"ious":1005,"Ġpar":1006,"Ġoper":1007,"Ġcommit":1008,"Ġcondition":1009,"med":1010,"Ġdecision":1011,"ency":1012,"Ġgro":1013,"ever":1014,"Ġincluding":1015,"18":1016,"Ġinto":1017,"Ġconne":1018,"hip":1019,"Ġru":1020,"Ġcontro":1021,"Ġrights":1022,"Ġfollowing":1023,"Ġbel":1024,"Ġvi":1025,"Ġconnection":1026,"16":1027,"Ġexamin":1028,"Ġph":1029,"17":1030,"iction":1031,"Ġpetition":1032,"gr":1033,"ode":1034,"Ġwar":1035,"Ġcol":1036,"less":1037,"up":1038,"Ġcounsel":1039,"ational":1040,"Ġ30":1041,"Ġcal":1042,"to":1043,"ke":1044,"Ġregul":1045,"Ġpublic":1046,"Ġknow":1047,"Ġuse":1048,"Ġsupport":1049,"Ġreceiv":1050,"Ġalle":1051,"Ġrest":1052,"Ġrule":1053,"Ġsubst":1054,"Ġcould":1055,"orne":1056,"Ġva":1057,"Ġshow":1058,"vers":1059,"Ġav":1060,"Ġloan":1061,"Ġnum":1062,"ite":1063,"Ġpresent":1064,"Ġcorpor":1065,"erc":1066,"Ġissue":1067,"50":1068,"Ġfurther":1069,"Ġpayment":1070,"Ġperform":1071,"22":1072,"Ġthen":1073,"Ġhim":1074,"Ġcap":1075,"eren":1076,"Ġsign":1077,"Ġfederal":1078,"ove":1079,"ft":1080,"mber":1081,"Ġargu":1082,"Ġbet":1083,"cv":1084,"Ġborrower":1085,"Ġcur":1086,"Ġcar":1087,"very":1088,"Ġopin":1089,"Ġattorne":1090,"ges":1091,"ital":1092,"Ġhowever":1093,"ind":1094,"Ġtwo":1095,"ket":1096,"Ġtermin":1097,"fer":1098,"air":1099,"Ġquest":1100,"Ġocc":1101,"Ġterms":1102,"Ġdi":1103,"stand":1104,"lus":1105,".âĢĿ":1106,"Ġfinancial":1107,"23":1108,"wise":1109,"Ġnon":1110,"Ġ24":1111,"Ġdue":1112,"Ġconstit":1113,"sure":1114,"oint":1115,"Ġ&":1116,"Ġevent":1117,"Ġcompl":1118,"Ġsame":1119,"Ġrele":1120,"201":1121,"cent":1122,"urn":1123,"ately":1124,"Ġcr":1125,"rough":1126,"ex":1127,"ful":1128,"Ġbased":1129,"Ġcost":1130,"Ġresult":1131,"hib":1132,"Ġthose":1133,"Ġviol":1134,"Ġmatter":1135,"Ġabout":1136,"artment":1137,"Ġentit":1138,"Ġcode":1139,"Ġinj":1140,"24":1141,"99":1142,"miss":1143,"Ġmedical":1144,"pri":1145,"ablis":1146,"Ġsent":1147,"Ġstatement":1148,"Ġclass":1149,"Ġcontin":1150,"Ġotherwise":1151,"ten":1152,"Ġmember":1153,"Ġassign":1154,"Ġyour":1155,"imin":1156,"Ġwhat":1157,"les":1158,"Ġ23":1159,"by":1160,"app":1161,"ween":1162,"Ġnumber":1163,"Ġthrough":1164,"aining":1165,"Ġdisability":1166,"Ġcommission":1167,"Ġfore":1168,"Ġhearing":1169,"Ġed":1170,"par":1171,"Ġdefin":1172,"ances":1173,"Ġexcept":1174,"Ġnecess":1175,"Ġdefendants":1176,"Â·":1177,"Ġbetween":1178,"Ġconsider":1179,"me":1180,"Ġparticip":1181,"Ġcommon":1182,"Ġestablis":1183,"Ġregard":1184,"Ġasse":1185,"Ġ25":1186,"av":1187,"Ġsum":1188,"incip":1189,"ner":1190,"ony":1191,"Ġdebt":1192,"Ġsim":1193,"Ġpres":1194,"Ġbas":1195,"hing":1196,"Ġservices":1197,"Ġmake":1198,"Ġreasonable":1199,"ended":1200,"Ġprincip":1201,"sid":1202,"Ġstand":1203,"Ġart":1204,"Ġindi":1205,"Ġrating":1206,"Ġpolic":1207,"raph":1208,"ification":1209,"Ġmeans":1210,"Ġjust":1211,"Ġwarrant":1212,"Ġpercent":1213,"ief":1214,"Ġprovide":1215,"Ġnor":1216,"ix":1217,"Ġdepartment":1218,"Ġdays":1219,"io":1220,"go":1221,"pr":1222,"Ġgiv":1223,"Ġforth":1224,"ily":1225,"ention":1226,"Ġadministrative":1227,"isd":1228,"Ġopinion":1229,"Ġ198":1230,"Ġgovernment":1231,"ĠĠĠĠĠĠĠĠĠĠĠĠĠĠĠĠĠĠĠĠĠĠĠĠĠĠĠĠĠĠĠĠĠĠĠĠĠĠĠĠĠĠĠĠĠĠĠĠĠĠĠĠĠĠĠĠĠĠĠĠĠĠĠĠĠĠĠĠĠĠĠĠĠĠĠĠĠĠĠĠĠĠĠĠĠĠĠĠĠĠĠĠĠĠĠĠĠĠĠĠĠĠĠĠĠĠĠĠĠĠĠĠĠĠĠĠĠĠĠĠĠĠĠĠĠĠĠĠ":1232,"Ġexecutive":1233,"pl":1234,"ably":1235,"not":1236,"Ġcounty":1237,"Ġinstru":1238,"Ġsome":1239,"Ġobligations":1240,"Ġlet":1241,"gan":1242,"Ġmin":1243,"26":1244,"ither":1245,"ven":1246,"40":1247,"200":1248,"ages":1249,"Ġcause":1250,"Ġcontrol":1251,"................................":1252,"oth":1253,"enses":1254,"Ġprovisions":1255,"Ġjudge":1256,"ough":1257,"Ġsaid":1258,"Ġmonth":1259,"27":1260,"Ġattorney":1261,"=\"":1262,"ep":1263,"Ġyears":1264,"ures":1265,"Ġeffective":1266,"crib":1267,"Ġvalue":1268,"Ġdut":1269,"velo":1270,"sec":1271,"Ġofficer":1272,"Ġ26":1273,"Ġhold":1274,"Ġver":1275,"ater":1276,"Ġthem":1277,"ator":1278,"Ġcle":1279,"ning":1280,"ateral":1281,"Ġsecurity":1282,"Ġloc":1283,"erence":1284,"Ġbu":1285,"Ġcorporation":1286,"Ġaward":1287,"Ġlimit":1288,"Ġconduct":1289,"Ġmo":1290,"Ġadditional":1291,"standing":1292,"Ġ28":1293,"Ġpla":1294,"uly":1295,"Ġjury":1296,"Ġsuff":1297,"Ġprev":1298,"Ġjurisd":1299,"Ġfound":1300,"________________":1301,"alth":1302,"velop":1303,"ns":1304,"Ġquestion":1305,"urance":1306,"75":1307,"Ġheld":1308,"ks":1309,"Ġwell":1310,"ees":1311,"Ġnecessary":1312,"Ġaddress":1313,"gram":1314,"Ġtransa":1315,"icle":1316,"itle":1317,"Ġsup":1318,"199":1319,"Ġfac":1320,"29":1321,"Ġmean":1322,"Ġdocuments":1323,"xe":1324,"ss":1325,"Ġexist":1326,"ilities":1327,"Ġbeing":1328,"ents":1329,"Ġposs":1330,"Ġerr":1331,"Ġreceived":1332,"pe":1333,"Ġsubstant":1334,"ath":1335,"28":1336,"Ġann":1337,"Ġsubsid":1338,"ically":1339,"Ġused":1340,"Ġport":1341,"ower":1342,"Ġ21":1343,"ury":1344,"other":1345,"Ġprob":1346,"ton":1347,"Ġsecond":1348,"vidual":1349,"arm":1350,"Ġjurisdiction":1351,"Ġtransfer":1352,"03":1353,"Ġpaid":1354,"Ġrul":1355,"ĠĠĠĠĠĠĠĠĠĠĠĠĠĠĠĠĠ":1356,"Ġpe":1357,"Ġamended":1358,"Ġappeals":1359,"Ġchild":1360,"Ġemployee":1361,"sum":1362,"Ġsubsidi":1363,"Ġcurrent":1364,"ull":1365,"Ġdel":1366,"Ġoffice":1367,"reg":1368,"Ġup":1369,"Ġrecords":1370,"Ġprocess":1371,"Ġplaintiffs":1372,"ature":1373,"ially":1374,"Ġnote":1375,"----------------------------------------------------------------":1376,"ular":1377,"Ġboth":1378,"Ġrelated":1379,"Ġcomple":1380,"Ġdam":1381,"Ġindividual":1382,"Ġneed":1383,"Ġdevelop":1384,"ger":1385,"Ġloss":1386,"tal":1387,"Ġhig":1388,"Ġident":1389,"Ġwa":1390,"Ġsell":1391,"oci":1392,"Ġindic":1393,"Ġshare":1394,"Ġtitle":1395,"Ġdem":1396,"Ġletter":1397,"Ġprogram":1398,"Ġamendment":1399,"Ġ27":1400,"Ġobt":1401,"33":1402,"ĠĠĠĠĠĠĠĠĠĠĠĠĠĠĠĠĠĠ":1403,"Ġmarket":1404,"Ġdiff":1405,"stem":1406,"Ġcoll":1407,"poses":1408,"agement":1409,"oh":1410,"Ġappropri":1411,"Ġcomplaint":1412,"Ġnotes":1413,"ization":1414,"Ġavail":1415,"Ġcompens":1416,"Ġaccordance":1417,"Ġdenied":1418,"Ġear":1419,"Ġexerc":1420,"Ġextent":1421,"Ġbr":1422,"Ġdece":1423,"Ġoccur":1424,"ected":1425,"Ġtreat":1426,"Ġser":1427,"Ġstatements":1428,"ting":1429,"Ġ----------------------------------------------------------------":1430,"icient":1431,"Ġcertain":1432,"Ġdistrib":1433,"60":1434,"Ġincre":1435,"Ġsubse":1436,"ces":1437,"Ġland":1438,"Ġproced":1439,"Ġauthority":1440,"Ġemployment":1441,"imony":1442,"Ġrate":1443,"Ġ--------------------------------------------------------------------------------":1444,"Ġname":1445,"Ġlegal":1446,"Ġinsurance":1447,"Ġsystem":1448,"used":1449,"Ġwritten":1450,"ured":1451,"Ġ29":1452,"Ġstated":1453,"Ġthir":1454,"Ġtak":1455,"Ġabove":1456,"Ġbasis":1457,"Ġincome":1458,".)":1459,"une":1460,"Ġll":1461,"Ġinvol":1462,"ron":1463,"Ġten":1464,"Ġlimited":1465,"Ġexhib":1466,"Ġcust":1467,"Ġrespond":1468,"Ġmet":1469,"ior":1470,"cy":1471,"Ġdesign":1472,"Ġassist":1473,"til":1474,"34":1475,"vant":1476,"Ġpurposes":1477,"Ġentered":1478,"Ġpurp":1479,"Ġcontinu":1480,"fe":1481,"Ġsur":1482,"Ġwhile":1483,"ault":1484,"Ġpolicy":1485,"ĠĠĠĠĠĠĠĠĠĠĠĠĠĠĠĠĠĠĠĠ":1486,"change":1487,"agraph":1488,"Ġtestimony":1489,"Ġdeli":1490,"Ġfl":1491,"Ġmanagement":1492,"Ġfees":1493,"under":1494,"Ġassets":1495,"ants":1496,"vel":1497,"Ġgood":1498,"Ġacqu":1499,"olog":1500,"Ġple":1501,"posed":1502,"Ġbar":1503,"Ġpat":1504,"Ġback":1505,"arant":1506,"Ġexc":1507,"xt":1508,"Ġsch":1509,"Ġsumm":1510,"Ġless":1511,"Ġtherefore":1512,"Ġthereof":1513,"Ġclear":1514,"Ġct":1515,"Ġconstru":1516,"Ġassoci":1517,"Ġtotal":1518,"Ġdr":1519,"Ġmy":1520,"itness":1521,"04":1522,"cribed":1523,"Ġele":1524,"Ġinit":1525,"ional":1526,"Ġmaint":1527,"Ġneg":1528,"ĠĠĠĠĠĠĠĠĠĠĠĠĠĠĠĠĠĠĠ":1529,"Ġpurchase":1530,"Ġend":1531,"Ġjan":1532,"Ġallow":1533,"force":1534,"Ġcity":1535,"Ġavailable":1536,"Ġcommun":1537,"Ġintern":1538,"holder":1539,"Ġsale":1540,"Ġliability":1541,"Ġ22":1542,"Ġagre":1543,"Ġlike":1544,"Ġlong":1545,"Ġherein":1546,"55":1547,"Ġentitled":1548,"Ġthree":1549,"Ġpriv":1550,"Ġconv":1551,"ili":1552,"arent":1553,"Ġdecember":1554,"Ġapplication":1555,"jud":1556,"tee":1557,"Ġfacts":1558,"empt":1559,"Ġgiven":1560,"uc":1561,"Ġtermination":1562,"Ġstandard":1563,"atory":1564,"Ġproduct":1565,"Ġreturn":1566,"Ġcircum":1567,"Ġconditions":1568,"ince":1569,"Ġfile":1570,"Ġmer":1571,"Ġ)":1572,"Ġbenefits":1573,"77":1574,"Ġstatute":1575,"09":1576,"Ġissued":1577,"Ġsept":1578,"Ġlaws":1579,"Ġjune":1580,"with":1581,"Ġexpenses":1582,"Ġguarant":1583,"ars":1584,"tern":1585,"Ġexchange":1586,"emn":1587,"Ġinclude":1588,"Ġeven":1589,"ilar":1590,"Ġcop":1591,"Ġsuper":1592,"54":1593,"Ġmeet":1594,"Ġchange":1595,"ood":1596,"Ġdismiss":1597,"Ġpost":1598,"Ġcosts":1599,"Ġtra":1600,"ick":1601,"Ġhealth":1602,"alu":1603,"Ġprincipal":1604,"Ġelect":1605,"Ġord":1606,"Ġcircumst":1607,"Ġcollateral":1608,"eric":1609,"Ġagg":1610,"**":1611,"Ġ31":1612,"Ġexamination":1613,"uss":1614,"Ġsat":1615,"quent":1616,"Ġholder":1617,"Ġvot":1618,"ell":1619,"Ġappropriate":1620,"Ġrequirements":1621,"uit":1622,"02":1623,"ather":1624,"Ġgranted":1625,"ink":1626,"Ġdetermined":1627,"Ġtreatment":1628,"Ġbenefit":1629,"Ġconclus":1630,"Ġcapital":1631,"Ġeng":1632,"Ġmarch":1633,"Ġmod":1634,"Ġveterans":1635,"Ġsimilar":1636,"38":1637,"Ġlic":1638,"Ġq":1639,"Ġopp":1640,"ife":1641,"arge":1642,"Ġaccording":1643,"Ġpayments":1644,"Ġfunds":1645,"Ġfull":1646,"76":1647,"luding":1648,"isc":1649,"âĢĶ":1650,"Ġperformance":1651,"Ġcompensation":1652,"Ġrestrict":1653,"Ġcash":1654,"Ġcases":1655,"Ġwitness":1656,"aries":1657,"isf":1658,"05":1659,"Ġnet":1660,"ian":1661,"48":1662,"06":1663,"Ġcertific":1664,"ĠĠĠĠĠĠĠĠĠĠĠĠĠĠĠĠĠĠĠĠĠĠĠ":1665,"land":1666,"pa":1667,"Ġjuly":1668,"igin":1669,"36":1670,"Ġqual":1671,"Ġcare":1672,"uary":1673,"Ġeither":1674,"Ġeff":1675,"pro":1676,"Ġuntil":1677,"Ġconcer":1678,"Ġsm":1679,"Ġpurpose":1680,"Ġunless":1681,"Ġaccept":1682,"Ġche":1683,"Ġlit":1684,"Ġevalu":1685,"Ġcent":1686,"Ġbeh":1687,"uted":1688,"46":1689,"val":1690,"Ġbro":1691,"Ġerror":1692,"45":1693,"Ġlist":1694,"Ġexper":1695,"35":1696,"ership":1697,"Ġinvestment":1698,"agn":1699,"Ġgroup":1700,"Ġemployees":1701,"Ġexpress":1702,"Ġexhibit":1703,"Ġfailure":1704,"Ġsince":1705,"78":1706,"osed":1707,"Ġma":1708,"Ġprom":1709,"Ġcircuit":1710,"Ġcommittee":1711,"Ġinf":1712,"Ġprovision":1713,"Ġactiv":1714,"ish":1715,"Ġorigin":1716,"igation":1717,"ends":1718,"Ġdeem":1719,"Ġaffect":1720,"Ġsepar":1721,"Ġrespons":1722,"Ġsche":1723,"Ġsatisf":1724,"Ġapr":1725,"irm":1726,"ient":1727,"Ġtrustee":1728,"ouse":1729,"Ġalleged":1730,"Ġjanuary":1731,"Ġllc":1732,"Ġdefined":1733,"law":1734,"Ġtex":1735,"ives":1736,"</":1737,"Ġapply":1738,"Ġindemn":1739,"ata":1740,"Ġfr":1741,"ibility":1742,"Ġcall":1743,"Ġcorre":1744,"Ġregarding":1745,"198":1746,"ob":1747,"Ġagency":1748,"Ġcre":1749,"retion":1750,"alf":1751,"Ġnow":1752,"Ġseptember":1753,"Ġprice":1754,"Ġthird":1755,"ending":1756,"âĢľ":1757,"Ġmill":1758,"ĠĠĠĠĠĠĠĠĠĠĠĠĠĠĠĠĠĠĠĠĠ":1759,"Ġaug":1760,"31":1761,"Ġpos":1762,"Ġdet":1763,"Ġsever":1764,"Ġremand":1765,"ool":1766,"Ġbre":1767,"Ġduty":1768,"Ġpurchas":1769,"Ġdefense":1770,"Ġdepos":1771,"Ġciv":1772,"Ġmak":1773,"Ġactual":1774,"wh":1775,"Ġdiscretion":1776,"ins":1777,"Ġreal":1778,"Ġinjury":1779,"07":1780,"way":1781,"Ġconsent":1782,"Ġcircumstances":1783,"Ġreasonably":1784,"ccess":1785,"ody":1786,"Ġmembers":1787,"utes":1788,"Ġpetitioner":1789,"over":1790,"39":1791,"Ġoct":1792,"osing":1793,"Ġapril":1794,"medi":1795,"Ġpract":1796,"Ġenforce":1797,"reme":1798,"port":1799,"Ġet":1800,"Ġpen":1801,"Ġtestified":1802,"arch":1803,"Ġdefault":1804,"Ġleft":1805,"Ġpower":1806,"Ġ36":1807,"verage":1808,"iver":1809,"Ġrules":1810,"79":1811,"Ġoption":1812,"Ġanother":1813,"Ġsa":1814,"Ġameric":1815,"Ġhereby":1816,"Ġplace":1817,"Ġpa":1818,"49":1819,"Ġregistr":1820,"Ġgr":1821,"Ġloans":1822,"08":1823,"ĠĠĠĠĠĠĠĠĠĠĠĠĠĠĠĠĠĠĠĠĠĠ":1824,"Ġtake":1825,"Ġz":1826,"ains":1827,"Ġvet":1828,"Ġthus":1829,"ple":1830,"Ġexercise":1831,"iii":1832,"Ġra":1833,"Ġsufficient":1834,"Ġir":1835,"Ġbl":1836,"Ġissues":1837,"orn":1838,"rupt":1839,"Ġsummary":1840,"Ġfinal":1841,"ension":1842,"Ġris":1843,"Ġconsidered":1844,"Ġadv":1845,"Ġyork":1846,"Ġregist":1847,"Ġdamages":1848,"Ġconclud":1849,"Ġsett":1850,"line":1851,"Ġprot":1852,"Ġsen":1853,"Ġredu":1854,"ively":1855,"Ġdiscuss":1856,"Ġ(âĢľ":1857,"Ġbelow":1858,"ric":1859,"Ġill":1860,"lied":1861,"Ġdiagn":1862,"king":1863,"Ġdescribed":1864,"âĢĿ)":1865,"Ġarticle":1866,"Ġparticular":1867,"ading":1868,"icial":1869,"ober":1870,"Ġparagraph":1871,"Ġhand":1872,"ĠÂ¶":1873,"56":1874,"Ġchan":1875,"Ġadvis":1876,"37":1877,"ison":1878,"Ġaugust":1879,"Ġrelevant":1880,"ises":1881,"Ġprodu":1882,"Ġanal":1883,"after":1884,"cri":1885,"Ġprof":1886,"ms":1887,"Ġbur":1888,"Ġx":1889,"Ġnational":1890,"Ġway":1891,"Ġhigh":1892,"nthe":1893,"Ġdetermination":1894,"Ġspecific":1895,"Ġmost":1896,"Ġobligation":1897,"Ġbelie":1898,"Ġdevelopment":1899,"Ġoctober":1900,"Ġty":1901,"Ġcannot":1902,"Ġdisp":1903,"Ġorgan":1904,"Ġhaving":1905,"Ġsole":1906,"Ġdetermine":1907,"Ġpartn":1908,"Ġ#":1909,"Ġimpro":1910,"Ġleast":1911,"Ġfeb":1912,"ising":1913,"Ġphys":1914,"Ġincur":1915,"ps":1916,"verse":1917,"ople":1918,"ring":1919,"Ġsuccess":1920,"Ġmort":1921,"66":1922,"enue":1923,"Ġrefer":1924,"44":1925,"hes":1926,"ires":1927,"cl":1928,"gin":1929,"Ġfee":1930,"Ġregulations":1931,"ley":1932,"Ġcit":1933,"Ġfair":1934,"Ġnoted":1935,"Ġspecial":1936,"Ġdeemed":1937,"Ġfiling":1938,"going":1939,"Ġtransaction":1940,"Ġmis":1941,"bit":1942,"apter":1943,"Ġabs":1944,"Ġnove":1945,"no":1946,"bur":1947,"Ġsecret":1948,"Ġparent":1949,"own":1950,"Ġprovides":1951,"abilities":1952,"Ġnovember":1953,"ledge":1954,"part":1955,"ked":1956,"de":1957,"ohn":1958,"Ġdisclo":1959,"58":1960,"74":1961,"59":1962,"Ġprem":1963,"sp":1964,"Ġparticipant":1965,"unction":1966,"sw":1967,"ruary":1968,"gress":1969,"Ġtre":1970,"Ġaffili":1971,"Ġmeaning":1972,"dule":1973,"Ġsupreme":1974,"Ġdirector":1975,"Ġ100":1976,"Ġlease":1977,"mission":1978,"ize":1979,"je":1980,"Ġdated":1981,"iminal":1982,"erg":1983,"Ġrelief":1984,"Ġconsist":1985,"Ġpersonal":1986,"Ġamounts":1987,"imes":1988,"Ġexpl":1989,"chn":1990,"ave":1991,"Ġmonths":1992,"ety":1993,"Ġconsideration":1994,"Ġofficers":1995,"self":1996,"Ġconstitution":1997,"just":1998,"ural":1999,"Ġimmedi":2000,"Ġproceeding":2001,"Ġoffer":2002,"Ġviolation":2003,"Ġitem":2004,"Ġauthorized":2005,"Ġfebruary":2006,"Ġschedule":2007,"Ġbec":2008,"see":2009,"Ġprevious":2010,"Ġargument":2011,"ised":2012,"Ġassess":2013,"though":2014,"Ġmortg":2015,"Â§":2016,"als":2017,"Ġpermitted":2018,"ield":2019,"Ġlater":2020,"Ġstr":2021,"Ġcriminal":2022,"Ġfav":2023,"Ġsentence":2024,"utions":2025,"ĠĠĠĠĠĠĠĠĠĠĠĠĠĠĠĠĠĠĠĠĠĠĠĠ":2026,"endent":2027,"ines":2028,"Ġtaken":2029,"Ġdeg":2030,"oney":2031,"know":2032,"Ġalthough":2033,"Ġhome":2034,"serv":2035,"Ġfailed":2036,"Ġcorrect":2037,"Ġbankrupt":2038,"Ġhereunder":2039,"olid":2040,"Ġdebtor":2041,"Ġlevel":2042,"Ġdirectors":2043,"Ġcopy":2044,"Ġmanag":2045,"'t":2046,"Ġdeath":2047,"Ġinterests":2048,"Ġjohn":2049,"including":2050,"Ġpeople":2051,"Ġcontained":2052,"ĠĠĠĠĠĠĠĠĠĠĠĠĠĠĠĠĠĠĠĠĠĠĠĠĠĠ":2053,"Ġposition":2054,"Ġpermit":2055,"Ġground":2056,"orth":2057,"state":2058,"sh":2059,"70":2060,"ession":2061,"Ġrelating":2062,"Ġbri":2063,"Ġhist":2064,"isl":2065,"Ġ/":2066,"Ġbond":2067,"Ġsw":2068,"Ġ2010":2069,"Ġrequested":2070,"68":2071,"iam":2072,"Ġoutstanding":2073,"ached":2074,"Ġagreements":2075,"Ġcompet":2076,"Ġschool":2077,"Ġbal":2078,"Ġsecretary":2079,"Ġbankruptcy":2080,"ves":2081,"71":2082,"Ġes":2083,"Ġbill":2084,"Ġobject":2085,"Ġinitial":2086,"Ġgreat":2087,"Ġmanner":2088,"pay":2089,"jor":2090,"nc":2091,"Ġel":2092,"Ġ49":2093,"69":2094,"Ġfindings":2095,"idential":2096,"imum":2097,"ĠĠĠĠĠĠĠĠĠĠĠĠĠĠĠĠĠĠĠĠĠĠĠĠĠ":2098,"Ġfavor":2099,"Ġ2011":2100,"Ġacts":2101,"Ġbehalf":2102,"liance":2103,"Ġ--":2104,"unity":2105,"Ġlocal":2106,"Ġcustom":2107,"Ġ2020":2108,"erent":2109,"Ġfinding":2110,"hold":2111,"Ġvar":2112,"Ġfra":2113,"Ġremed":2114,"ease":2115,"73":2116,"Ġcorp":2117,"arily":2118,"Ġchapter":2119,"Ġcertificate":2120,"Ġlast":2121,"Ġtechn":2122,"Ġii":2123,"Ġpersons":2124,"Ġ45":2125,"order":2126,"ilit":2127,"Ġestablish":2128,"Ġactions":2129,"Ġestate":2130,"den":2131,"Ġexaminer":2132,"yer":2133,"Ġregistration":2134,"Ġequity":2135,"Ġportion":2136,"Ġspecif":2137,"Ġlegisl":2138,"ĠĠĠĠĠĠĠĠĠĠĠĠĠĠĠĠĠĠĠĠĠĠĠĠĠĠĠ":2139,"Ġrespondent":2140,"Ġsubsidiaries":2141,"Ġdata":2142,"Ġoriginal":2143,"Ġ2009":2144,"ought":2145,"Ġclosing":2146,"Ġalleg":2147,"ential":2148,"ler":2149,"Ġreceive":2150,"new":2151,"ogn":2152,"\">":2153,"Ġestablished":2154,"Ġsubmitted":2155,"Ġequal":2156,"Ġveh":2157,"Ġfut":2158,"Ġrelations":2159,"Ġproceedings":2160,"Ġpayable":2161,"Ġresol":2162,"Ġmajor":2163,"Ġdecl":2164,"Ġdiv":2165,"Ġcrit":2166,"lle":2167,"ĠĠĠĠĠĠĠĠĠĠĠĠĠĠĠĠĠĠĠĠĠĠĠĠĠĠĠĠĠĠĠĠĠĠĠ":2168,"Ġda":2169,"Ġ39":2170,"Ġcourts":2171,"Ġincluded":2172,"Ġspecified":2173,"ology":2174,"Ġjoint":2175,"2020":2176,"\\'":2177,"mental":2178,"utory":2179,"Ġsubsidiary":2180,"oid":2181,"Ġcivil":2182,"Ġspecifically":2183,"Ġinde":2184,"Ġsix":2185,"Ġproject":2186,"Ġfam":2187,"Ġms":2188,"unt":2189,"overy":2190,"Ġcontr":2191,"Ġrelease":2192,"Ġprosec":2193,"Ġannual":2194,"na":2195,"Ġdifferent":2196,"Ġlan":2197,"holders":2198,"Ġissuer":2199,"Ġ48":2200,"Ġclaimant":2201,"ned":2202,"43":2203,"str":2204,"Ġemployer":2205,"Ġtaxes":2206,"spect":2207,"41":2208,"umb":2209,"Ġado":2210,"Ġaud":2211,"Ġreasons":2212,"Ġvalid":2213,"Ġsignific":2214,"Ġsay":2215,"allen":2216,"Ġmoney":2217,"Ġtexas":2218,"Ġrecei":2219,"72":2220,"Ġ<":2221,"ĠĠĠĠĠĠĠĠĠĠĠĠĠĠĠĠĠĠĠĠĠĠĠĠĠĠĠĠĠĠ":2222,"Ġ2002":2223,"Ġlimitation":2224,"omm":2225,"Ġthink":2226,"position":2227,"bitr":2228,"Ġhar":2229,"Ġentire":2230,"Ġsubsequent":2231,"Ġassert":2232,"Ġ2007":2233,"Ġincurred":2234,"65":2235,"ĠÂ§Â§":2236,"...":2237,"Ġentity":2238,"ross":2239,"Ġenter":2240,"xim":2241,"equ":2242,"Ġbrief":2243,"Ġresponse":2244,"itive":2245,"Ġmem":2246,"Ġaggreg":2247,"Ġpain":2248,"Ġreported":2249,"Ġcommunic":2250,"100":2251,"Ġrecogn":2252,"Ġseller":2253,"Ġpoint":2254,"Ġfollows":2255,"Ġsit":2256,"Ġordin":2257,"Ġproposed":2258,"Ġansw":2259,"Ġlab":2260,"Ġcharge":2261,"32":2262,"nee":2263,"ivered":2264,"Ġ2014":2265,"Ġread":2266,"ourt":2267,"gg":2268,"Ġforegoing":2269,"ah":2270,"Ġpresident":2271,"Ġarea":2272,"Ġattempt":2273,"Ġevery":2274,"Ġarbitr":2275,"Ġpolice":2276,"Ġknowledge":2277,"Ġcompliance":2278,"Ġ2012":2279,"Ġcontrib":2280,"47":2281,"Ġcour":2282,"Ġvol":2283,"Ġinstit":2284,"Ġstud":2285,"Ġdelivered":2286,"Ġsales":2287,"Ġ510":2288,"Ġpresented":2289,"42":2290,"Ġhereof":2291,"Ġcomplete":2292,"acy":2293,"be":2294,"Ġdon":2295,"Ġ2013":2296,"Ġdistribution":2297,"Ġrisk":2298,"Ġgenerally":2299,"Ġimmediately":2300,"Ġstre":2301,"Ġconstitute":2302,"Ġlenders":2303,"Ġtransactions":2304,"ĠĠĠĠĠĠĠĠĠĠĠĠĠĠĠĠĠĠĠĠĠĠĠĠĠĠĠĠ":2305,"ace":2306,"Ġreceipt":2307,"Ġful":2308,"ateg":2309,"Ġincor":2310,"Ġreference":2311,"Ġexcess":2312,"day":2313,"Ġ35":2314,"whe":2315,"Ġtele":2316,"Ġaccordingly":2317,"Ġred":2318,"Ġview":2319,"Ġdisorder":2320,"Ġaccess":2321,",\"":2322,"Ġsym":2323,"Ġinsu":2324,"ysis":2325,"raw":2326,"Ġdri":2327,"Ġvery":2328,"Ġnature":2329,"Ġassignment":2330,"ale":2331,"Ġconclusion":2332,"Ġowner":2333,"Ġoperations":2334,"Ġprivate":2335,"Ġchallen":2336,"Ġsupra":2337,"Ġsignificant":2338,"Ġaggregate":2339,"Ġconsolid":2340,"round":2341,"Ġappelle":2342,"Ġ2008":2343,"Ġgive":2344,"Ġadjust":2345,"Ġfire":2346,"irmed":2347,"ronic":2348,"orts":2349,"Ġdirectly":2350,"ier":2351,"Ġrequires":2352,"Ġmortgage":2353,"Ġreporting":2354,",âĢĿ":2355,"Ġinterp":2356,"Ġpurchaser":2357,"Ġnever":2358,"Ġopport":2359,"Ġcourse":2360,"Ġsupplement":2361,"ĠĠĠĠĠĠĠĠĠĠĠĠĠĠĠĠĠĠĠĠĠĠĠĠĠĠĠĠĠ":2362,"Ġagreed":2363,"Ġpass":2364,"Ġsentenc":2365,"nected":2366,"Ġhistory":2367,"Ġfuture":2368,"Ġelection":2369,"Ġclause":2370,"Ġentitlement":2371,"Ġchief":2372,"ases":2373,"Ġmillion":2374,"uro":2375,"ader":2376,"Ġadded":2377,"Ġ01":2378,"Ġdisease":2379,"Ġfive":2380,"iscal":2381,"ulation":2382,"ĠĠĠĠĠĠĠĠĠĠĠĠĠĠĠĠĠĠĠĠĠĠĠĠĠĠĠĠĠĠĠĠĠĠĠĠĠĠĠĠĠĠĠĠĠĠĠĠĠĠĠĠĠĠĠĠĠĠĠĠĠĠĠĠĠĠĠĠĠĠĠĠĠĠĠĠĠĠĠĠĠĠĠĠĠĠĠĠĠĠĠĠĠĠĠĠ":2383,"ons":2384,"Ġactivities":2385,"Ġ06":2386,"Ġhereto":2387,"icip":2388,"Ġobtain":2389,"Ġexecuted":2390,"ral":2391,"Ġcheck":2392,"Ġsettlement":2393,"67":2394,"Ġindep":2395,"Ġlife":2396,"Ġsuit":2397,"Ġwriting":2398,"Ġlight":2399,"Ġacknow":2400,"Ġair":2401,"Ġprocedures":2402,"Ġfacility":2403,"Ġassigned":2404,"âĢĿ),":2405,"Ġcongress":2406,"ling":2407,"Ġprim":2408,"âĢĵ":2409,"Ġofficial":2410,"Ġlicense":2411,"rown":2412,"Ġ09":2413,"Ġguil":2414,"ties":2415,"Ġelig":2416,"Ġ2006":2417,"Ġadverse":2418,"Ġhouse":2419,"ames":2420,"co":2421,"Ġcaused":2422,"Ġevaluation":2423,"Ġreports":2424,"Ġget":2425,"Ġpartnership":2426,"Ġresults":2427,"ination":2428,"Ġdelivery":2429,"arter":2430,"ested":2431,"Ġline":2432,"Ġjustice":2433,"Ġprote":2434,"ruct":2435,"Ġconstruction":2436,"Ġforeign":2437,"Ġobje":2438,"Ġthereto":2439,"ics":2440,"cont":2441,"Ġ50":2442,"ille":2443,"ptom":2444,"Ġproducts":2445,"Ġfiscal":2446,"Ġstatutory":2447,"Ġ40":2448,"Ġreflect":2449,"omp":2450,"Ġsubsection":2451,"Ġfraud":2452,"Ġanalysis":2453,"lf":2454,"Ġmich":2455,"ying":2456,"ium":2457,"ĠĠĠĠĠĠĠĠĠĠĠĠĠĠĠĠĠĠĠĠĠĠĠĠĠĠĠĠĠĠĠ":2458,"Ġapproval":2459,"88":2460,"Ġoccurred":2461,"Ġcounter":2462,"Ġwest":2463,"Ġprejud":2464,"Ġbreach":2465,"Ġmaking":2466,"Ġtenant":2467,"Ġmc":2468,"lying":2469,"airs":2470,"iforn":2471,"0000":2472,"Ġcollect":2473,"rug":2474,"Ġcontem":2475,"osp":2476,"Ġbuild":2477,"ifornia":2478,"ifying":2479,"Ġduties":2480,"Ġdisch":2481,"Ġdemand":2482,"ang":2483,"Ġforce":2484,"Ġargues":2485,"Ġrather":2486,"Ġmult":2487,"bo":2488,"Ġstreet":2489,"Ġ2005":2490,"Ġequip":2491,"Ġagrees":2492,"Ġdefinition":2493,"Ġomitted":2494,"Ġintent":2495,"uf":2496,"ane":2497,"aged":2498,"ĠĠĠĠĠĠĠĠĠĠĠĠĠĠĠĠĠĠĠĠĠĠĠĠĠĠĠĠĠĠĠĠĠĠĠĠĠĠ":2499,"aff":2500,"Ġseveral":2501,"Ġmight":2502,"Ġpot":2503,"Ġseparate":2504,"Ġbecome":2505,"Ġsubstantial":2506,"Ġresid":2507,"Ġindependent":2508,"Ġimport":2509,"Ġassistance":2510,"Ġsymptom":2511,"Ġsou":2512,"Ġeduc":2513,"gether":2514,"Ġconsum":2515,"Ġcomb":2516,"iation":2517,"hod":2518,"onstr":2519,"Ġlack":2520,"Ġmatters":2521,"Ġliqu":2522,"Ġinternal":2523,"Ġcalifornia":2524,"Ġste":2525,"Ġchildren":2526,"vir":2527,"read":2528,"Ġ2018":2529,"Ġamong":2530,"bert":2531,"Ġproceeds":2532,"uch":2533,"Ġexceed":2534,"Ġhour":2535,"ww":2536,"Ġintended":2537,"Ġsubmit":2538,"ptions":2539,"west":2540,"Ġdou":2541,"ived":2542,"Ġwant":2543,"Ġsan":2544,"Ġadequ":2545,"Ġoffense":2546,"Ġdisclosure":2547,"ĠĠĠĠĠĠĠĠĠĠĠĠĠĠĠĠĠĠĠĠĠĠĠĠĠĠĠĠĠĠĠĠĠĠĠĠ":2548,"ĠâĢĵ":2549,"Ġyes":2550,"Ġ2015":2551,"sy":2552,"89":2553,"xc":2554,"ience":2555,"ĠĠĠĠĠĠĠĠĠĠĠĠĠĠĠĠĠĠĠĠĠĠĠĠĠĠĠĠĠĠĠĠĠĠ":2556,"Ġtimes":2557,"ker":2558,"Ġwaiver":2559,"Ġconfidential":2560,"sub":2561,"Ġincorpor":2562,"Ġdeal":2563,"erve":2564,"Ġsecured":2565,"Ġincrease":2566,"Ġpreced":2567,"Ġdemonstr":2568,"Ġfinds":2569,"entry":2570,"tt":2571,"lp":2572,"Ġadopt":2573,"ware":2574,"Ġbase":2575,"Ġneglig":2576,"Â¶":2577,"Ġwr":2578,"Ġvehicle":2579,"Ġsol":2580,"Ġrelationship":2581,"Ġexisting":2582,"Ġaffirm":2583,"64":2584,"Ġoperating":2585,"ivers":2586,"Ġfour":2587,"Ġmail":2588,"Ġcontinue":2589,"Ġcenter":2590,"Ġreferred":2591,"iting":2592,"ina":2593,"comp":2594,"ĠĠĠĠĠĠĠĠĠĠĠĠĠĠĠĠĠĠĠĠĠĠĠĠĠĠĠĠĠĠĠĠĠ":2595,"63":2596,"Ġopen":2597,"Ġinvolved":2598,"Ġhosp":2599,"ently":2600,"cr":2601,"Ġ2019":2602,"Ġdrug":2603,"Ġ60":2604,"Ġbelieve":2605,"Ġbrown":2606,"Ġmor":2607,"Ġregulation":2608,"Ġdoll":2609,"work":2610,"Ġmany":2611,"Ġpossession":2612,"Ġke":2613,"Ġrevenue":2614,"Ġrepresentative":2615,"Ġapplied":2616,"Ġ,":2617,"Ġpenal":2618,"enture":2619,"Ġstatus":2620,"Ġnext":2621,"Ġcalc":2622,"Ġrecomm":2623,"Ġwater":2624,"51":2625,"Ġ2000":2626,"Ġcolle":2627,"Ġpreviously":2628,"Ġindicated":2629,"Ġconvers":2630,"Ġremo":2631,"Ġindust":2632,"Ġ2003":2633,"Ġvict":2634,"Ġword":2635,"guage":2636,"viron":2637,"fully":2638,"Ġrequirement":2639,"col":2640,"Ġholding":2641,"Ġobtained":2642,"mal":2643,"Ġproble":2644,"acity":2645,"ources":2646,"lict":2647,"><":2648,"yl":2649,"Ġprohib":2650,"Ġmeeting":2651,"Ġquarter":2652,"Ġprotection":2653,"Ġlien":2654,"Ġfre":2655,"Ġseries":2656,"Ġtrue":2657,"Ġequipment":2658,"Ġlanguage":2659,"Ġ2016":2660,"Ġput":2661,"ined":2662,"withstanding":2663,"xa":2664,"Ġfamily":2665,"Ġchanges":2666,"bted":2667,"oper":2668,"uses":2669,"Ġder":2670,"Ġbest":2671,"Ġactive":2672,"Ġshort":2673,"Ġbalance":2674,"itor":2675,"Ġge":2676,"Ġapproxim":2677,"Ġunion":2678,"61":2679,"Ġharm":2680,"au":2681,"Ġgoing":2682,"Ġlitigation":2683,"ĠâĢĶ":2684,"ĠĠĠĠĠĠĠĠĠĠĠĠĠĠĠĠĠĠĠĠĠĠĠĠĠĠĠĠĠĠĠĠĠĠĠĠĠĠĠĠ":2685,"Ġpageid":2686,"Ġtogether":2687,"ĠĠĠĠĠĠĠĠĠĠĠĠĠĠĠĠĠĠĠĠĠĠĠĠĠĠĠĠĠĠĠĠĠĠĠĠĠĠĠ":2688,"rec":2689,"Ġprocedure":2690,"Ġoh":2691,"62":2692,"Ġopportunity":2693,"Ġsing":2694,"Ġknown":2695,"vert":2696,"Ġsupervis":2697,"Ġexclus":2698,"lier":2699,"burse":2700,"Ġecon":2701,"Ġcommerc":2702,"Ġrestricted":2703,"Ġhospital":2704,"isition":2705,"Ġneither":2706,"Ġproperly":2707,"Ġappellate":2708,"Ġcharges":2709,"Ġfully":2710,"Ġ59":2711,"53":2712,"lord":2713,"ark":2714,"Ġliquid":2715,"Ġ2004":2716,"Ġeconom":2717,"nm":2718,"Ġapproved":2719,"==":2720,"Ġpert":2721,"Ġtold":2722,"Ġjudicial":2723,"Ġprotect":2724,"Ġ'":2725,"Ġfactors":2726,"Ġdev":2727,"Ġincreased":2728,"Ġcoverage":2729,"Ġenforcement":2730,"eria":2731,"52":2732,"Ġanswer":2733,"Ġcontempl":2734,"Ġowned":2735,"atives":2736,"sc":2737,"oot":2738,"hington":2739,"Ġmethod":2740,"57":2741,"Ġaccounts":2742,"ister":2743,"bb":2744,"Ġconviction":2745,"Ġasked":2746,"Ġtype":2747,"Ġwilliam":2748,"Ġdivid":2749,"nf":2750,"aster":2751,"Ġconcerning":2752,"Ġenviron":2753,"Ġsigned":2754,"Ġsoc":2755,"encies":2756,"Ġsched":2757,"Ġconsul":2758,"Ġmajority":2759,"Ġcontrary":2760,"Ġhead":2761,"Ġant":2762,"Ġmeas":2763,"Ġdeliver":2764,"kh":2765,"Ġ`":2766,"Ġcontact":2767,"Ġregistrant":2768,"osis":2769,"Ġcomply":2770,"nel":2771,"iring":2772,"Ġhy":2773,"Ġvir":2774,"Ġclearly":2775,"Ġnotwithstanding":2776,"Ġwal":2777,"da":2778,"Ġamerican":2779,"Ġla":2780,"Ġcompan":2781,"Ġremain":2782,"emption":2783,"ana":2784,"Ġquestions":2785,"Ġguilty":2786,"Ġburden":2787,"Ġability":2788,"Ġexpense":2789,"Ġarr":2790,"Ġlook":2791,"Ġguid":2792,"Ġcontracts":2793,"igh":2794,"Ġiii":2795,"Ġvis":2796,"rence":2797,"br":2798,"Ġsubstantially":2799,"Ġvictim":2800,"Ġprospect":2801,"Ġarising":2802,"Ġindebted":2803,"Ġacquisition":2804,"Ġassociation":2805,"cription":2806,"Ġclo":2807,"Ġmun":2808,"Ġpossible":2809,"Ġautom":2810,"Ġimm":2811,"Ġcriteria":2812,"uck":2813,"Ġlandlord":2814,"Ġcommissioner":2815,"Ġok":2816,"Ġunre":2817,"Ġdetail":2818,"Ġmax":2819,"nth":2820,"Ġphysical":2821,"Ġrevol":2822,"Ġ2001":2823,"Ġinterpret":2824,"ki":2825,"Ġcapacity":2826,"ental":2827,"ened":2828,"ilitary":2829,"Ġ2017":2830,"Ġcontroll":2831,"Ġwee":2832,"Ġrespective":2833,"nis":2834,"Ġserved":2835,"Ġcross":2836,"Ġappellee":2837,"Ġinternational":2838,"Ġsought":2839,"Ġsenior":2840,"Ġ(\"":2841,"Ġlabor":2842,"tr":2843,"Ġsex":2844,"Ġdetermining":2845,"isions":2846,"Ġsugg":2847,"Ġindebtedness":2848,"âĢĿ).":2849,"Ġsold":2850,"Ġaltern":2851,"Ġfif":2852,"Ġconflict":2853,"ĠĠĠĠĠĠĠĠĠĠĠĠĠĠĠĠĠĠĠĠĠĠĠĠĠĠĠĠĠĠĠĠĠĠĠĠĠ":2854,"Ġturn":2855,"Ġeligible":2856,"Ġacknowled":2857,"vered":2858,"Ġded":2859,"amp":2860,"Ġnorth":2861,"Ġunit":2862,"Ġrent":2863,"Ġassociated":2864,"bal":2865,"Ġdown":2866,"Ġcoven":2867,"Ġthereafter":2868,"Ġlikely":2869,"Ġusing":2870,"Ġ42":2871,"Ġdoct":2872,"Ġdelay":2873,"Ġaffirmed":2874,"rav":2875,"Ġremanded":2876,"oun":2877,"mon":2878,"ulated":2879,"Ġabuse":2880,"Ġclaimed":2881,"Ġaffairs":2882,"Ġbuyer":2883,"off":2884,"Ġcontends":2885,"Ġliabilities":2886,"inding":2887,"uation":2888,"98":2889,"Ġattorneys":2890,"Ġshown":2891,"Ġcompanies":2892,"ufact":2893,"Ġservic":2894,"Ġga":2895,"Ġpolicies":2896,"Ġfree":2897,"Ġ58":2898,"Ġrese":2899,"rimin":2900,"Ġ04":2901,"Ġfaith":2902,"Ġprec":2903,"Ġproof":2904,"Ġconstitutional":2905,"tex":2906,"Ġstep":2907,"Ġconsolidated":2908,"Ġthreat":2909,"Ġimprove":2910,"Ġwashington":2911,"Ġdivision":2912,"Ġdom":2913,"Ġadministration":2914,"Ġdan":2915,"Ġchair":2916,"................................................................":2917,"connected":2918,"Ġdecid":2919,"Ġmand":2920,"lies":2921,"Ġconvict":2922,"tle":2923,"page":2924,"Ġidentified":2925,"Ġconsistent":2926,"Ġmilitary":2927,"Ġimpair":2928,"ĠâĢĺ":2929,"rought":2930,"nin":2931,"ope":2932,"Ġcovered":2933,"Ġimposed":2934,"Ġfourt":2935,"Ġimplement":2936,"Ġoperation":2937,"nb":2938,"Ġ#:":2939,"Ġaccru":2940,"Ġstandards":2941,"Ġcommunity":2942,"Ġappear":2943,"Ġreim":2944,"Ġgreater":2945,"Ġmiss":2946,"ĠĠĠĠĠĠĠĠĠĠĠĠĠĠĠĠĠĠĠĠĠĠĠĠĠĠĠĠĠĠĠĠĠĠĠĠĠĠĠĠĠ":2947,"Ġregistered":2948,"side":2949,"Ġnothing":2950,"Ġcharged":2951,"Ġordered":2952,"thing":2953,"Ġpremises":2954,"Ġrepla":2955,"Ġexecution":2956,"Ġmanufact":2957,"Ġable":2958,"def":2959,"Ġaffiliates":2960,"97":2961,"rodu":2962,"Ġissuance":2963,"acter":2964,"Ġwithd":2965,"Ġmur":2966,"Ġdocket":2967,"Ġallegations":2968,"Ġfel":2969,"Ġwhole":2970,"Ġfunction":2971,"Ġincludes":2972,"Ġmere":2973,"Ġmaintain":2974,"Ġallowed":2975,"Ġtrade":2976,"Ġbrought":2977,"Ġdeposit":2978,"Ġsymptoms":2979,"Ġcrime":2980,"Ġhon":2981,"Ġbuilding":2982,"Ġgovernmental":2983,"500":2984,"Ġ________________":2985,"Ġ07":2986,"Ġexpressly":2987,"Ġattached":2988,"Ġpsy":2989,"Ġexpert":2990,"Ġsocial":2991,"Ġassu":2992,"Ġwor":2993,"Ġdeclar":2994,"Ġunits":2995,"Ġsaf":2996,"Ġstill":2997,"Ġarrest":2998,"Ġcontinued":2999,"Ġdesignated":3000,"Ġprevent":3001,"Ġpractice":3002,"Ġplans":3003,"Ġproviding":3004,"ĠĠĠĠĠĠĠĠĠĠĠĠĠĠĠĠĠĠĠĠĠĠĠĠĠĠĠĠĠĠĠĠĠĠĠĠĠĠĠĠĠĠĠĠĠĠĠĠĠĠĠĠ":3005,".Â·":3006,"ging":3007,"Ġcontemplated":3008,"Ġmanager":3009,"Ġrevolving":3010,"Ġpsych":3011,"dict":3012,"reen":3013,"Ġcler":3014,"Ġappoint":3015,"bs":3016,"Ġdoubt":3017,"Ġresulting":3018,"atic":3019,"Ġcommercial":3020,"ino":3021,"Ġassum":3022,"enced":3023,"Ġaccounting":3024,"cf":3025,"Ġpatent":3026,"Ġcorporate":3027,"iary":3028,"Ġinvestments":3029,"ĠĠĠĠĠĠĠĠĠĠĠĠĠĠĠĠĠĠĠĠĠĠĠĠĠĠĠĠĠĠĠĠĠĠĠĠĠĠĠĠĠĠĠĠ":3030,"rial":3031,"Ġothers":3032,"ng":3033,"ĠĠĠĠĠĠĠĠĠĠĠĠĠĠĠĠĠĠĠĠĠĠĠĠĠĠĠĠĠĠĠĠĠĠĠĠĠĠĠĠĠĠĠĠĠĠ":3034,"Ġtherein":3035,"Ġbegin":3036,"Ġsust":3037,"Ġsearch":3038,"Ġ:":3039,"va":3040,"fol":3041,"Ġknee":3042,"itation":3043,"vey":3044,"Ġmaterials":3045,"Ġprofess":3046,"Ġsmith":3047,"Ġdisposition":3048,"Ġsections":3049,"Ġorganization":3050,"Ġefforts":3051,"ival":3052,"Ġvoting":3053,"imate":3054,"Ġapproximately":3055,"Ġ78":3056,"Ġrevers":3057,".[":3058,"Ġmuch":3059,"Ġdispute":3060,"ott":3061,"Ġfar":3062,"Ġverdict":3063,"judic":3064,"Ġschedul":3065,"Ġitself":3066,"Ġsk":3067,"Ġobjection":3068,"ĠĠĠĠĠĠĠĠĠĠĠĠĠĠĠĠĠĠĠĠĠĠĠĠĠĠĠĠĠĠĠĠĠĠĠĠĠĠĠĠĠĠĠĠĠĠĠĠĠĠ":3069,"Ġprompt":3070,"Ġlimitations":3071,"Ġ34":3072,"Ġohio":3073,"ash":3074,"Ġenc":3075,"ĠĠĠĠĠĠĠĠĠĠĠĠĠĠĠĠĠĠĠĠĠĠĠĠĠĠĠĠĠĠĠĠĠĠĠĠĠĠĠĠĠĠĠĠĠĠĠĠĠ":3076,"Ġconse":3077,"Ġresponsible":3078,"Ġmemor":3079,"Ġconcur":3080,"Ġsusp":3081,"Ġtem":3082,"Ġconcluded":3083,"ready":3084,"Ġ33":3085,"Ġpled":3086,"sa":3087,"ĠĠĠĠĠĠĠĠĠĠĠĠĠĠĠĠĠĠĠĠĠĠĠĠĠĠĠĠĠĠĠĠĠĠĠĠĠĠĠĠĠĠ":3088,"Ġholders":3089,"ead":3090,"ask":3091,"Ġ90":3092,"Ġcommitted":3093,"Ġsingle":3094,"Ġvac":3095,"Ġlow":3096,"Ġagents":3097,"Ġnotify":3098,"Ġquot":3099,"ĠĠĠĠĠĠĠĠĠĠĠĠĠĠĠĠĠĠĠĠĠĠĠĠĠĠĠĠĠĠĠĠĠĠĠĠĠĠĠĠĠĠĠ":3100,"Ġsafety":3101,"ĠâĢ¢":3102,"Ġearlier":3103,"Ġvarious":3104,"Ġinvestigation":3105,"Ġcharacter":3106,"Ġduly":3107,"phas":3108,"Ġdedu":3109,"ida":3110,"iate":3111,"arc":3112,"Ġownership":3113,"Ġasset":3114,"Ġfix":3115,"respon":3116,"Ġindirect":3117,"Ġmother":3118,"omet":3119,"Ġshowing":3120,"ĠĠĠĠĠĠĠĠĠĠĠĠĠĠĠĠĠĠĠĠĠĠĠĠĠĠĠĠĠĠĠĠĠĠĠĠĠĠĠĠĠĠĠĠĠĠĠ":3121,"Ġfactual":3122,"Ġcompetent":3123,"Ġlower":3124,"Ġconducted":3125,"Ġpotential":3126,"Ġ05":3127,"Ġactually":3128,"Ġgiving":3129,"ergy":3130,"Ġje":3131,"94":3132,"ators":3133,"Ġavoid":3134,"ues":3135,",\\":3136,"Ġdegree":3137,"Ġdiss":3138,"employ":3139,"eness":3140,"int":3141,"Ġflo":3142,"Ġteleph":3143,"ny":3144,"Ġ{":3145,"ba":3146,"Ġess":3147,"Ġnat":3148,"Ġobserv":3149,"Ġextension":3150,"Ġcurrently":3151,"eep":3152,"Ġsmall":3153,"Ġoccup":3154,"nes":3155,"Ġbonds":3156,"Ġhelp":3157,"Ġjob":3158,"Ġalready":3159,"ĠĠĠĠĠĠĠĠĠĠĠĠĠĠĠĠĠĠĠĠĠĠĠĠĠĠĠĠĠĠĠĠĠĠĠĠĠĠĠĠĠĠĠĠĠ":3160,"Ġqualified":3161,"ĠĠĠĠĠĠĠĠĠĠĠĠĠĠĠĠĠĠĠĠĠĠĠĠĠĠĠĠĠĠĠĠĠĠĠĠĠĠĠĠĠĠĠĠĠĠĠĠĠĠĠ":3162,"Ġformer":3163,"Ġentry":3164,"Ġholdings":3165,"Ġimpact":3166,"Ġdischarge":3167,"Ġactivity":3168,")).":3169,"Ġ101":3170,"Ġul":3171,"Ġtimely":3172,"ointed":3173,"ha":3174,"Ġmultip":3175,"Ġeducation":3176,"Ġconclude":3177,"Ġvote":3178,"Ġoptions":3179,"Ġgas":3180,"Ġhigher":3181,"lin":3182,"np":3183,"erences":3184,"ordin":3185,"Ġdra":3186,"Ġroad":3187,"Ġspe":3188,"Ġamerica":3189,"Ġcomment":3190,"cing":3191,"quot":3192,"Ġoffered":3193,"Ġlocated":3194,"Ġbook":3195,"Ġpending":3196,"Ġow":3197,"Ġinstructions":3198,"Ġclose":3199,"Ġ68":3200,"Ġwitnesses":3201,"Ġforward":3202,"Ġ1999":3203,"Ġportfol":3204,"Ġweight":3205,"yond":3206,"Ġpast":3207,"Ġintrodu":3208,"Ġended":3209,"icles":3210,"Ġthough":3211,"Ġeuro":3212,"ris":3213,"Ġexample":3214,"Ġâ":3215,"ries":3216,"sign":3217,"ference":3218,"ada":3219,"play":3220,"Ġnegligence":3221,"Ġintention":3222,"Ġaggrav":3223,"Ġdecisions":3224,"Ġdone":3225,"rs":3226,"Ġincident":3227,"Ġworking":3228,"ource":3229,"Ġensure":3230,"td":3231,"che":3232,"xx":3233,"Ġ99":3234,"Ġrepresentation":3235,"rev":3236,"Ġbenefici":3237,"do":3238,"Ġvolunt":3239,"Ġdiscovery":3240,"idav":3241,"rq":3242,"utor":3243,"itable":3244,"Ġ32":3245,"iciency":3246,"Ġsolely":3247,"Ġwhy":3248,"Ġcalled":3249,"Ġpow":3250,"Ġacquired":3251,"Ġinvestig":3252,"Ġprograms":3253,"Ġbla":3254,"Ġmedic":3255,"ones":3256,"Ġpun":3257,"nand":3258,"Ġimportant":3259,".'":3260,"Ġclerk":3261,"Ġexpected":3262,"Ġremaining":3263,"anch":3264,"lex":3265,"Ġdismissed":3266,"Ġliable":3267,"bor":3268,"Ġunderstand":3269,"Ġ08":3270,"ĠĠĠĠĠĠĠĠĠĠĠĠĠĠĠĠĠĠĠĠĠĠĠĠĠĠĠĠĠĠĠĠĠĠĠĠĠĠĠĠĠĠĠĠĠĠĠĠĠĠĠĠĠ":3271,"Ġcommitment":3272,"Ġbeyond":3273,"iving":3274,"Ġrepresentations":3275,"Ġerred":3276,"Ġperformed":3277,"lished":3278,"Ġsl":3279,"Ġnone":3280,"Ġadministrator":3281,"let":3282,"Ġlisted":3283,"text":3284,"Ġoutside":3285,"Ġaffidav":3286,"Ġadmitted":3287,"nh":3288,"Ġguarantor":3289,"Ġorders":3290,"Ġordinary":3291,"Ġaudit":3292,"Ġaverage":3293,"Ġhum":3294,"Ġdenial":3295,"Ġaccident":3296,"Ġplea":3297,"Ġund":3298,"Ġtaking":3299,"enum":3300,"Ġlay":3301,"Ġinsured":3302,"Ġinstrument":3303,"laware":3304,"Ġ106":3305,"Ġfacilities":3306,"Ġdamage":3307,"Ġevents":3308,"Ġren":3309,"Ġappellants":3310,"Ġcarry":3311,"Ġleave":3312,"Ġresearch":3313,"Ġ79":3314,"Ġarrange":3315,"Ġprison":3316,"Ġminimum":3317,"Ġreject":3318,"Ġmaximum":3319,"Ġsouth":3320,"Ġalloc":3321,"Ġ1997":3322,"opp":3323,"Ġafford":3324,"Ġdiscrimin":3325,"Ġretire":3326,"year":3327,"Ġconsult":3328,"Ġrob":3329,"Ġportfolio":3330,"get":3331,"Ġarbitration":3332,"ext":3333,"Ġcompleted":3334,"Ġflor":3335,"Ġenergy":3336,"ared":3337,"erted":3338,"Ġ37":3339,"ugh":3340,"Ġconversion":3341,"Ġreimburse":3342,"Ġtransport":3343,"Ġprep":3344,"Ġhours":3345,"Ġitems":3346,"Ġreserv":3347,"Ġrecommend":3348,"Ġreviewed":3349,"ston":3350,"Ġdelaware":3351,"Ġprivile":3352,"Ġassessment":3353,"Ġrepresented":3354,"Ġkind":3355,"Ġresources":3356,"paragraph":3357,"Ġfal":3358,"roll":3359,"icipal":3360,"Ġinstruction":3361,"Ġaccomp":3362,"Ġnormal":3363,"Ġabsence":3364,"Ġraised":3365,"Ġrat":3366,"rel":3367,"Ġaffected":3368,"Ġmut":3369,"Ġstaff":3370,"Ġsuggest":3371,"Ġeconomic":3372,"Ġprofessional":3373,"Ġindenture":3374,"Ġmemorand":3375,"Ġmental":3376,"Ġdefer":3377,"Ġgross":3378,"Ġregional":3379,"Ġut":3380,"Ġ44":3381,"Ġanything":3382,"Ġsatisfied":3383,"Ġgrounds":3384,"Ġconfirm":3385,"rep":3386,"Ġbon":3387,"Ġ69":3388,"Ġcustody":3389,"chan":3390,"Ġsubd":3391,"ters":3392,"enth":3393,"Ġunderlying":3394,"Ġchairman":3395,"Ġlot":3396,"Ġage":3397,"Ġprejudice":3398,"Ġrevis":3399,"Ġfunding":3400,"Ġsentencing":3401,"Ġmunicipal":3402,"holding":3403,"Ġadequate":3404,"Ġreli":3405,"Ġtraining":3406,"Ġtelephone":3407,"Ġselect":3408,"ences":3409,"Ġ1998":3410,"Ġflorida":3411,"Ġproperties":3412,"Ġdeb":3413,"//":3414,"ferred":3415,"Ġsystems":3416,"Ġ88":3417,"Ġ46":3418,"Ġrange":3419,"Ġcreated":3420,"Ġdiffic":3421,"Ġdiscl":3422,"pared":3423,"Ġ\"[":3424,"2017":3425,"Ġfirm":3426,"wl":3427,"Ġ%":3428,"Ġstri":3429,"Ġtrad":3430,"Ġmal":3431,"Ġwil":3432,"Ġunf":3433,"Ġacting":3434,"Ġpercentage":3435,"Ġthings":3436,"Ġconstrued":3437,"amed":3438,"Ġimpairment":3439,"Ġtreas":3440,"Ġpartner":3441,"Ġonce":3442,"uting":3443,"Ġcard":3444,"section":3445,"eration":3446,"Ġadvance":3447,"Ġshows":3448,"Ġiv":3449,"aled":3450,"vere":3451,"Ġcooper":3452,"Ġfails":3453,"Ġengaged":3454,"Ġadopted":3455,"Ġ98":3456,"rees":3457,"Ġlonger":3458,"Ġthank":3459,"Ġ...":3460,"Ġappears":3461,"Ġbinding":3462,"Ġalternative":3463,"Ġelectronic":3464,"Ġbody":3465,"name":3466,"rem":3467,"Ġindividuals":3468,"Ġgun":3469,"ually":3470,"Ġadjudic":3471,"well":3472,"respond":3473,"mb":3474,"Ġphysici":3475,"ĠĠĠĠĠĠĠĠĠĠĠĠĠĠĠĠĠĠĠĠĠĠĠĠĠĠĠĠĠĠĠĠĠĠĠĠĠĠĠĠĠĠĠĠĠĠĠĠĠĠĠĠĠĠ":3476,"agree":3477,"Ġfinally":3478,"urity":3479,"Ġ89":3480,"Ġ02":3481,"Ġcountry":3482,"Ġpresum":3483,"Ġarm":3484,"iat":3485,"Ġcommunications":3486,"Ġequival":3487,"Ġsurv":3488,"Ġseeking":3489,"Ġface":3490,"Ġstanding":3491,"itution":3492,"Ġ00":3493,"Ġunp":3494,"Ġleader":3495,"set":3496,"Ġstatutes":3497,"Ġinstead":3498,"Ġterminated":3499,"Ġinstitution":3500,"Ġexistence":3501,"Ġpo":3502,"Ġwords":3503,"ls":3504,"Ġfourth":3505,"lu":3506,"Ġ03":3507,"ael":3508,"Ġexclud":3509,".]":3510,"Ġtook":3511,"ilateral":3512,"Ġlicens":3513,"Ġdecided":3514,"Ġrepe":3515,"Ġdiscussed":3516,"Ġpred":3517,"omin":3518,"Ġmoreover":3519,"ostic":3520,"cle":3521,"laim":3522,"Ġterminate":3523,"term":3524,"Ġtransferred":3525,"izing":3526,"Ġmotor":3527,"Ġretirement":3528,"Ġtal":3529,"organ":3530,"Ġbroad":3531,"Ġcarri":3532,"Ġcho":3533,"Ġcontain":3534,"Ġshareholders":3535,"Ġwhom":3536,"Ġprepared":3537,"Ġemerg":3538,"Ġ1996":3539,"Ġpurchased":3540,"Ġdirected":3541,"Ġsimp":3542,"fed":3543,"Ġstart":3544,"Ġrecognized":3545,"Ġrecent":3546,"Ġserve":3547,"gal":3548,"Ġ120":3549,"Ġce":3550,"fr":3551,"Ġwife":3552,"Ġmemorandum":3553,"Ġtable":3554,"urch":3555,"cert":3556,"Ġremedies":3557,"Ġemail":3558,"enance":3559,"Ġfall":3560,"Ġbound":3561,"Ġexpo":3562,"Ġwhose":3563,"Ġproduction":3564,"Ġseek":3565,"Ġmanif":3566,"Ġplead":3567,"rist":3568,"Ġrates":3569,"Ġwithdraw":3570,"Ġdeed":3571,"Ġdiagnostic":3572,"Ġdollars":3573,"Ġ47":3574,"Ġunable":3575,"Ġdebtors":3576,"Ġworld":3577,"effect":3578,"Ġpromptly":3579,"Ġstruct":3580,"Ġlarge":3581,"Ġclin":3582,"Ġaccepted":3583,"Ġstrateg":3584,"Ġfalse":3585,"Ġreturned":3586,"Ġoil":3587,"Ġjames":3588,"Ġpan":3589,"Ġglo":3590,"Ġexception":3591,"Ġfather":3592,"endar":3593,"Ġcertified":3594,"Ġsomet":3595,"Ġ53":3596,"orm":3597,"Ġap":3598,"Ġprove":3599,"Ġapplies":3600,"Ġjohnson":3601,"?\\":3602,"Ġsuccessor":3603,"Ġtreated":3604,"Ġrequests":3605,"Ġpaper":3606,"action":3607,"Ġperiods":3608,"Ġbecom":3609,"Ġenvironmental":3610,"Ġnegot":3611,"Ġinterpretation":3612,"Ġ|":3613,"Ġrobert":3614,"Ġinstall":3615,"umn":3616,"Ġmerits":3617,"Ġrich":3618,"Ġrun":3619,"Ġremedy":3620,"Ġregulatory":3621,"Ġneeded":3622,"Ġcontinuing":3623,"Ġmid":3624,"Ġrecovery":3625,"Ġur":3626,"Ġmark":3627,"Ġrestrictions":3628,"Ġmakes":3629,"Ġcounterpart":3630,"Ġregular":3631,"tsd":3632,"Ġruling":3633,"Ġcalendar":3634,"Ġfirearm":3635,"Ġdisabilities":3636,"Ġblack":3637,"Ġwarrants":3638,"):":3639,"Ġcover":3640,"Ġinqu":3641,"Ġfield":3642,"phasis":3643,"Ġwrong":3644,"Ġgeor":3645,"more":3646,"Ġmaintenance":3647,"Ġ{Â¶":3648,"Ġunivers":3649,"Ġmerger":3650,"Ġsubstance":3651,"Ġwash":3652,"Ġprinciples":3653,"right":3654,"thern":3655,"Ġrecover":3656,"Ġ56":3657,"Ġoffering":3658,"service":3659,"Ġaf":3660,"nam":3661,"eng":3662,"Ġbox":3663,"Ġsupplemental":3664,"Ġprimary":3665,"oints":3666,"aa":3667,"inent":3668,"Ġscope":3669,"Ġstay":3670,"Ġemployed":3671,"pir":3672,"Ġinformed":3673,"erce":3674,"Ġexposure":3675,"Ġ80":3676,"ients":3677,"Ġptsd":3678,"Ġny":3679,"ĠĠĠĠĠĠĠĠĠĠĠĠĠĠĠĠĠĠĠĠĠĠĠĠĠĠĠĠĠĠĠĠĠĠĠĠĠĠĠĠĠĠĠĠĠĠĠĠĠĠĠĠĠĠĠĠĠĠĠĠĠĠĠĠĠĠĠĠĠĠĠĠĠĠĠĠĠĠĠĠĠĠĠĠĠĠĠĠĠĠĠĠĠĠĠĠĠĠĠĠĠĠĠĠĠĠĠĠĠĠĠĠĠĠĠĠĠĠĠĠĠĠĠĠĠĠĠĠĠĠĠĠĠĠĠĠĠĠĠĠĠĠĠĠĠĠĠĠĠĠĠĠĠĠĠĠĠĠĠĠĠĠĠĠĠĠĠĠĠĠĠĠĠĠĠĠĠĠĠĠĠĠĠĠĠĠĠĠĠĠĠĠĠĠĠĠĠĠĠĠĠĠĠĠĠĠĠĠĠĠĠĠĠĠĠĠĠĠĠĠĠĠĠĠĠĠĠĠĠĠĠĠĠĠĠĠĠĠĠĠĠĠĠĠĠĠĠĠĠĠĠĠĠĠĠĠ":3680,"view":3681,"Ġincorporated":3682,"cil":3683,"Ġconn":3684,"aking":3685,"gh":3686,"Ġ75":3687,"Ġinvolving":3688,"Ġresponsibility":3689,"cement":3690,"Ġconclusions":3691,"Ġthom":3692,"ĠâĢľ[":3693,"Ġ41":3694,"dc":3695,"uh":3696,"ford":3697,"ery":3698,"Ġgranting":3699,"Ġrend":3700,"Ġresolution":3701,"Ġ1995":3702,"Ġrow":3703,"Ġexplained":3704,"Ġplaced":3705,"Ġmove":3706,"85":3707,"Ġcontrols":3708,"Ġargued":3709,"Ġcovenants":3710,"Ġtyp":3711,"Ġrepresentatives":3712,"Ġaware":3713,"Ġlou":3714,"Ġfinancing":3715,"Ġenact":3716,"Ġ43":3717,"Ġdoctr":3718,"Ġproblems":3719,"Ġvice":3720,"></":3721,"Ġpet":3722,"Ġhuman":3723,"Ġasserted":3724,"Ġdire":3725,"van":3726,"Ġmcc":3727,"Ġbeginning":3728,"Ġdoing":3729,"Ġcreate":3730,"âĢĲ":3731,"Ġindicate":3732,"Ġcateg":3733,"Ġreduction":3734,"Ġfarm":3735,"Ġliens":3736,"att":3737,"___":3738,"Ġperman":3739,"Ġpertinent":3740,"Ġminor":3741,"Ġjr":3742,"Ġtown":3743,"ipp":3744,"using":3745,"ĠĠĠĠĠĠĠĠĠĠĠĠĠĠĠĠĠĠĠĠĠĠĠĠĠĠĠĠĠĠĠĠĠĠĠĠĠĠĠĠĠĠĠĠĠĠĠĠĠĠĠĠĠĠĠ":3746,"Ġmichael":3747,"Ġdescription":3748,"Ġkeep":3749,"Ġrenew":3750,"Ġidentify":3751,"Ġtaxpay":3752,"rog":3753,"isa":3754,"Ġserious":3755,"Ġcitiz":3756,"ously":3757,"Ġrad":3758,"Ġfri":3759,"Ġweek":3760,"Ġtempor":3761,"vi":3762,"Ġnear":3763,"Ġimproper":3764,"Ġparticipation":3765,"Ġlegislature":3766,"Ġinjur":3767,"Ġpersonnel":3768,"Ġpreceding":3769,"Ġletters":3770,"enty":3771,"time":3772,"Ġoral":3773,"Ġdavid":3774,"Ġinvestor":3775,"101":3776,"ism":3777,"ene":3778,"Ġltd":3779,"93":3780,"Ġentities":3781,"Ġrecon":3782,"Ġpowers":3783,"Ġeas":3784,"Ġreve":3785,"90":3786,"Ġhard":3787,"Ġbud":3788,"://":3789,"Ġdiscussion":3790,"ublic":3791,"Ġwis":3792,"rency":3793,"Ġamendments":3794,"Ġdiagnosis":3795,"Ġinsure":3796,"Ġpremium":3797,"Ġcome":3798,"ering":3799,"Ġalign":3800,"Ġsimply":3801,"Ġmit":3802,"Ġ55":3803,"Ġguard":3804,"Ġestim":3805,"nw":3806,"Ġexperience":3807,"Ġult":3808,"Ġaddressed":3809,"Ġwl":3810,"Ġyet":3811,"net":3812,"Ġwat":3813,"Ġaffiliate":3814,"Ġcited":3815,"non":3816,"but":3817,"Ġtechnology":3818,"encing":3819,"Ġ5103":3820,"Ġplus":3821,"Ġpriority":3822,"Ġsupported":3823,"Ġcontrolled":3824,"Ġflow":3825,"Ġside":3826,"Ġaccrued":3827,"cted":3828,"ma":3829,"Ġmonthly":3830,"Ġservicer":3831,"Ġcomput":3832,"sey":3833,"Ġcertificates":3834,"Ġareas":3835,"Ġfoot":3836,"Ġsexual":3837,"Ġ70":3838,"Ġnotices":3839,"ico":3840,"Ġbring":3841,"Ġdenying":3842,"Ġviolated":3843,"Ġlosses":3844,"Ġaccur":3845,"ograph":3846,"Ġpartners":3847,"ground":3848,"Ġpreferred":3849,"Ġtraff":3850,"Ġmaster":3851,"Ġwhite":3852,"fficient":3853,"Ġguidel":3854,"Ġmultiple":3855,"dq":3856,"Ġreceiving":3857,"Ġelements":3858,"Ġcopies":3859,"Ġrender":3860,"Ġaffidavit":3861,"effective":3862,"appro":3863,"ront":3864,"Ġsure":3865,"Ġagencies":3866,"Ġbilateral":3867,"band":3868,"anced":3869,"Ġtarge":3870,"Ġrendered":3871,"Ġmodified":3872,"95":3873,"Ġmil":3874,"alid":3875,"Ġpractices":3876,"Ġpenalty":3877,"here":3878,"Ġgoverning":3879,"Ġwent":3880,"Ġhous":3881,"Ġawards":3882,"Ġgrow":3883,"Ġ1991":3884,"Ġcontent":3885,"Ġsuperior":3886,"Ġsignature":3887,"Ġgreen":3888,"Ġattrib":3889,"Ġwarranted":3890,"df":3891,"Ġdoctrine":3892,"ĪĻ":3893,"Ġcommerce":3894,"Ġopinions":3895,"Ġdisplay":3896,"missible":3897,"Ġindustry":3898,"Ġindict":3899,"Ġcouncil":3900,"Ġspine":3901,"ml":3902,"Ġhonor":3903,"Ġprosecution":3904,"Ġprel":3905,"ored":3906,"payment":3907,"Ġcustomer":3908,"Ġinvalid":3909,"Ġille":3910,"Ġcontractor":3911,"Ġthomas":3912,"96":3913,"Ġach":3914,"Ġborrowing":3915,"Ġball":3916,"Ġissuing":3917,".âĢĻ":3918,"Ġincent":3919,"oy":3920,"npro":3921,"Ġdesigned":3922,"Ġreserve":3923,"ĠĠĠĠĠĠĠĠĠĠĠĠĠĠĠĠĠĠĠĠĠĠĠĠĠĠĠĠĠĠĠĠĠĠĠĠĠĠĠĠĠĠĠĠĠĠĠĠĠĠĠĠĠĠĠĠ":3924,"Ġcontext":3925,"Ġinjuries":3926,"Ġpolit":3927,"Ġmerely":3928,"Ġaid":3929,"mo":3930,"Ġprelimin":3931,"Ġnatural":3932,"Ġfeet":3933,"Ġmurder":3934,"Ġbi":3935,"Ġprobation":3936,"based":3937,"Ġvest":3938,"signed":3939,"Ġstip":3940,"wealth":3941,"Ġcreditors":3942,"aily":3943,"lq":3944,"111":3945,"Ġchallenge":3946,"emphasis":3947,"nre":3948,"Ġmag":3949,"que":3950,"Ġmass":3951,"Ġprospectus":3952,"Ġtrading":3953,"rison":3954,"Ġappointed":3955,"Ġ51":3956,"cript":3957,"writ":3958,"Ġthirty":3959,"Ġpromot":3960,"Ġreduced":3961,"Ġdefect":3962,"Ġreop":3963,"iated":3964,"Ġplease":3965,"Ġpropos":3966,"Ġsheet":3967,"Ġmain":3968,"ories":3969,"Ġpsychiat":3970,"ams":3971,"Ġwaived":3972,"Ġsubdiv":3973,"Ġunreason":3974,"gov":3975,"Ġmrs":3976,"ression":3977,"Ġremoval":3978,"\")":3979,"Ġfixed":3980,"Ġapparent":3981,"Ġthereby":3982,"Ġsource":3983,"nings":3984,"Ġ65":3985,"Ġpreliminary":3986,"Ġmotions":3987,"Ġdecla":3988,"field":3989,"Ġlittle":3990,"istent":3991,"Ġstop":3992,"erson":3993,"Ġhimself":3994,"Ġfoc":3995,"Ġlocation":3996,"Ġcommonwealth":3997,"Ġlegislative":3998,"quoting":3999,"caa":4000,"ham":4001,"Ġelement":4002,"Ġexempt":4003,"Ġwea":4004,"Ġquality":4005,"Ġdegrees":4006,"Ġglobal":4007,"nex":4008,"Ġchronic":4009,"Ġ54":4010,"Ġmart":4011,"Ġmaintained":4012,"Ġ1994":4013,"doc":4014,"Ġcollection":4015,"Ġphysician":4016,"Ġexpir":4017,"Ġ2021":4018,"po":4019,"column":4020,"ĠĠĠĠĠĠĠĠĠĠĠĠĠĠĠĠĠĠĠĠĠĠĠĠĠĠĠĠĠĠĠĠĠĠĠĠĠĠĠĠĠĠĠĠĠĠĠĠĠĠĠĠĠĠĠĠĠ":4021,"Ġdele":4022,"Ġjones":4023,"ration":4024,"Ġattack":4025,"Ġ52":4026,"which":4027,"wide":4028,"Ġsituation":4029,"Ġ77":4030,"Ġwarranties":4031,"Ġnamed":4032,"ds":4033,"Ġtell":4034,"Ġself":4035,"Ġlead":4036,"Ġgrand":4037,"Ġdaily":4038,"Ġexists":4039,"Ġrequiring":4040,"Ġfurnis":4041,"ship":4042,"conduct":4043,"oke":4044,"Ġindirectly":4045,"Ġhab":4046,"appell":4047,"lor":4048,"comm":4049,"Ġvari":4050,"Ġ97":4051,"Ġcolname":4052,"Ġhtt":4053,"idge":4054,"ump":4055,"Ġmention":4056,"ville":4057,"Ġheard":4058,"Ġ66":4059,"%,":4060,"ables":4061,"Ġles":4062,"Ġcance":4063,"Ġcertification":4064,"Ġnov":4065,"inois":4066,"Ġdisclosed":4067,"Ġdeposition":4068,"Ġhapp":4069,"86":4070,"Ġdil":4071,"Ġassistant":4072,"Ġtoday":4073,"Ġclient":4074,"Ġjack":4075,"Ġdeclaration":4076,"Ġtesting":4077,"Ġcod":4078,"Ġunlaw":4079,"Ġappointment":4080,"Ġneeds":4081,"Ġroom":4082,"lder":4083,"Ġdanger":4084,"Ġtort":4085,"overed":4086,"Ġcorrespond":4087,"nto":4088,"atter":4089,"Ġrein":4090,"Ġdescrib":4091,"Ġblo":4092,"Ġ1993":4093,"ĠĠĠĠĠĠĠĠĠĠĠĠĠĠĠĠĠĠĠĠĠĠĠĠĠĠĠĠĠĠĠĠĠĠĠĠĠĠĠĠĠĠĠĠĠĠĠĠĠĠĠĠĠĠĠĠĠĠ":4094,"Ġbeneficiary":4095,"84":4096,"ways":4097,"Ġcomplaints":4098,"claim":4099,"Ġmary":4100,"Ġadjustment":4101,"Ġhen":4102,"Ġknew":4103,"pons":4104,"Ġseparation":4105,"Ġfinance":4106,"Ġever":4107,"where":4108,"nit":4109,"sd":4110,"81":4111,"Ġearly":4112,"Ġliquidation":4113,"Ġoccas":4114,"izes":4115,"Ġber":4116,"Ġcustomers":4117,"sus":4118,"Ġ________________________________":4119,"Ġsafe":4120,"aska":4121,"ev":4122,"yy":4123,"Ġsubs":4124,"Ġreach":4125,"Ġcontains":4126,"hen":4127,"Ġfifth":4128,"Ġpark":4129,"Ġdecree":4130,"Ġaround":4131,"Ġwilliams":4132,"af":4133,"Ġgave":4134,"Ġdismissal":4135,"Ġoccurrence":4136,"*]":4137,"uty":4138,"Ġconvicted":4139,"Ġdisab":4140,"****":4141,"Ġvirgin":4142,"Ġundersigned":4143,"Ġinstruments":4144,"ole":4145,"Ġgl":4146,"Ġachie":4147,"Ġattention":4148,"Ġhus":4149,"Ġinjunction":4150,"Ġbid":4151,"Ġintegr":4152,"Ġ1983":4153,"that":4154,"Ġapplicant":4155,"Ġ94":4156,"Ġillinois":4157,"Ġawarded":4158,"eas":4159,"Ġengine":4160,"Ġaggravated":4161,"Ġborrowers":4162,"Ġtwenty":4163,"ble":4164,"Ġundert":4165,"Ġsenator":4166,"Ġdetermines":4167,"gue":4168,"Ġexpiration":4169,"Ġexperi":4170,"izations":4171,"Ġtim":4172,"Ġemergency":4173,"Ġprovider":4174,"Ġinquir":4175,"asing":4176,"estic":4177,"Ġsite":4178,"Ġinsufficient":4179,"âĢ¦":4180,"Ġextended":4181,"Ġplain":4182,"Ġbecomes":4183,"Ġshareholder":4184,"ney":4185,"Ġequitable":4186,"Ġju":4187,"Ġpolitical":4188,"82":4189,"Ġtravel":4190,"Ġinvent":4191,"ancy":4192,"ald":4193,"iveness":4194,"Ġask":4195,"Ġarguments":4196,"Ġcreditor":4197,"ifications":4198,"ste":4199,"Ġcam":4200,"Ġfid":4201,"acc":4202,"Ġlouis":4203,"sed":4204,"ado":4205,"Ġexpect":4206,"Ġsalary":4207,"Ġbecame":4208,"Ġ11100":4209,"Ġprosecutor":4210,"Ġcontention":4211,"aches":4212,"Ġtruck":4213,"bl":4214,"Ġdiscrimination":4215,"nn":4216,"Ġfactor":4217,"vania":4218,"====":4219,"Ġincons":4220,"Ġcommitments":4221,"Ġfelony":4222,"Ġconstitutes":4223,"Ġbudget":4224,"ores":4225,"Ġdest":4226,"Ġreversed":4227,"Ġsatisfy":4228,"Ġscheduled":4229,"Ġgain":4230,"159":4231,"Ġstockholders":4232,"Ġworkers":4233,"Ġmanufacture":4234,"Ġmus":4235,"Ġold":4236,"Ġconsequ":4237,"Ġequivalent":4238,"Ġsupply":4239,"Ġalong":4240,"nsyl":4241,"undred":4242,"dis":4243,"Ġfailing":4244,"Ġjoin":4245,"Ġsuite":4246,"Ġsuffered":4247,"Ġviolations":4248,"Ġconvey":4249,"Ġfew":4250,"Ġcompar":4251,"Ġauthorities":4252,"Ġpension":4253,"Ġseem":4254,"nsylvania":4255,"Ġsher":4256,"etary":4257,"Ġattach":4258,"Ġincentive":4259,"Ġsustained":4260,"Ġmodification":4261,"Ġtemporary":4262,"Ġguidelines":4263,"oma":4264,"Ġdraw":4265,"Ġhear":4266,"Ġpack":4267,"Ġrail":4268,"mod":4269,"))":4270,"itis":4271,"Ġsevere":4272,"Ġcentral":4273,"87":4274,"Ġdecre":4275,"Ġnetwork":4276,"Ġuniversity":4277,"2019":4278,"Ġwood":4279,"held":4280,"Ġmaturity":4281,"Ġtransportation":4282,"Ġbegan":4283,"Ġguaranty":4284,"Ġexclusive":4285,"nthat":4286,"erated":4287,"Ġdisagree":4288,"Ġenh":4289,"Ġpossess":4290,"Ġstress":4291,"Ġmarri":4292,"ignee":4293,"Ġmoved":4294,"Ġreduce":4295,"Ġasserts":4296,"supp":4297,"Ġillegal":4298,"Ġhusband":4299,"Ġadditionally":4300,"Ġcompon":4301,"Ġinvestors":4302,"sg":4303,"Ġproblem":4304,"Ġacknowledges":4305,"Ġbroker":4306,"Ġ95":4307,"wkh":4308,"usal":4309,"Ġgar":4310,"entially":4311,"Ġtoo":4312,"Ġfavorable":4313,"Ġpennsylvania":4314,"Ġdc":4315,"Ġjer":4316,"Ġ85":4317,"Ġtaxpayer":4318,"gen":4319,"ifies":4320,"ift":4321,"ldr":4322,"Ġparticipate":4323,"Ġforfe":4324,"Ġprotected":4325,"Ġmutual":4326,"add":4327,"ecess":4328,"Ġsubsequently":4329,"rew":4330,"Ġvalidity":4331,"Ġrichard":4332,"Ġhundred":4333,"Ġabsent":4334,"sep":4335,"Ġsolic":4336,"Ġmaterially":4337,"Ġpm":4338,"Ġassault":4339,"Ġrecip":4340,"Ġfood":4341,"Ġarch":4342,"Ġredemption":4343,"Ġlib":4344,"Ġcommence":4345,"Ġidentification":4346,"Ġrisks":4347,"%)":4348,"Ġrelative":4349,"Ġblock":4350,"Ġrespects":4351,"Ġpreference":4352,"Ġdead":4353,"Ġphone":4354,"ctive":4355,"Ġvide":4356,"Ġesc":4357,"Ġmanifest":4358,"citing":4359,"ocation":4360,"mar":4361,"Ġdistributions":4362,"Ġreimbursement":4363,"Ġindex":4364,"Ġmisconduct":4365,"Ġfun":4366,"Ġindicates":4367,"Ġindemnification":4368,"Ġobtaining":4369,"Ġnav":4370,"this":4371,"Ġmess":4372,"Ġcy":4373,"ky":4374,"Ġresident":4375,"Ġvirginia":4376,"83":4377,"Ġinstant":4378,"Ġpoints":4379,"yes":4380,"ea":4381,"Ġ91":4382,"qual":4383,"Ġafforded":4384,"Ġllp":4385,"Ġthereunder":4386,"1999":4387,"celer":4388,"quently":4389,"Ġhousing":4390,"ological":4391,"whether":4392,"mail":4393,"Ġcommunication":4394,"igence":4395,"cb":4396,"come":4397,"pat":4398,"Ġcurrency":4399,"Ġgra":4400,"Ġreorgan":4401,"Ġ71":4402,"Ġrole":4403,"Ġtreasury":4404,"Ġchrist":4405,"mer":4406,"Ġeight":4407,"men":4408,"Ġcame":4409,"Ġresulted":4410,"Ġindeed":4411,"Ġcomments":4412,"ray":4413,"Ġseeks":4414,"ished":4415,"ichol":4416,"related":4417,"berg":4418,"pite":4419,"olute":4420,"Ġsecure":4421,"Ġmeasure":4422,"Ġsam":4423,"rul":4424,"Ġstrong":4425,"Ġlimits":4426,"Ġdiagnosed":4427,"Ġkey":4428,"Ġtro":4429,"nof":4430,"Ġunpaid":4431,"aut":4432,"Ġpetitioners":4433,"Ġ57":4434,"Ġrelied":4435,"Ġjudges":4436,"Ġpanel":4437,"tion":4438,"ik":4439,"Ġconsumer":4440,"Ġgoods":4441,"Ġrecorded":4442,"102":4443,"Ġexpressed":4444,"ingu":4445,"Ġtaxable":4446,"Ġsaw":4447,"Ġ................................................................":4448,"ye":4449,"bank":4450,"Ġsil":4451,"hu":4452,"],":4453,"91":4454,"Ġgot":4455,"____________":4456,"cra":4457,"Ġnation":4458,"Ġpermanent":4459,"Ġwhereas":4460,"Ġtheory":4461,"Ġattempted":4462,"Ġfrank":4463,"Ġauthorization":4464,"Ġinfring":4465,"vest":4466,"Ġcounts":4467,"aine":4468,"92":4469,"Ġestablishing":4470,"Ġnichol":4471,"Ġstating":4472,"Ġexemption":4473,"Ġ1992":4474,"Ġunderstanding":4475,"Ġtrustees":4476,"inline":4477,"rey":4478,"Ġsatisfact":4479,"Ġindictment":4480,"Ġlar":4481,"utable":4482,"Ġinspe":4483,"Ġ63":4484,"ĠĠĠĠĠĠĠĠĠĠĠĠĠĠĠĠĠĠĠĠĠĠĠĠĠĠĠĠĠĠĠĠĠĠĠĠĠĠĠĠĠĠĠĠĠĠĠĠĠĠĠĠĠĠĠĠĠĠĠ":4485,"Ġregardless":4486,"Ġalone":4487,"Ġproduce":4488,"Ġ96":4489,"Ġrowsep":4490,"Ġavenue":4491,"Ġsoft":4492,"Ġ67":4493,"Ġrefused":4494,"Ġ74":4495,"Ġ61":4496,"Ġwithholding":4497,"Ġtoward":4498,"Ġrepay":4499,"Ġpreclud":4500,"Ġsubdivision":4501,"Ġsav":4502,"Ġprivilege":4503,"Ġinvolve":4504,"Ġdollar":4505,"Ġargue":4506,"Ġpsychiatric":4507,"bar":4508,"zard":4509,"Ġparticularly":4510,"Ġraise":4511,"Ġdomestic":4512,"Ġconting":4513,"Ġpresumption":4514,"Ġadvised":4515,"Ġclar":4516,"Ġriver":4517,"orter":4518,"Ġerisa":4519,"Ġpresence":4520,"Ġratings":4521,"Ġtechnical":4522,"illed":4523,"lish":4524,"Ġtraffic":4525,"aging":4526,"Ġcolor":4527,"wood":4528,"Ġmen":4529,"orted":4530,"Ġassigns":4531,"olly":4532,"Ġep":4533,"Ġbetter":4534,"Ġeast":4535,"igan":4536,"Ġdeveloped":4537,"kins":4538,"Ġ93":4539,"Ġvers":4540,"Ġguarantee":4541,"Ġ62":4542,"Ġ1990":4543,"Æļ":4544,"Ġadmission":4545,"represent":4546,"Ġresidual":4547,"Ġcarol":4548,"person":4549,"Ġessential":4550,"cons":4551,"Ġbackground":4552,"Ġexecute":4553,"ternal":4554,"road":4555,"Ġ1986":4556,"\"><":4557,"issu":4558,"Ġchanged":4559,"Ġplant":4560,"Ġlie":4561,"Ġtranscript":4562,"uth":4563,"Ġamb":4564,"Ġhom":4565,"Ġabsolute":4566,"ingly":4567,"Ġcitation":4568,"Ġcombination":4569,"sim":4570,"Ġdates":4571,"mc":4572,"Ġdifficult":4573,"Ġcauses":4574,"Ġnegative":4575,"Ġdespite":4576,"Ġsupporting":4577,"Ġnotified":4578,"Ġobjective":4579,"Ġdecide":4580,".âĢĶ":4581,"Ġdemonstrate":4582,"Ġdeferred":4583,"Ġalleges":4584,"Ġunlawful":4585,"Ġremains":4586,"abet":4587,"ening":4588,"Ġresidence":4589,"rop":4590,"yal":4591,"house":4592,"303":4593,"ousand":4594,"Ġsubstit":4595,"Ġthroughout":4596,"Ġforms":4597,"board":4598,"Ġ000":4599,"nal":4600,"ĠĠĠĠĠĠĠĠĠĠĠĠĠĠĠĠĠĠĠĠĠĠĠĠĠĠĠĠĠĠĠĠĠĠĠĠĠĠĠĠĠĠĠĠĠĠĠĠĠĠĠĠĠĠĠĠĠĠĠĠĠĠĠĠĠĠĠĠ":4601,"Ġ150":4602,"rehe":4603,"Ġvan":4604,"Ġ>":4605,"Ġalter":4606,"Ġexhibits":4607,"qw":4608,"Ġ73":4609,"Ġinquiry":4610,"Ġdavis":4611,"igu":4612,"Ġmach":4613,"Ġdistin":4614,"aker":4615,"Ġ~":4616,"oses":4617,"Ġlicensed":4618,"Ġlear":4619,"Ġsecondary":4620,"Ġ81":4621,"Ġfloor":4622,"Ġowners":4623,"Ġprescribed":4624,"Ġrepresents":4625,"wa":4626,"Ġhill":4627,"const":4628,"Ġaffirmative":4629,"Ġconvert":4630,"Ġnames":4631,"Ġcontribution":4632,"Ġdocumentation":4633,"ster":4634,"'m":4635,"dd":4636,"Ġ83":4637,"xy":4638,"gl":4639,"Ġ76":4640,"Ġmiller":4641,"Ġbelief":4642,"Ġfla":4643,"Ġnumer":4644,"Ġphot":4645,"Ġtestify":4646,"Ġly":4647,"Ġproduced":4648,"Ġpublished":4649,"Ġforec":4650,"Ġarticles":4651,"Ġsuccessors":4652,"gment":4653,"hood":4654,"Ġ64":4655,"Ġ107":4656,"Ġdisclose":4657,"Ġdrive":4658,"Ġliber":4659,"Ġtop":4660,"Ġreleased":4661,"ders":4662,"Ġballot":4663,"licit":4664,"Ġsomething":4665,"Ġassume":4666,"005":4667,"Ġconcern":4668,"Ġapproach":4669,"Ġprocedural":4670,"Ġprices":4671,"Ġreviewing":4672,"itee":4673,"Ġsimilarly":4674,"ensive":4675,"nor":4676,"Ġbad":4677,"Ġ($":4678,"Ġwall":4679,"Ġdeputy":4680,"vious":4681,"Ġregister":4682,"Ġexped":4683,"gs":4684,"Ġconsumm":4685,"elle":4686,"Ġthousand":4687,"Ġrestated":4688,"Ġinsurer":4689,"Ġfollowed":4690,"Ġfurnished":4691,"Ġham":4692,"Ġprobable":4693,"rap":4694,"Ġremoved":4695,"Ġobserved":4696,"Ġmodify":4697,"ĠĠĠĠĠĠĠĠĠĠĠĠĠĠĠĠĠĠĠĠĠĠĠĠĠĠĠĠĠĠĠĠĠĠĠĠĠĠĠĠĠĠĠĠĠĠĠĠĠĠĠĠĠĠĠĠĠĠĠĠ":4698,"Ġimmunity":4699,"ength":4700,"vw":4701,"Ġcell":4702,"Ġfurthermore":4703,"Ġcat":4704,"Ġunsec":4705,"raj":4706,"Ġmist":4707,"ij":4708,"Ġshowed":4709,"Ġacceptance":4710,"Ġadvert":4711,"Ġconcerns":4712,"vh":4713,"Ġworked":4714,"Ġdispos":4715,"Ġconspir":4716,"Ġselling":4717,"ĠĠĠĠĠĠĠĠĠĠĠĠĠĠĠĠĠĠĠĠĠĠĠĠĠĠĠĠĠĠĠĠĠĠĠĠĠĠĠĠĠĠĠĠĠĠĠĠĠĠĠĠĠĠĠĠĠĠĠĠĠ":4718,"Ġeurope":4719,"Ġplay":4720,"appellant":4721,"Ġofficials":4722,"Ġsatisfactory":4723,"Ġthought":4724,"Ġtext":4725,"Ġdirection":4726,"back":4727,"uel":4728,"Ġokay":4729,"Ġevident":4730,"ists":4731,"gia":4732,"Ġwind":4733,"Ġflex":4734,"Ġrational":4735,"di":4736,"jl":4737,"Ġswing":4738,"Ġexercised":4739,"Ġinterview":4740,"Ġprohibited":4741,"Ġ1934":4742,"Ġacceler":4743,"Ġbanks":4744,"Ġprecedent":4745,"Ġpaying":4746,"Ġarth":4747,"Ġ92":4748,"Ġ409":4749,"Ġprofit":4750,"Ġmont":4751,"Ġvoid":4752,"az":4753,"Ġari":4754,"Ġgold":4755,"Ġtarget":4756,"Ġ84":4757,"Ġmind":4758,"Ġbure":4759,"Ġelimin":4760,"Ġvia":4761,"Ġadmit":4762,"Ġelse":4763,"Ġlev":4764,"Ġvested":4765,"Ġcf":4766,"Ġindemnified":4767,"2018":4768,"els":4769,"Ġcontributions":4770,"Ġbeneficial":4771,"Ġfig":4772,"Ġil":4773,"Ġsoon":4774,"Ġrejected":4775,"Ġspace":4776,"Ġparents":4777,"Ġjose":4778,"Ġapplications":4779,"Ġ1989":4780,"ĠĠĠĠĠĠĠĠĠĠĠĠĠĠĠĠĠĠĠĠĠĠĠĠĠĠĠĠĠĠĠĠĠĠĠĠĠĠĠĠĠĠĠĠĠĠĠĠĠĠĠĠĠĠĠĠĠĠĠĠĠĠĠ":4781,"Ġpunish":4782,"Ġprevail":4783,"Ġdischar":4784,"ago":4785,"illing":4786,"Ġoperate":4787,"Ġvcaa":4788,"Ġ72":4789,"each":4790,"ulative":4791,"Ġfraudul":4792,"Ġcitizens":4793,"Ġdeny":4794,"ont":4795,"Ġcompletion":4796,"Ġvoluntary":4797,"Ġdur":4798,"Ġproc":4799,"Ġcustod":4800,"Ġconsidering":4801,"Ġthereon":4802,"iced":4803,"missions":4804,"Ġ86":4805,"00111":4806,"Ġpaul":4807,"dr":4808,"oulder":4809,"Ġlawsu":4810,"Ġupd":4811,"ror":4812,"Ġblood":4813,"Ġbra":4814,"Ġbehav":4815,"ĠĠĠĠĠĠĠĠĠĠĠĠĠĠĠĠĠĠĠĠĠĠĠĠĠĠĠĠĠĠĠĠĠĠĠĠĠĠĠĠĠĠĠĠĠĠĠĠĠĠĠĠĠĠĠĠĠĠĠĠĠĠ":4816,"Ġimprovements":4817,"Ġdividends":4818,"Ġengage":4819,"eed":4820,"Ġwom":4821,"Ġreturns":4822,"Ġprimarily":4823,"Ġrecently":4824,"Ġbonus":4825,"Ġprogress":4826,"Ġfiduc":4827,"mat":4828,"Ġgrants":4829,"Ġconference":4830,"Ġobjections":4831,"Ġanticip":4832,"Ġcomputer":4833,"Ġutil":4834,"Ġpartial":4835,"Ġmagistr":4836,"Ġordinance":4837,"].":4838,"lection":4839,"Ġspouse":4840,"Ġsupervision":4841,"Ġrefund":4842,"Ġic":4843,"Ġreplacement":4844,"Ġextend":4845,"Ġdu":4846,"Ġseen":4847,"modify":4848,"ulg":4849,"Ġ82":4850,"Ġerrone":4851,"Ġlex":4852,"inski":4853,"like":4854,"Ġreverse":4855,"Ġhall":4856,"za":4857,"Ġliving":4858,"Ġselected":4859,"left":4860,"Ġdevice":4861,"Ġimprison":4862,"cs":4863,"ibilities":4864,"Ġclinical":4865,"Ġfront":4866,"Ġokla":4867,"Ġ5107":4868,"Ġ300":4869,"\").":4870,"ena":4871,"Ġcredibility":4872,"1993":4873,"obile":4874,"iture":4875,"ox":4876,"Ġjeff":4877,"Ġinspect":4878,"ov":4879,"Ġanaly":4880,"Ġnin":4881,"Ġcum":4882,"Ġstudy":4883,"Ġoffices":4884,"Ġbasic":4885,"regard":4886,"Ġlost":4887,"sual":4888,"ann":4889,"Ġsitu":4890,"Ġlegally":4891,"Ġ119":4892,"Ġexcluded":4893,"Ġ103":4894,"Ġindemnitee":4895,"Ġmerit":4896,"Ġgrowth":4897,"2007":4898,"Ġcalculated":4899,"Ġearnings":4900,"wlrq":4901,"Ġappealed":4902,"Ġalc":4903,"Ġoccurs":4904,"Ġ105":4905,"Ġinconsistent":4906,"Ġreliance":4907,"contract":4908,"Ġmagistrate":4909,"2006":4910,":\\":4911,"Ġpermits":4912,"Ġeffort":4913,"Ġsound":4914,"kt":4915,"bc":4916,"Ġhazard":4917,"Ġretain":4918,"Ġvirt":4919,"Ġbuy":4920,"Ġank":4921,"Ġseven":4922,"Ġ87":4923,"Ġextra":4924,"selves":4925,"stood":4926,"paration":4927,"Ġbooks":4928,"1992":4929,"Ġmd":4930,"Ġobvious":4931,"nl":4932,"Ġcopyright":4933,"Ġenough":4934,"Ġbelieved":4935,"ulty":4936,"Ġdefinitions":4937,"Ġtrack":4938,"Ġpop":4939,"Ġpg":4940,"itional":4941,"oura":4942,"atures":4943,"Ġminutes":4944,"ued":4945,"oe":4946,"Ġdepart":4947,"............":4948,"Ġpossibility":4949,"Ġwarranty":4950,"trial":4951,"Ġmob":4952,"Ġfiles":4953,"ota":4954,"Ġ144":4955,"pec":4956,"osition":4957,"Ġleases":4958,"Ġunderwrit":4959,"Ġarri":4960,"Ġ1988":4961,"Ġsetting":4962,"Ġfirearms":4963,"Ġimplied":4964,"Ġstore":4965,"Ġconnected":4966,"clr":4967,"Ġcrim":4968,"Ġenterpr":4969,"Ġhttps":4970,"Ġcarolina":4971,"Ġjackson":4972,"Ġyoung":4973,"Ġdriver":4974,"Ġreached":4975,"'re":4976,"urs":4977,"Ġmonitor":4978,"such":4979,"Ġcut":4980,"ohol":4981,"2000":4982,"icated":4983,"ĠĠĠĠĠĠĠĠĠĠĠĠĠĠĠĠĠĠĠĠĠĠĠĠĠĠĠĠĠĠĠĠĠĠĠĠĠĠĠĠĠĠĠĠĠĠĠĠĠĠĠĠĠĠĠĠĠĠĠĠĠĠĠĠĠĠĠĠĠ":4984,"Ġintroduction":4985,"Ġexplan":4986,"Ġgoverned":4987,"Ġrely":4988,"Ġ225":4989,"Ġtract":4990,"Ġproposal":4991,"Ġoffenses":4992,"Ġshoulder":4993,"Ġunif":4994,"Ġrepresenting":4995,"001":4996,"Ġowed":4997,"ape":4998,"asc":4999,"Ġstudent":5000,"ga":5001,"room":5002,"Ġgrantor":5003,"Ġstructure":5004,"Ġmarks":5005,"Ġsubstantive":5006,"Ġinm":5007,"party":5008,"exam":5009,"Ġ1985":5010,"Ġ1987":5011,"Ġbureau":5012,"Ġexpend":5013,"Ġba":5014,"Ġannoun":5015,"company":5016,"inson":5017,"1994":5018,"Ġ104":5019,"Ġconspiracy":5020,"Ġnotification":5021,"Ġinflu":5022,"Ġlength":5023,"ta":5024,"Ġweeks":5025,"Ġconcerned":5026,"mm":5027,"104":5028,"orse":5029,"Ġchallenges":5030,"Ġ110":5031,"Ġappellees":5032,"Ġimpose":5033,"sumed":5034,"spec":5035,"imately":5036,"Ġenj":5037,"Ġsoftware":5038,"fa":5039,"Ġhyper":5040,"Ġpenalties":5041,"eech":5042,"Ġinitially":5043,"Ġ111":5044,"Ġbear":5045,"Ġetc":5046,"Ġpharm":5047,"Ġfiduciary":5048,"Ġwes":5049,"Ġbarg":5050,"Ġcolumb":5051,"Ġking":5052,"Ġwebs":5053,"nish":5054,"Ġcalcul":5055,"Ġneuro":5056,"Ġprocessing":5057,"ama":5058,"aps":5059,"Ġcombined":5060,"aneous":5061,"Ġnecessarily":5062,"oration":5063,"from":5064,"losure":5065,"Ġarrangement":5066,"Ġdrugs":5067,"1991":5068,"Ġpal":5069,"Ġoften":5070,"Ġarms":5071,"Ġadjusted":5072,"Ġcontents":5073,"Ġaway":5074,"bery":5075,"Ġacted":5076,"Ġsouthern":5077,"Ġsar":5078,"Ġ500":5079,"Ġbehavior":5080,"care":5081,"cor":5082,"Ġ_":5083,"Ġnight":5084,"Ġ102":5085,"ansas":5086,"Ġrespectively":5087,"Ġaside":5088,"Ġ+":5089,"Ġship":5090,"Ġparts":5091,"Ġunderstood":5092,"Ġescrow":5093,"Ġdiscip":5094,"Ġnews":5095,"Ġindividually":5096,"Ġmoder":5097,"mr":5098,"Ġdepri":5099,"endix":5100,"Ġeffects":5101,"Ġretained":5102,"Ġacquire":5103,"Ġreferences":5104,"Ġapplying":5105,"Ġteam":5106,"Ġrise":5107,"Ġariz":5108,"Ġ112":5109,"inal":5110,"fers":5111,"ĠâĪĻ":5112,"ero":5113,"rehens":5114,"Ġdissent":5115,"Ġ180":5116,"revoc":5117,"umbar":5118,"Ġson":5119,"Ġmic":5120,"Ġalcohol":5121,"Ġoverrul":5122,"Ġdividend":5123,"Ġsens":5124,"1995":5125,"Ġending":5126,"Ġeffectiveness":5127,"Ġattributable":5128,"hs":5129,"Ġdistributed":5130,"\\\\":5131,"Ġassumed":5132,"most":5133,"Ġparticipants":5134,"Ġmandatory":5135,"Ġirrevoc":5136,"Ġange":5137,"Ġlog":5138,"Ġacknowledged":5139,"Ġaffecting":5140,"Ġspeech":5141,"ming":5142,"Ġconfirmation":5143,"ponder":5144,"Ġtests":5145,"put":5146,"Ġadvances":5147,"âĢ¦âĢ¦":5148,"Ġpropri":5149,"Ġadjudication":5150,"Ġmechan":5151,"Ġmarketing":5152,"Ġexceptions":5153,"Ġenvironment":5154,"Ġresponsibilities":5155,"2002":5156,"Ġresolved":5157,"Ġperf":5158,"Ġlate":5159,"olv":5160,"Ġpp":5161,"Ġ[**":5162,"105":5163,"Ġsteps":5164,"Ġunreasonable":5165,"Ġecf":5166,"Ġcontaining":5167,"Ġcra":5168,"cap":5169,"Ġchem":5170,"hab":5171,"Ġthor":5172,"Ġsupports":5173,"iel":5174,"collect":5175,"Ġpromulg":5176,"utive":5177,"Ġthreatened":5178,"Ġvehicles":5179,"Ġinspection":5180,"Ġmichigan":5181,"owa":5182,"Ġunsecured":5183,"Ġ1981":5184,"Ġclean":5185,"Ġsubstantiate":5186,"Ġrepair":5187,"Ġrestr":5188,"Ġfunctions":5189,"Ġmentioned":5190,"Ġsatisfaction":5191,"Ġhot":5192,"Ġmarkets":5193,"Ġfraudulent":5194,"braska":5195,"Ġestimated":5196,"Ġcovenant":5197,"ener":5198,"Ġpreponder":5199,"-\\":5200,"ancing":5201,"Ġconven":5202,"Ġseq":5203,"Ġinjured":5204,"Ġaccused":5205,"ement":5206,"Ġlink":5207,"Ġdesignation":5208,"simile":5209,"Ġworth":5210,"Ġresign":5211,"Ġineffective":5212,"Ġcritical":5213,"Ġcand":5214,"pper":5215,"bf":5216,"Ġretail":5217,"Ġimprisonment":5218,"Ġimmediate":5219,"2016":5220,"Ġprojects":5221,"atically":5222,"Ġstor":5223,"Ġcomes":5224,"ote":5225,"Ġapprec":5226,"Ġelectric":5227,"Ġjuven":5228,"except":5229,"winski":5230,"Ġvo":5231,"urb":5232,"Ġintel":5233,"Ġconvictions":5234,"andon":5235,"Ġalways":5236,"Ġquant":5237,"Ġstation":5238,"Ġdissol":5239,"Ġremove":5240,"Ġreopen":5241,"ĠĠĠĠĠĠĠĠĠĠĠĠĠĠĠĠĠĠĠĠĠĠĠĠĠĠĠĠĠĠĠĠĠĠĠĠĠĠĠĠĠĠĠĠĠĠĠĠĠĠĠĠĠĠĠĠĠĠĠĠĠĠĠĠĠĠĠ":5242,"Ġguaranteed":5243,"Ġcancell":5244,"Ġviolence":5245,"face":5246,"Ġpatient":5247,"Ġcalculation":5248,"Ġdetect":5249,"Ġconnect":5250,"Ġallege":5251,"Ġappeared":5252,"Ġratio":5253,"bi":5254,".;":5255,"Ġimpos":5256,"ughter":5257,"Ġassumption":5258,"Ġderwinski":5259,"itz":5260,"Ġ``":5261,"Ġassignee":5262,"Ġoffender":5263,"Ġlands":5264,"Ġlegislation":5265,"oking":5266,"Ġ]":5267,"Ġharmless":5268,"Ġlevels":5269,"reshold":5270,"Ġsenate":5271,"Ġindiana":5272,"rect":5273,"ude":5274,"Ġmeasures":5275,"Ġviolate":5276,"Ġnebraska":5277,"enues":5278,"Ġgenu":5279,"Ġwanted":5280,"Ġweak":5281,"Ġprin":5282,"Ġsqu":5283,"340":5284,"Ġjersey":5285,"Ġversion":5286,"ona":5287,"Ġautomobile":5288,"ĠĠĠĠĠĠĠĠĠĠĠĠĠĠĠĠĠĠĠĠĠĠĠĠĠĠĠĠĠĠĠĠĠĠĠĠĠĠĠĠĠĠĠĠĠĠĠĠĠĠĠĠĠĠĠĠĠĠĠĠĠĠĠĠĠ":5289,"Ġreorganization":5290,"Ġconform":5291,"Ġadequately":5292,"ides":5293,"ĠĠĠĠĠĠĠĠĠĠĠĠĠĠĠĠĠĠĠĠĠĠĠĠĠĠĠĠĠĠĠĠĠĠĠĠĠĠĠĠĠĠĠĠĠĠĠĠĠĠĠĠĠĠĠĠĠĠĠĠĠĠĠĠĠĠ":5294,"Ġevidentiary":5295,"Ġpress":5296,"Ġnicholson":5297,"verted":5298,"ari":5299,"Ġcoc":5300,"250":5301,"Ġappra":5302,"appelle":5303,"Ġken":5304,"tc":5305,"ritis":5306,"Ġrevised":5307,"www":5308,"Ġreally":5309,"Ġobligated":5310,"iana":5311,"Ġtransfers":5312,"header":5313,"Ġcharter":5314,"Ġscheme":5315,"Ġadversely":5316,"Ġeastern":5317,"Ġrecommendation":5318,"Ġsentenced":5319,"Ġvesting":5320,"Ġnumerous":5321,"Ġreflects":5322,"Ġuniform":5323,"Ġpreparation":5324,"Ġguidance":5325,"Ġdiscount":5326,"edent":5327,"ze":5328,"Ġfacsimile":5329,"Ġlessee":5330,"enforce":5331,"Ġinstance":5332,"Ġtypes":5333,"Ġperforming":5334,"Ġtin":5335,"Ġnegoti":5336,"Ġhabeas":5337,"âĢĺ":5338,"Ġcontractual":5339,"Ġstrict":5340,"Ġdistingu":5341,"Ġip":5342,"Ġsubmission":5343,"usion":5344,"isp":5345,"Ġpledge":5346,"Ġrepeated":5347,"Ġlee":5348,"Ġadvice":5349,"Ġprobative":5350,"Ġcommand":5351,"Ġacceptable":5352,"theless":5353,"Ġexplain":5354,"Ġtried":5355,"ows":5356,"Ġrecipient":5357,"ÆĮ":5358,"nst":5359,"Ġthemselves":5360,"Ġquarterly":5361,"Ġpublication":5362,"Ġrated":5363,"Ġrede":5364,"icago":5365,"Ġhereafter":5366,"vin":5367,"Ġseparately":5368,"Ġthreshold":5369,"\"),":5370,"itions":5371,"het":5372,"Ġadvisory":5373,"Ġirre":5374,"Ġconsequences":5375,"Ġcharles":5376,"Ġgeorgia":5377,"Ġultimately":5378,"lectual":5379,"2015":5380,"Ġ=":5381,"aylor":5382,"120":5383,"Ġdidn":5384,"Ġ1980":5385,"portion":5386,"Ġfunda":5387,"Ġlexis":5388,"homa":5389,"Ġreconsid":5390,"illa":5391,"was":5392,"Ġled":5393,"Ġrelation":5394,"Ġlitig":5395,"Ġdetailed":5396,"Ġdebts":5397,"Ġenfor":5398,"Ġattend":5399,"ologies":5400,"Ġunfair":5401,"Ġlines":5402,"Ġcamp":5403,"Ġseverance":5404,"Ġsavings":5405,"Ġwells":5406,"Ġdifference":5407,"head":5408,"Ġ114":5409,"athy":5410,"Ġnevertheless":5411,"Ġvii":5412,"Ġarrangements":5413,"Ġwire":5414,"Ġlock":5415,"Ġchoice":5416,"adequ":5417,"Ġinterpre":5418,"Ġalj":5419,"sures":5420,"Ġfranch":5421,"2013":5422,"Ġhed":5423,"Ġpleadings":5424,"Ġrefusal":5425,"Ġpreponderance":5426,"Ġconced":5427,"Ġgrantee":5428,"Ġtender":5429,"Ġjoseph":5430,"Ġ108":5431,"Ġterrit":5432,"Ġemb":5433,"'d":5434,"Ġincorporation":5435,"2009":5436,"nch":5437,"ni":5438,"Ġinventory":5439,"2004":5440,"Ġplacement":5441,"appropri":5442,"Ġorganizations":5443,"Ġpip":5444,"Ġwaste":5445,"Ġpurchasers":5446,"Ġwaive":5447,"unities":5448,"Ġroyal":5449,"Ġlawsuit":5450,"Ġacknowledge":5451,"Ġconfirmed":5452,"2014":5453,"cm":5454,"Ġdoor":5455,"Ġservicing":5456,"Ġimprovement":5457,"Ġsays":5458,"Ġenhance":5459,"Ġ1984":5460,"Ġscott":5461,"Ġcontrolling":5462,"Ġjuvenile":5463,"Ġmoving":5464,"Ġoklahoma":5465,"Ġdeclared":5466,"Ġ109":5467,"Ġspeed":5468,"inte":5469,"dec":5470,"Ġplanning":5471,"Ġhighway":5472,"icing":5473,"Ġprepayment":5474,"Â®":5475,"Ġcontingent":5476,"ouston":5477,"Ġfairly":5478,"Ġwebsite":5479,"Ġbed":5480,"aul":5481,"Ġtherefor":5482,"Ġacross":5483,"Ġexclusion":5484,"Ġuser":5485,"court":5486,"Ġwin":5487,"Ġheart":5488,"Ġtwel":5489,"Ġpict":5490,"Ġdeliber":5491,"stein":5492,"Ġphil":5493,"acted":5494,"Ġharris":5495,"fd":5496,"itch":5497,"Ġchicago":5498,"Ġmedia":5499,"defendant":5500,"Ġmaryland":5501,"Ġinstitutions":5502,"Ġjudgments":5503,"ibly":5504,"Ġindemnity":5505,"Ġ115":5506,"Ġsle":5507,"itious":5508,"zz":5509,"Ġrobbery":5510,"Ġorganized":5511,"rd":5512,"Ġenforceable":5513,"2008":5514,"Ġworks":5515,"Ġisland":5516,"Ġpassed":5517,"Ġpersonally":5518,"âĢĿ,":5519,"month":5520,"1990":5521,"Ġinvolves":5522,"isting":5523,"1998":5524,"cur":5525,"Ġindustrial":5526,"Ġcountries":5527,"Ġmi":5528,"cell":5529,"Ġexplanation":5530,"ĠĠĠĠĠĠĠĠĠĠĠĠĠĠĠĠĠĠĠĠĠĠĠĠĠĠĠĠĠĠĠĠĠĠĠĠĠĠĠĠĠĠĠĠĠĠĠĠĠĠĠĠĠĠĠĠĠĠĠĠĠĠĠĠĠĠĠĠĠĠĠĠĠĠĠĠĠ":5531,"ruction":5532,"ander":5533,"istics":5534,"Ġtx":5535,"Ġinsolv":5536,"oked":5537,"Ġwithheld":5538,"Ġsense":5539,"Ġparticipating":5540,"Ġproxim":5541,"Ġnar":5542,"Ġdisabled":5543,"Ġcontend":5544,"fl":5545,"2012":5546,"Ġthing":5547,"Ġgenuine":5548,"ocket":5549,"urchase":5550,"don":5551,"Ġreceives":5552,"Ġvaluation":5553,"Ġstudents":5554,"Ġrevenues":5555,"Ġfat":5556,"Ġpositive":5557,"300":5558,"1996":5559,"teen":5560,"Ġwilson":5561,"Ġadoption":5562,"Ġanyone":5563,"Ġwashstate":5564,"Ġbranch":5565,"Ġsynd":5566,"Ġuses":5567,"iled":5568,"Ġcontrovers":5569,"Ġrecall":5570,"ĠĠĠĠĠĠĠĠĠĠĠĠĠĠĠĠĠĠĠĠĠĠĠĠĠĠĠĠĠĠĠĠĠĠĠĠĠĠĠĠĠĠĠĠĠĠĠĠĠĠĠĠĠĠĠĠĠĠĠĠĠĠĠĠĠĠĠĠĠĠĠĠĠ":5571,"wk":5572,"graph":5573,"Ġdraft":5574,"Ġmodel":5575,"Ġsubordin":5576,"Ġerrors":5577,"Ġadvanced":5578,"iding":5579,"Ġger":5580,"Ġbanc":5581,"2010":5582,"Ġdig":5583,"Ġintellectual":5584,"Ġresiduals":5585,"Ġsources":5586,"Ġachieve":5587,"aded":5588,"Ġdriving":5589,"cd":5590,"Ġbusinesses":5591,"Ġdischarged":5592,"Ġinterrog":5593,"Ġextrem":5594,"Ġ360":5595,"Ġmanaging":5596,"Ġsheriff":5597,"0001":5598,"Ġtruth":5599,"Ġallegedly":5600,"Ġak":5601,"Ġnr":5602,"commit":5603,"Ġcertainly":5604,"Ġcolumbia":5605,"certain":5606,"xi":5607,"Ġcommencement":5608,"Ġsend":5609,"isite":5610,"Ġweb":5611,"Ġ0000":5612,"Ġadjustments":5613,"Ġrelates":5614,"Ġassemb":5615,"author":5616,"Ġexisted":5617,"ĠĠĠĠĠĠĠĠĠĠĠĠĠĠĠĠĠĠĠĠĠĠĠĠĠĠĠĠĠĠĠĠĠĠĠĠĠĠĠĠĠĠĠĠĠĠĠĠĠĠĠĠĠĠĠĠĠĠĠĠĠĠĠĠĠĠĠĠĠĠĠ":5618,"Ġdepend":5619,"Ġbelieves":5620,"Ġstockholder":5621,"Ġstrike":5622,"2005":5623,"Ġdivor":5624,"Ġearned":5625,"Ġhalf":5626,"venth":5627,"Ġoperated":5628,"ips":5629,"Ġing":5630,"Ġali":5631,"Ġeligibility":5632,"Ġconsolidation":5633,"bu":5634,"haust":5635,"Ġformal":5636,"issions":5637,"Ġalleging":5638,"Ġkn":5639,"soever":5640,"Ġdisregard":5641,"active":5642,"nessee":5643,"Ġmisrepresent":5644,"Ġwithdrawal":5645,"will":5646,"Ġpertaining":5647,"Ġneb":5648,"atever":5649,"Ġassessed":5650,"Ġsanctions":5651,"Ġdisburse":5652,"Ġelected":5653,"Ġerroneous":5654,"Ġfurnish":5655,"Ġaspect":5656,"Ġcast":5657,"ĠĠĠĠĠĠĠĠĠĠĠĠĠĠĠĠĠĠĠĠĠĠĠĠĠĠĠĠĠĠĠĠĠĠĠĠĠĠĠĠĠĠĠĠĠĠĠĠĠĠĠĠĠĠĠĠĠĠĠĠĠĠĠĠĠĠĠĠĠĠĠĠ":5658,"Ġobligor":5659,"eli":5660,"Ġdealer":5661,"sell":5662,"Ġdisputed":5663,"Ġeffectively":5664,"Ġwholly":5665,"contin":5666,"Ġallowing":5667,"Ġvideo":5668,"Ġpoll":5669,"Ġves":5670,"Ġtend":5671,"Ġprepare":5672,"Ġtradem":5673,"ĠĠĠĠĠĠĠĠĠĠĠĠĠĠĠĠĠĠĠĠĠĠĠĠĠĠĠĠĠĠĠĠĠĠĠĠĠĠĠĠĠĠĠĠĠĠĠĠĠĠĠĠĠĠĠĠĠĠĠĠĠĠĠĠĠĠĠĠĠĠĠĠĠĠ":5674,"hearing":5675,"tax":5676,"constitution":5677,"Ġjj":5678,"Ġsir":5679,"................................................":5680,"Ġinstructed":5681,"Ġsubpo":5682,"met":5683,"Ġpositions":5684,"Ġresolve":5685,".),":5686,"Ġprofits":5687,"Ġassociate":5688,"Ġdecedent":5689,"Ġyield":5690,"Ġconvertible":5691,"ĠĠĠĠĠĠĠĠĠĠĠĠĠĠĠĠĠĠĠĠĠĠĠĠĠĠĠĠĠĠĠĠĠĠĠĠĠĠĠĠĠĠĠĠĠĠĠĠĠĠĠĠĠĠĠĠĠĠĠĠĠĠĠĠĠĠĠĠĠĠĠĠĠĠĠĠĠĠĠĠĠĠĠĠĠĠĠ":5692,"pla":5693,"phy":5694,"Ġrefin":5695,"dle":5696,"Ġseverity":5697,".:":5698,"craft":5699,"Ġinternet":5700,"Ġmisle":5701,"necess":5702,"Ġbod":5703,"ĠĠĠĠĠĠĠĠĠĠĠĠĠĠĠĠĠĠĠĠĠĠĠĠĠĠĠĠĠĠĠĠĠĠĠĠĠĠĠĠĠĠĠĠĠĠĠĠĠĠĠĠĠĠĠĠĠĠĠĠĠĠĠĠĠĠĠĠĠĠ":5704,"Ġcomplied":5705,"Ġrecognize":5706,"Ġforum":5707,"Ġmex":5708,"Ġsustain":5709,"Ġfell":5710,"Ġsufficiency":5711,"Ġlos":5712,"Ġpool":5713,"Ġexact":5714,"cp":5715,"gn":5716,"Ġcandid":5717,"Ġbases":5718,"Ġprincipi":5719,"imal":5720,"Ġmarriage":5721,"ula":5722,"rehensive":5723,")\\":5724,"Ġeye":5725,"Ġencoura":5726,"Ġsixth":5727,"pecially":5728,"Ġfunctional":5729,"Ġmartin":5730,"Ġjail":5731,"Ġcategory":5732,"Ġstorage":5733,"Ġpac":5734,"sm":5735,"Ġintell":5736,"Ġrequesting":5737,"Ġtwelve":5738,"Ġappendix":5739,"Ġsand":5740,"Ġtennessee":5741,"Ġadvant":5742,"Ġfis":5743,"Ġrecommended":5744,"Ġdeleg":5745,"Ġrecommendations":5746,"Ġestopp":5747,"istered":5748,"Ġdeposits":5749,"Ġabandon":5750,"Ġwww":5751,"Ġgeorge":5752,"collectively":5753,"Ġpages":5754,"Ġhistor":5755,"Ġoverall":5756,"Ġcontest":5757,"Ġsettled":5758,"gery":5759,"hv":5760,"Ġwestern":5761,"hy":5762,"Ġrevealed":5763,"dw":5764,"400":5765,"Ġcrimes":5766,"Ġcollectively":5767,"nov":5768,"Ġarmy":5769,"Ġbrother":5770,"Ġnovo":5771,"fc":5772,"Ġdifficulty":5773,"Ġmethods":5774,"qg":5775,"Ġlegit":5776,"code":5777,"Ġparagraphs":5778,"anche":5779,"Ġdemonstrated":5780,"Ġindicating":5781,"ordination":5782,"Ġallegation":5783,"Ġreserves":5784,"Ġinadequ":5785,"Ġtransmission":5786,"Ġconserv":5787,"Ġallocation":5788,"what":5789,"oo":5790,"Ġcomplex":5791,"Ġconfer":5792,"Ġcommenced":5793,"Ġexcluding":5794,"103":5795,"rust":5796,"ÉĽ":5797,"Ġusa":5798,"Ġindu":5799,"2021":5800,"Ġanderson":5801,"Ġreceivable":5802,"Ġark":5803,"book":5804,"Ġvend":5805,"Ġsurren":5806,"Ġ@":5807,"Ġwhatever":5808,"Ġ113":5809,"Ġmeetings":5810,"Ġgri":5811,"Ġclosed":5812,"Ġtrib":5813,"Ġwhatsoever":5814,"Ġsuspect":5815,"Ġrespondents":5816,"Ġrock":5817,"lant":5818,"Ġlouisiana":5819,"civ":5820,"Ġinjun":5821,"125":5822,"Ġnegligent":5823,"Ġpreserv":5824,"Ġportions":5825,"Ġclauses":5826,"quest":5827,"Ġconsents":5828,"Ġpersu":5829,"Ġconce":5830,"Ġ___":5831,"Ġprinciple":5832,"vol":5833,"Ġcomplained":5834,"Ġwillful":5835,"Ġiniti":5836,"ique":5837,"Ġpunishment":5838,"Ġmarked":5839,"Ġnev":5840,"Ġlawful":5841,"Ġmaintaining":5842,"wer":5843,"Ġ1982":5844,"Ġ1979":5845,"Ġcollege":5846,"note":5847,"Ġ401":5848,"Ġcounterparts":5849,"ouri":5850,"Ġexhaust":5851,"Ġrepublic":5852,"log":5853,"Ġapparently":5854,"??":5855,"applic":5856,"Ġplat":5857,"ano":5858,"uff":5859,"Ġcarrying":5860,"Ġeuropean":5861,"Ġvessel":5862,"Ġfocus":5863,"Ġomission":5864,"Ġhol":5865,"cher":5866,"Ġaccurate":5867,"Ġproviders":5868,"Ġdivers":5869,"Ġnumbers":5870,"Ġprivacy":5871,"een":5872,"2011":5873,"Ġapprais":5874,"icable":5875,"upon":5876,"Ġdiabet":5877,"Ġidentity":5878,"Ġdeduction":5879,"Ġsomeone":5880,"aired":5881,"amb":5882,"nfor":5883,"Ġhypert":5884,"Ġshot":5885,"Ġreform":5886,"reng":5887,"Ġconcludes":5888,"Ġbir":5889,"exc":5890,"Ġrelig":5891,"acher":5892,"Ġ1978":5893,"Ġbrad":5894,"Ġhart":5895,"Ġbanking":5896,"Ġbillion":5897,"Ġevaluated":5898,"Ġlicenses":5899,"Ġunenforce":5900,"Ġhighly":5901,"ae":5902,"Ġaddresses":5903,"cit":5904,"roy":5905,"Ġsignificantly":5906,"Ġirs":5907,"Ġburn":5908,"Ġcru":5909,"Ġdetails":5910,"Ġeducational":5911,"rick":5912,"Ġconsequently":5913,"Ġfoundation":5914,"oning":5915,"Ġavailability":5916,"Ġautomatically":5917,"Ġstub":5918,"Ġoverruled":5919,"Ġindian":5920,"Ġnine":5921,"Ĥ¬":5922,"Ġcuriam":5923,"Ġlumbar":5924,"Ġedward":5925,"Ġlif":5926,"Ġapartment":5927,"1997":5928,"Ġcounterclaim":5929,"2003":5930,"sgj":5931,"Ġunemploy":5932,"irs":5933,"ales":5934,"oj":5935,"inger":5936,"Ġestablishes":5937,"Ġinsert":5938,"ban":5939,"laws":5940,"Ġfulf":5941,"Ġcarried":5942,"Ġindication":5943,"sight":5944,"Ġ125":5945,"Ġ1933":5946,"Ġcomprehensive":5947,"2001":5948,"Ġcertify":5949,"Ġintroduced":5950,"Ġrailroad":5951,"Ġinterven":5952,"Ġresponded":5953,"Ġframe":5954,"Ġstrategy":5955,"Ġfundamental":5956,"oster":5957,"Ġcumulative":5958,"Ġwright":5959,"disc":5960,"112":5961,"ication":5962,"itures":5963,"Ġlimiting":5964,"Ġtaylor":5965,"Ġconstituted":5966,"Ġannex":5967,"Ġdiscovered":5968,"Ġmembership":5969,"Ġexaminations":5970,"doll":5971,"las":5972,"enerative":5973,"ez":5974,"Ġreply":5975,"Ġexplicit":5976,"Ġadj":5977,"Ġcomponent":5978,"Ġbeneficiaries":5979,"Ġcocaine":5980,"aud":5981,"Ġqualify":5982,"sen":5983,"Ġ</":5984,"Ġell":5985,"Ġexperienced":5986,"Ġpresumed":5987,"Ġcompared":5988,"ctor":5989,"Ġreading":5990,"Ġdangerous":5991,"Ġsuppress":5992,"Ġign":5993,"Ġmarsh":5994,"Ġbell":5995,"Ġsleep":5996,"Ġimplementation":5997,"Ġdeterminations":5998,"Ġchemical":5999,"Ġespecially":6000,"Ġcolorado":6001,"Ġphase":6002,"Ġaust":6003,"hl":6004,"mond":6005,"Ġpromulgated":6006,"Ġdegenerative":6007,"rell":6008,"Ġvoluntarily":6009,"Ġarmed":6010,"Ġchina":6011,"ref":6012,"Ġbul":6013,"800":6014,"Ġproxy":6015,"Ġiowa":6016,"Ġphr":6017,"Ġmanufacturing":6018,"Ġvacate":6019,"Ġmargin":6020,"Ġextr":6021,"Ġreceivables":6022,"Ġlake":6023,"Ġfranc":6024,"Ġserving":6025,"Ġciting":6026,"1986":6027,"Ġparole":6028,"Ġprospective":6029,"Ġassertion":6030,"body":6031,"pm":6032,"ricult":6033,"Ġdeceased":6034,"Ġentering":6035,"Ġarise":6036,"never":6037,"Ġcustodian":6038,"Ġmobile":6039,"Ġsoci":6040,"Ġcompell":6041,"Ġbarred":6042,"Ġinterim":6043,"Ġhands":6044,"Ġknowingly":6045,"ols":6046,"Ġconsultant":6047,"Ġventure":6048,"Ġcalls":6049,"there":6050,"Ġcomplain":6051,"Ġcovid":6052,"angible":6053,"Ġoutcome":6054,"Ġsuspension":6055,"how":6056,"Ġmad":6057,"Ġpleas":6058,"Ġgil":6059,"Ġinterpreted":6060,"public":6061,"Ġvolum":6062,"Ġfine":6063,"Ġ116":6064,"nitus":6065,"Ġconfidentiality":6066,"Ġjun":6067,"umber":6068,"Ġ***":6069,"Ġmisleading":6070,"known":6071,"Ġquotation":6072,"Ġexpeditious":6073,"Ġconsec":6074,"uity":6075,"eca":6076,"down":6077,"Ġ240":6078,"Ġdescribe":6079,"Ġvenue":6080,"Ġ1977":6081,"Ġtransfe":6082,"Ġproposition":6083,"Ġ1974":6084,"Ġbs":6085,"Ġtinnitus":6086,"guard":6087,"Ġsufficiently":6088,"Ġmoore":6089,"Ġcoal":6090,"Ġenacted":6091,"govern":6092,"ĠÂ¶Â¶":6093,"Ġassuming":6094,"Ġexport":6095,"Ġongoing":6096,"Ġretro":6097,"trans":6098,"ptr":6099,"Ġdivorce":6100,"Ġarthritis":6101,"ws":6102,"igue":6103,"ommod":6104,"Ġleased":6105,"Ġentirety":6106,"Ġmissouri":6107,"Ġnomin":6108,"Ġcompr":6109,"Ġdrawn":6110,"âĢĿ);":6111,"aken":6112,"Ġoccupational":6113,"Ġauthorize":6114,"Ġadvisor":6115,"Ġcontroversy":6116,"Ġstreng":6117,"Ġentirely":6118,"gers":6119,"Ġnex":6120,"Ġdevices":6121,"Ġfreed":6122,"olic":6123,"Ġschedules":6124,"igration":6125,"ays":6126,"Ġassurance":6127,"Â»":6128,"Ġscient":6129,"icious":6130,"qualified":6131,"Ġnearly":6132,"Ġdeficiency":6133,"class":6134,"Ġreflected":6135,"Ġresc":6136,"Ġindemnify":6137,"Ġstudies":6138,"Ġderiv":6139,"Ġcredible":6140,"arks":6141,"Ġlu":6142,"Ġpleading":6143,"Ġ301":6144,"eme":6145,"Ġbreak":6146,"Ġaircraft":6147,"Ġpurported":6148,"Ġlat":6149,"Ġapprove":6150,"Ġlessor":6151,"may":6152,"Ġangeles":6153,"Ġmac":6154,"Ġexamined":6155,"Ġsentences":6156,"Ġlive":6157,"Ġchallenged":6158,"Ġ[***]":6159,"Ġalmost":6160,"Ġlew":6161,"ancer":6162,"Ġillness":6163,"nwe":6164,"Ġarbitrator":6165,"bd":6166,"Ġseems":6167,"tra":6168,"Ġseat":6169,"Ġutility":6170,"Ġhost":6171,"Ġdisputes":6172,"Ġcarrier":6173,"atement":6174,"Ġforfeiture":6175,"Ġenable":6176,"exp":6177,"Ġcure":6178,".</":6179,"Ġward":6180,"Ġss":6181,"Ġmorning":6182,"fin":6183,"Ġemot":6184,"Ġclasses":6185,"Ġlesser":6186,"urer":6187,"itt":6188,"Ġlawyer":6189,"Ġreceiver":6190,"Ġdup":6191,"Ġstopp":6192,"Ġopt":6193,"\">*":6194,"Ġforeclosure":6195,"ini":6196,"Ġguilt":6197,"Ġinfringement":6198,"Ġinability":6199,"Ġcodes":6200,"Ġblue":6201,"Ġclark":6202,"Ġrus":6203,"Ġprotective":6204,"Ġnorthern":6205,"Ġaccommod":6206,"Ġasking":6207,"Ġstipulation":6208,"when":6209,"Ġbig":6210,"Ġenactment":6211,"Ġdro":6212,"Ġopportunities":6213,"ung":6214,"Ġ1975":6215,"Ġtechnologies":6216,"Ġweapon":6217,"pot":6218,"1984":6219,"Ġeth":6220,"ey":6221,"Ġlatter":6222,"enn":6223,"Ġduration":6224,"Ġsuc":6225,"lson":6226,"herent":6227,"Ġterror":6228,"Ġcontinues":6229,"Ġoccasion":6230,"lear":6231,"icide":6232,"Ġplaces":6233,"Ġcorrectly":6234,"Ġinn":6235,"Ġcorporations":6236,"Ġdefend":6237,"ider":6238,"Ġinfluence":6239,"Ġrepayment":6240,"Ġrental":6241,"cal":6242,"lv":6243,"Ġclaiming":6244,"Ġexpand":6245,"Ġrptr":6246,"hm":6247,"Ġunnecess":6248,"Ġsr":6249,"Ġrenewal":6250,"Ġoversight":6251,"rome":6252,"greg":6253,"pre":6254,"Ġphotograph":6255,"Ġpublicly":6256,"lusion":6257,"Ġallen":6258,"Ġfort":6259,"Ġsize":6260,"Ġwelf":6261,"Ġcategories":6262,"Ġhypertension":6263,"atology":6264,"Ġclients":6265,"Ġopposition":6266,"Ġfacilit":6267,"anda":6268,"Ġsubpoena":6269,"Ġmunicipality":6270,"nj":6271,"Ġunconstitution":6272,"Ġprejudicial":6273,"Ġcollected":6274,"Ġcease":6275,"Ġspeak":6276,"yle":6277,"Ġabused":6278,"iguous":6279,"Ġendorse":6280,"Ġagricult":6281,"156":6282,"des":6283,"Ġwelfare":6284,"mp":6285,"Ġpresents":6286,"lit":6287,"Ġjuror":6288,"âĤ¬":6289,"Ġpreserve":6290,"Ġintermedi":6291,"Ġcolt":6292,"ensions":6293,"Ġgoals":6294,"Ġrestriction":6295,"Ġreserved":6296,"Ġimplic":6297,"Ġshared":6298,"];":6299,"Ġadmissible":6300,"202":6301,"Ġho":6302,"Ġproportion":6303,"Ġinadequate":6304,"Ġmessage":6305,"Ġgener":6306,"\",":6307,"dollar":6308,"Ġinvo":6309,"Ġweapons":6310,"Ġrehab":6311,"Ġattachment":6312,"Ġcorpus":6313,"Ġdoctor":6314,"Ġankle":6315,"34054":6316,"committee":6317,"Ġarrested":6318,"Ġwages":6319,"Ġ202":6320,"Ġassessments":6321,"Ġgovernor":6322,"mt":6323,"Ġsuccessful":6324,"Ġflsd":6325,"Ġopening":6326,"Ġdealing":6327,"Ġoriginally":6328,"Ġjointly":6329,"Ġallocated":6330,"Ġvisit":6331,"examination":6332,"Ġsymptomatology":6333,"ncon":6334,"Ġredeem":6335,"Ġseiz":6336,"Ġ404":6337,"Ġnos":6338,"Ġtrying":6339,"Ġassociates":6340,"Ġspecify":6341,"Ġbow":6342,"Ġfax":6343,"Ġconflicts":6344,"Ġ117":6345,"Ġcompetitive":6346,"hest":6347,"Ġoperator":6348,"Ġease":6349,"internal":6350,"Ġrelate":6351,"Ġtakes":6352,"Ġbat":6353,"Ġpledged":6354,"Ġwy":6355,"Ġjurors":6356,"Ġrationale":6357,"Ġcompetition":6358,"Ġanti":6359,"ĠĠĠĠĠĠĠĠĠĠĠĠĠĠĠĠĠĠĠĠĠĠĠĠĠĠĠĠĠĠĠĠĠĠĠĠĠĠĠĠĠĠĠĠĠĠĠĠĠĠĠĠĠĠĠĠĠĠĠĠĠĠĠĠĠĠĠĠĠĠĠĠĠĠĠĠ":6360,"Ġdos":6361,"Ġcomparable":6362,"Ġada":6363,"Ġsucceed":6364,"entures":6365,"Ġconcept":6366,"Ġliberty":6367,"Ġunlike":6368,"Ġskin":6369,"Ġflexion":6370,"burg":6371,"Ġresidential":6372,"Ġdiabetes":6373,"Ġbit":6374,"statement":6375,"Ġallows":6376,"Ġinference":6377,"Ġlicensee":6378,"Ġdeposited":6379,"Ġstru":6380,"plaintiff":6381,"Ġwomen":6382,"ague":6383,"Ġholds":6384,"Ġsquare":6385,"Ġinterstate":6386,"fla":6387,"isputed":6388,"Ġfilings":6389,"Ġry":6390,"Ġrequisite":6391,"Ġgaap":6392,"citation":6393,"Ġbrand":6394,"Ġenterprise":6395,"Ġsurgery":6396,"Ġcausing":6397,"rue":6398,"Ġpracticable":6399,"Ġkel":6400,"Ġevaluate":6401,"Ġcfr":6402,"ills":6403,"Ġassignments":6404,"Ġsurvey":6405,"Ġremained":6406,"Ġhazardous":6407,"Ġpick":6408,"Ġ121":6409,"Ġcorresponding":6410,"Ġlegitimate":6411,"Ġpurchases":6412,"interest":6413,"Ġlooking":6414,"Ġtherewith":6415,"Ġhur":6416,"Ġwilling":6417,"Ġshoot":6418,"Ġremainder":6419,"Ġessentially":6420,"Ġexcessive":6421,"appellee":6422,"309":6423,"Ġallowance":6424,"Ġcounterparty":6425,"Ġvalu":6426,"Ġstrategic":6427,"ompson":6428,"rote":6429,"Ġeti":6430,"point":6431,"Ġpath":6432,"ĠĠĠĠĠĠĠĠĠĠĠĠĠĠĠĠĠĠĠĠĠĠĠĠĠĠĠĠĠĠĠĠĠĠĠĠĠĠĠĠĠĠĠĠĠĠĠĠĠĠĠĠĠĠĠĠĠĠĠĠĠĠĠĠĠĠĠĠĠĠĠĠĠĠĠ":6433,"Ġadminister":6434,"Ġlieu":6435,"Ġadvantage":6436,"Ġpatents":6437,"five":6438,"Ġhonorable":6439,"Ġroll":6440,"Ġcapable":6441,"Ġpicture":6442,"Ġdun":6443,"Ġschools":6444,"Ġinjunctive":6445,"hg":6446,"Ġrevocation":6447,"lements":6448,"Ġexpenditures":6449,"Ġoffset":6450,"Ġcompensable":6451,"Ġarizona":6452,"loc":6453,"Ġpursue":6454,"Ġquoted":6455,"Ġinterested":6456,"graphic":6457,"Ġcancer":6458,"Ġrata":6459,"Ġ1970":6460,"Ġundisputed":6461,"Ġprobability":6462,"allas":6463,"fs":6464,"Ġheav":6465,"Ġidentical":6466,"nell":6467,"tts":6468,"Ġ448":6469,"rol":6470,"Ġpatients":6471,"rx":6472,"Ġdiscretionary":6473,"Ġadvertising":6474,"Ġmiddle":6475,"Ġretal":6476,"cred":6477,"187":6478,"Ġsurviving":6479,"Ġlending":6480,"cer":6481,"Ġimpaired":6482,"Ġdecrease":6483,"Ġsubparagraph":6484,"Ġcorrection":6485,"Ġconsummation":6486,"Ġforces":6487,"cel":6488,"icially":6489,"Ġrepurchase":6490,"lusive":6491,"Ġwashstatec":6492,"Ġsuggested":6493,"Ġdistribute":6494,"avail":6495,"Ġterritory":6496,"Ġbargaining":6497,"\".":6498,"Ġmanual":6499,"Ġnevada":6500,"Ġestimate":6501,"Ġgroups":6502,"Ġdeduct":6503,"ci":6504,"mi":6505,"Ġowing":6506,"Ġsubstitute":6507,"Ġestoppel":6508,"010":6509,"Ġmexico":6510,"Ġrebut":6511,"========":6512,"adian":6513,"Ġchecks":6514,"Ġtry":6515,"Ġtraum":6516,"requ":6517,"Ġstage":6518,"Ġsixty":6519,"Ġtheft":6520,"iciencies":6521,"Ġrehabilit":6522,"ourse":6523,"Ġcite":6524,"Ġgives":6525,"Ġbelong":6526,"Ġdissolution":6527,"Ġpunitive":6528,"Ġ250":6529,"119":6530,"Ġesq":6531,"Ġbag":6532,"Ġzoning":6533,"Ġ1973":6534,"Ġmerch":6535,"Ġ118":6536,"Ġray":6537,"mark":6538,"Ġsets":6539,"Ġ400":6540,"Ġ129":6541,"Ġ1940":6542,"Ġ130":6543,"1983":6544,"Ġ122":6545,"Ġencumb":6546,"Ġstee":6547,"achuse":6548,"Ġfalls":6549,"Ġsaying":6550,"1985":6551,"Ġmck":6552,"allow":6553,"ructure":6554,"Ġmanagers":6555,"Ġconcurrent":6556,"Ġobst":6557,"Ġexceeds":6558,"Ġpopulation":6559,"achusetts":6560,"Ġ126":6561,"Ġincap":6562,"Ġhouston":6563,"oles":6564,"700":6565,"wr":6566,"ortion":6567,"gun":6568,"Ġcollective":6569,"Ġ1976":6570,"vd":6571,"Ġdepression":6572,".).":6573,"Ġtransferee":6574,"hf":6575,"Ġspons":6576,"Ġremember":6577,"Ġultimate":6578,"isco":6579,"Ġoccurring":6580,"Ġprobably":6581,"nr":6582,"ulate":6583,"Ġmonetary":6584,"ifi":6585,"Ġ124":6586,"Ġpressure":6587,"Ġinsolvency":6588,"Ġ1971":6589,"Ġdelayed":6590,"ica":6591,"Ġevidenced":6592,"Ġimposition":6593,"Ġthompson":6594,"best":6595,"Ġjustify":6596,"Ġconversation":6597,"Ġappearance":6598,"ivity":6599,"1988":6600,"consin":6601,"Ġsupersed":6602,"Ġconverted":6603,"Ġpromiss":6604,"Ġarchive":6605,">;":6606,"Ġmulti":6607,"Ġclassification":6608,"Ġpers":6609,"Ġevaluations":6610,"mn":6611,"Ġweakness":6612,"Ġstriking":6613,"db":6614,"chapter":6615,"Ġpromissory":6616,"Ġharass":6617,"asive":6618,"Ġ197":6619,"Ġdeclaratory":6620,"Ġextreme":6621,"Ġkid":6622,"Ġdoe":6623,"Ġincreasing":6624,"Ġchurch":6625,"Ġfuel":6626,"Ġdisturb":6627,"Ġwrongful":6628,"Ġpreclude":6629,"wart":6630,"Ġpeace":6631,"Ġpeter":6632,"Ġnarrow":6633,"Ġreplaced":6634,"Ġaccompany":6635,"clear":6636,"Ġbsgr":6637,"ram":6638,"cond":6639,"water":6640,"Ġcongressional":6641,"Ġ128":6642,"abama":6643,"stat":6644,"Ġunenforceable":6645,"Ġrac":6646,"Ġswap":6647,"Ġ215":6648,"Ġsubcontract":6649,"Ġsitting":6650,"Ġsurvive":6651,"Ġimproperly":6652,"rie":6653,"Ġintentionally":6654,"Ġreferen":6655,"prof":6656,"Ġcerv":6657,"Ġconsiderations":6658,"Ġposted":6659,"Ġpermission":6660,"Ġ;":6661,"Ġstarted":6662,"nas":6663,"Ġdefaulting":6664,"Ġdeadline":6665,"ĠâĢĻ":6666,"Ġprop":6667,"Ġmoody":6668,"conv":6669,"ken":6670,"Ġ140":6671,"ben":6672,"Ġexercis":6673,"Ġram":6674,"Ġvalues":6675,"Ġdecline":6676,"Ġsolutions":6677,"gins":6678,"Ġrehearing":6679,"Ġmassachusetts":6680,"Ġsellers":6681,"Ġmemo":6682,"Ġmir":6683,"Ġnegotiations":6684,"Ġflows":6685,"Ġaro":6686,"Ġau":6687,"Ġdoug":6688,"Ġmonitoring":6689,"Ġchance":6690,"Ġinvolunt":6691,"Ġconsecutive":6692,"Ġsimple":6693,"Ġadviser":6694,"Ġcompel":6695,"Ġboy":6696,"Ġfoster":6697,"Ġmitig":6698,"ressed":6699,"1989":6700,"osite":6701,"212":6702,"Ġfeel":6703,"Ġcontractors":6704,"Ġirrevocably":6705,"ordinary":6706,"Ġmiles":6707,"Ġarises":6708,"Ġna":6709,"ensus":6710,"Ġlibor":6711,"Ġannum":6712,"Ġadministered":6713,"ighth":6714,"Ġflu":6715,"Ġwaives":6716,"arth":6717,"Ġemotional":6718,"Ġfifty":6719,"pet":6720,"lim":6721,"Ġtransition":6722,"akes":6723,"Ġmild":6724,"Ġsociety":6725,"ecf":6726,"eb":6727,"Ġintentional":6728,"tees":6729,"tw":6730,"Ġ____":6731,"Ġhighest":6732,"Ġrecognition":6733,"ites":6734,"600":6735,"Ġcancellation":6736,"Ġconsumers":6737,"Ġadvisors":6738,"ĠĠĠĠĠĠĠĠĠĠĠĠĠĠĠĠĠĠĠĠĠĠĠĠĠĠĠĠĠĠĠĠĠĠĠĠĠĠĠĠĠĠĠĠĠĠĠĠĠĠĠĠĠĠĠĠĠĠĠĠĠĠĠĠĠĠĠĠĠĠĠĠĠĠĠĠĠĠ":6739,"Ġparking":6740,"Ġrelationships":6741,"Ġguardian":6742,"Ġregion":6743,"Ġcoordin":6744,"Ġspent":6745,"Ġwrote":6746,"Ġalabama":6747,"anied":6748,"Ġgoal":6749,"Ġalex":6750,"Ġtalk":6751,"Ġtrig":6752,"Ġanticipated":6753,"âĪĻ":6754,"Ġran":6755,"Ġcasual":6756,"sche":6757,"Ġdied":6758,"Ġsued":6759,"Ġelections":6760,"Ġrand":6761,"Ġwisconsin":6762,"Ġobs":6763,"Ġdiligence":6764,"Ġvolume":6765,"ictions":6766,"phqw":6767,"Ġselection":6768,"Ġatty":6769,"Ġregistrable":6770,"tz":6771,"Ġcreation":6772,"Ġtherap":6773,"Ġlisting":6774,"Ġdesignate":6775,"lw":6776,"Ġ183":6777,"Ġatlant":6778,"plan":6779,"char":6780,"Ġsuspended":6781,"1987":6782,"Ġhearings":6783,"Ġproprietary":6784,"Ġsant":6785,"Ġpricing":6786,"Ġteacher":6787,"Ġfy":6788,"Ġscreen":6789,"ĠĠĠĠĠĠĠĠĠĠĠĠĠĠĠĠĠĠĠĠĠĠĠĠĠĠĠĠĠĠĠĠĠĠĠĠĠĠĠĠĠĠĠĠĠĠĠĠĠĠĠĠĠĠĠĠĠĠĠĠĠĠĠĠĠĠĠĠĠĠĠĠĠĠĠĠĠĠĠ":6790,"Ġpresentation":6791,"Ġtreasurer":6792,"Ġcircumstance":6793,"Ġfem":6794,"nan":6795,"Ġincreases":6796,"Ġblm":6797,"rast":6798,"Ġinterference":6799,"Ġinstruct":6800,"Ġprocesses":6801,"Ġpremiums":6802,"Ġduplic":6803,"Ġdependent":6804,"1982":6805,"Ġbehind":6806,"amin":6807,"304":6808,"Ġindustries":6809,"Ġfriend":6810,"provid":6811,"bursed":6812,"uana":6813,"''":6814,"Ġcommod":6815,"antial":6816,"Ġunt":6817,"can":6818,"hr":6819,"004":6820,"Ġmission":6821,"inn":6822,"Ġ355":6823,"Ġdaniel":6824,"yers":6825,"Ġlikewise":6826,"lan":6827,"Ġlewis":6828,"Ġdemands":6829,"Ġforest":6830,"Ġprocure":6831,"iley":6832,"Ġcredited":6833,"far":6834,"icut":6835,"onz":6836,"Ġtherefrom":6837,"Ġcontinuation":6838,"Ġcoming":6839,"herein":6840,"Ġmell":6841,"Ġclassified":6842,"sb":6843,"Ġnw":6844,"Ġlea":6845,"adem":6846,"Ġowns":6847,"Ġbay":6848,"Ġkept":6849,"Ġinstitute":6850,"Ġcombat":6851,"Ġgriev":6852,"ijuana":6853,"307":6854,"Ġwide":6855,"Ġnas":6856,"Ġdetention":6857,"Ġwhenever":6858,"Ġdestroy":6859,"Ġtar":6860,"Ġcitizen":6861,"Ġfle":6862,"Ġcervical":6863,"istic":6864,"Ġpapers":6865,"Ġkent":6866,"Ġimmigration":6867,"Ġderived":6868,"sible":6869,"subject":6870,"citations":6871,"Ġassembly":6872,"Ġcanadian":6873,"Ġdisorders":6874,"Ġgir":6875,"Ġrefers":6876,"Ġcomponents":6877,"jp":6878,"Ġoffers":6879,"Ġseal":6880,"pped":6881,"Ġsyndrome":6882,"Ġconducting":6883,"Ġmailed":6884,"Ġsuggests":6885,"ios":6886,"Ġ333":6887,"bers":6888,"Ġ127":6889,"Ġruled":6890,"'ve":6891,"Ġ203":6892,"Ġgetting":6893,"Ġneglect":6894,"ounds":6895,"napp":6896,"Ġreit":6897,"Ġpotentially":6898,"Ġdistinct":6899,"light":6900,"Ġreplace":6901,"Ġfo":6902,"gi":6903,"Ġequally":6904,"Ġspring":6905,"Ġwalker":6906,"ka":6907,"Ġrecording":6908,"Ġunnecessary":6909,"Ġincorrect":6910,"Ġcontinuance":6911,"Ġmanaged":6912,"Ġinmate":6913,"ublished":6914,"ĠĠĠĠĠĠĠĠĠĠĠĠĠĠĠĠĠĠĠĠĠĠĠĠĠĠĠĠĠĠĠĠĠĠĠĠĠĠĠĠĠĠĠĠĠĠĠĠĠĠĠĠĠĠĠĠĠĠĠĠĠĠĠĠĠĠĠĠĠĠĠĠĠĠĠĠĠĠĠĠĠ":6915,"anor":6916,"Ġunconstitutional":6917,"Ġgrad":6918,"Ġsupplemented":6919,"Ġ123":6920,"Ġepa":6921,"Ġnuc":6922,"Ġcommissioners":6923,"Ġreasoning":6924,"Ġexamine":6925,"Ġzero":6926,"Ġdeveloping":6927,"Ġford":6928,"linary":6929,"Ġscar":6930,"Ġhereinafter":6931,"tic":6932,"Ġupper":6933,"Ġcompletely":6934,"fection":6935,"Ġjour":6936,"vii":6937,"rer":6938,".(":6939,"Ġbearing":6940,"Ġmorgan":6941,"Ġestablishment":6942,"Ġsummar":6943,"Ġlik":6944,"Ġinfl":6945,"Ġrestitution":6946,"ainty":6947,"Ġtit":6948,"Ġ168":6949,"00538":6950,"ched":6951,"ulp":6952,"dy":6953,"ats":6954,"Ġshipp":6955,"rawn":6956,"Ġexclude":6957,"Ġinstances":6958,"Ġcovering":6959,"Ġconj":6960,".âĢĿ).":6961,"Ġmarijuana":6962,"sured":6963,"Ġasserting":6964,"0046":6965,"Ġexercisable":6966,"vision":6967,"Ġreconsideration":6968,"Ġunknown":6969,"Ġ1972":6970,"Ġ135":6971,"Ġhop":6972,"106":6973,"rance":6974,"Ġmining":6975,"Ġways":6976,"003":6977,"Ġneck":6978,"Ġ1969":6979,"Ġhotel":6980,"Ġdesire":6981,"petition":6982,"Ġpie":6983,"Ġexperts":6984,"Ġsecuring":6985,"Ġdeductions":6986,"Ġinserting":6987,"Ġira":6988,"150":6989,"Ġemployers":6990,"Ġtoll":6991,"omy":6992,"Ġsheets":6993,"Ġretention":6994,"Ġlas":6995,"Ġmaintains":6996,"Ġattempts":6997,"Ġ136":6998,"Ġ230":6999,"ught":7000,"Ġmicro":7001,"Ġvirtue":7002,"Ġavoidance":7003,"nwith":7004,"Ġkansas":7005,"Ġrank":7006,"Ġprima":7007,"nbe":7008,"iles":7009,"Ġimplementing":7010,"Ġ133":7011,"Ġta":7012,"Ġrelies":7013,"Ġdisagreement":7014,"Ġoptionee":7015,"levant":7016,"lined":7017,"worth":7018,"itude":7019,"Ġphrase":7020,"Ġclub":7021,"Ġintelligence":7022,"xxxx":7023,"Ġvictims":7024,"Ġpacific":7025,"Ġcore":7026,"Ġguarantors":7027,"Ġrap":7028,"Ġconcent":7029,"Ġdeficiencies":7030,"Ġstipulated":7031,"Ġmeanings":7032,"Ġlp":7033,"Ġformula":7034,"Ġestimates":7035,"Ġaffiliated":7036,"Ġcommencing":7037,"enger":7038,"Ġinside":7039,"Ġsurrender":7040,"Ġdisabling":7041,"Ġobjectives":7042,"Ġdelin":7043,"Ġannounced":7044,"Ġå":7045,"Ġ141":7046,"Ġcommissions":7047,"Ġ1000":7048,"Ġhappened":7049,"Ġlap":7050,"Ġcontributed":7051,"Ġgains":7052,"Ġconnecticut":7053,"ulf":7054,"Ġfacie":7055,"Ġ00000000":7056,"appropriate":7057,"Ġ134":7058,"Ġhud":7059,"Ġadding":7060,"ĠĠĠĠĠĠĠĠĠĠĠĠĠĠĠĠĠĠĠĠĠĠĠĠĠĠĠĠĠĠĠĠĠĠĠĠĠĠĠĠĠĠĠĠĠĠĠĠĠĠĠĠĠĠĠĠĠĠĠĠĠĠĠĠĠĠĠĠĠĠĠĠĠĠĠĠĠĠĠĠ":7061,"375":7062,"Ġsigns":7063,"Ġmedication":7064,"uate":7065,"Ġinherent":7066,"Ġdy":7067,"Ġrealized":7068,"Ġpromote":7069,"lph":7070,"Ġprohibit":7071,"Ġunu":7072,"Ġmanifested":7073,"Ġcanada":7074,"Ġdefenses":7075,"ilton":7076,"jlg":7077,"Ġlearned":7078,"Ġ162":7079,"Ġintend":7080,"date":7081,"Ġee":7082,"Ġment":7083,"Ġ212":7084,"Ġspon":7085,"Ġcontempt":7086,"107":7087,"rule":7088,"Ġworldwide":7089,"lqj":7090,"bus":7091,"Ġpretrial":7092,"Ġsigning":7093,"Ġdod":7094,"Ġlind":7095,"Ġpull":7096,"Ġopposed":7097,"atories":7098,"Ġpoor":7099,"Ġincarc":7100,"Ġparental":7101,"era":7102,"Ġdip":7103,"Ġjobs":7104,"Ġbears":7105,"abl":7106,"Ġvacated":7107,"Ġmg":7108,"Ġdouble":7109,"Ġ303":7110,"Ġevaluating":7111,"Ġenroll":7112,"Ġcorro":7113,"Ġautomatic":7114,"Ġonline":7115,"Ġsurround":7116,"Ġconclusive":7117,"nim":7118,"Ġandrew":7119,"Ġave":7120,"1980":7121,").\\":7122,"Ġinterfe":7123,"authorized":7124,"Ġviolates":7125,"Ġviewed":7126,"Ġextensive":7127,"inter":7128,"jh":7129,"Ġdeter":7130,"Ġproved":7131,"adict":7132,"Ġresignation":7133,"Ġprecise":7134,"Ġaccompanied":7135,"Ġaccum":7136,"Ġfelt":7137,"Ġ160":7138,"Ġcustomary":7139,"109":7140,"Ġago":7141,"kin":7142,"Ġconsisting":7143,"Ġcontentions":7144,"ethe":7145,"normal":7146,"Ġrespectfully":7147,"Ġ137":7148,"Ġprivileges":7149,"Ġmanufacturer":7150,"Ġfifteen":7151,"Ġfear":7152,"Ġmatch":7153,"key":7154,"Ġformed":7155,"Ġprevailing":7156,"lease":7157,"Ġ11101":7158,"Ġsession":7159,"Ġfer":7160,"Ġexposed":7161,"Ġ1110":7162,"Ġ302":7163,"Ġsurface":7164,"Ġprepaid":7165,"Ġamort":7166,"Ġviet":7167,"Ġresponses":7168,"Ġstopped":7169,"Ġwherein":7170,"gest":7171,"Ġconvenience":7172,"Ġaddressing":7173,"Ġarrived":7174,"count":7175,"Ġtask":7176,"Ġhighland":7177,"Ġpointed":7178,"Ġcontinuous":7179,"Ġdaughter":7180,"Ġdefaul":7181,"audited":7182,"Ġsubscri":7183,"Ġwage":7184,"patient":7185,"Ġresidents":7186,"Ġdismissing":7187,"Ġmemory":7188,"Ġworker":7189,"âĢ¢":7190,"Ġcapt":7191,"fort":7192,"Ġauto":7193,"Ġpurchasing":7194,"Ġexercising":7195,"Ġsuffer":7196,"Ġinnoc":7197,"ception":7198,"ecause":7199,"Ġcoast":7200,"Ġunreasonably":7201,"Ġmix":7202,"gor":7203,"Ġreligious":7204,"Ġrace":7205,"Ġ157":7206,"Ġ600":7207,"Ġhay":7208,"Ġchart":7209,"Ġrelying":7210,"amc":7211,"Ġheadaches":7212,"Ġcaus":7213,"prior":7214,"gy":7215,"ument":7216,"Ġclaimants":7217,"ĠĠĠĠĠĠĠĠĠĠĠĠĠĠĠĠĠĠĠĠĠĠĠĠĠĠĠĠĠĠĠĠĠĠĠĠĠĠĠĠĠĠĠĠĠĠĠĠĠĠĠĠĠĠĠĠĠĠĠĠĠĠĠĠĠĠĠĠĠĠĠĠĠĠĠĠĠĠĠĠĠĠ":7218,"ĠĠĠĠĠĠĠĠĠĠĠĠĠĠĠĠĠĠĠĠĠĠĠĠĠĠĠĠĠĠĠĠĠĠĠĠĠĠĠĠĠĠĠĠĠĠĠĠĠĠĠĠĠĠĠĠĠĠĠĠĠĠĠĠĠĠĠĠĠĠĠĠĠĠĠĠĠĠĠĠĠĠĠ":7219,"rett":7220,"Ġmailing":7221,"she":7222,"Ġquick":7223,"Ġsubordinated":7224,"dep":7225,"conviction":7226,"Ġleading":7227,"Ġopined":7228,"Ġdie":7229,"Ġjac":7230,"Ġblank":7231,"haps":7232,"Ġmovement":7233,"Ġsubchapter":7234,"loss":7235,"Ġanswered":7236,"zy":7237,"Ġrelie":7238,"nun":7239,"Ġdeciding":7240,"kes":7241,"Ġenforceability":7242,"ett":7243,"Ġmuscle":7244,"Ġfract":7245,"Ġchannel":7246,"Ġpure":7247,"Ġnexus":7248,"Ġaccompanying":7249,"Ġsupplied":7250,"subparagraph":7251,"Ġfamil":7252,"Ġdetective":7253,"conf":7254,"car":7255,"Ġengineering":7256,"Ġscience":7257,"Ġdispose":7258,"Ġrout":7259,"Ġeurodollar":7260,"fb":7261,"irst":7262,"Ġ369":7263,"Ġenforced":7264,"Ġmanage":7265,"Ġdisciplinary":7266,"Ġtiming":7267,"Ġunique":7268,"Ġacres":7269,"1981":7270,"Ġarguing":7271,"Ġbriefs":7272,"lines":7273,"han":7274,"alle":7275,"Ġobjected":7276,"Ġaffidavits":7277,"case":7278,"tiff":7279,"Ġinspector":7280,"Ġcomprom":7281,"quency":7282,"sr":7283,"Ġspread":7284,"aur":7285,"Ġvilla":7286,"Ġ132":7287,"Ġinferences":7288,"Ġprohibition":7289,"Ġscene":7290,"Ġcorrespondence":7291,"Ġninth":7292,"aj":7293,"Ġimportance":7294,"Ġ138":7295,"Ġmoderate":7296,"Ġmachine":7297,"Ġrecur":7298,"ustr":7299,"Ġdallas":7300,"Ġmount":7301,"Ġcro":7302,"501":7303,"Ġacadem":7304,"Ġbills":7305,"Ġequivalents":7306,"Ġinad":7307,"elihood":7308,"Ġsupervisor":7309,"Ġtk":7310,"Ġvalley":7311,"Ġquite":7312,"Ġbrook":7313,"Ġhypot":7314,"isted":7315,"Ġcapitalized":7316,"outh":7317,"Ġneigh":7318,"Ġ\"(":7319,"Ġvacc":7320,"Ġusers":7321,"xiety":7322,"Ġconsulting":7323,"trust":7324,"Ġrunning":7325,"Ġwithhold":7326,"Ġ..":7327,"Ġcarefully":7328,"Ġinstitutional":7329,"Ġfigure":7330,"Ġwarning":7331,"Ġ224":7332,"nesota":7333,"Ġepis":7334,"Ġrefusing":7335,"bell":7336,"Ġtrademark":7337,"Ġseizure":7338,"Ġ156":7339,"Ġmoot":7340,"Ġmeets":7341,"thir":7342,"1979":7343,"Ġsue":7344,"avor":7345,"Ġleaving":7346,"sually":7347,"Ġcasualty":7348,"Ġnoncomp":7349,"Ġinfrast":7350,"Ġshortly":7351,"Ġhel":7352,"cir":7353,"Ġsess":7354,"Ġhope":7355,"Ġdeclare":7356,"ette":7357,"omb":7358,"Ġtalking":7359,"Ġdeems":7360,"Ġsteel":7361,"mes":7362,"arsay":7363,"~~":7364,"Ġ155":7365,"Ġmodifications":7366,"Ġhunt":7367,"Ġraises":7368,"Ġinput":7369,"Ġdeclined":7370,"Ġcommittees":7371,"nett":7372,"Ġunusual":7373,"Ġ501":7374,"ruption":7375,"Ġsearc":7376,"Ġtrail":7377,"eenth":7378,"Ġsteven":7379,"Ġpas":7380,"ream":7381,"eal":7382,"employee":7383,"people":7384,"ohio":7385,"Ġwrite":7386,"Ġinvoluntary":7387,"Ġsometimes":7388,"Ġjurisdictional":7389,"Ġsituated":7390,"fund":7391,"Ġnecessity":7392,"Ġpoly":7393,"Ġomissions":7394,"Ġconveyance":7395,"Ġoccasions":7396,"Ġnurs":7397,"Ġexpired":7398,"Ġfunded":7399,"agreement":7400,"Ġeighth":7401,"Ġuncert":7402,"Ġ1968":7403,"ern":7404,"Ġsuits":7405,"Ġmedicare":7406,"Ġ365":7407,"pass":7408,"cast":7409,"Ġ146":7410,"pd":7411,"Ġmisd":7412,"Ġanxiety":7413,"________________________________":7414,"Ġtribun":7415,"Ġ403":7416,"Ġrestatement":7417,"Ġfreedom":7418,"âĢĿ.":7419,"subst":7420,"Ġ131":7421,"Ġannuity":7422,"Ġidentifying":7423,"mun":7424,"Ġcc":7425,"Ġrom":7426,"yn":7427,"Ġsubstances":7428,"jection":7429,"Ġjo":7430,"Ġlikelihood":7431,"Ġreceipts":7432,"Ġanswers":7433,"Ġ....":7434,"Ġash":7435,"Ġtrain":7436,"Ġfranchise":7437,"Ġvietnam":7438,"Ġcredits":7439,"report":7440,"Ġcondemn":7441,"ets":7442,"Ġaccuracy":7443,"Ġdisclosures":7444,"Ġ227":7445,"Ġgreg":7446,"Ġcooperate":7447,"Ġprepay":7448,"Ġpil":7449,"Ġfit":7450,"Ġdemonstrates":7451,"aho":7452,"801":7453,"Ġmandate":7454,"Ġincom":7455,"chell":7456,"lated":7457,"title":7458,"Ġvariable":7459,"Ġ143":7460,"Ġannivers":7461,"Ġaudi":7462,"Ġfda":7463,"nthis":7464,"mitt":7465,"Ġprisoner":7466,"Ġreck":7467,"Ġexchan":7468,"Ġputnam":7469,"Ġstol":7470,"Ġprov":7471,"Ġfill":7472,"Ġconvention":7473,"Ġrobinson":7474,"Ġprud":7475,"Ġsus":7476,"Ġsurve":7477,"Ġminnesota":7478,"Ġfriends":7479,"Ġpu":7480,"icket":7481,"Ġhip":7482,"Ġ!":7483,"Ġmineral":7484,"Ġrico":7485,"130":7486,"Ġko":7487,"Ġbuildings":7488,"Ġascertain":7489,"Ġjurisdictions":7490,"Ġpetro":7491,"ippi":7492,"security":7493,"Ġinfrastructure":7494,"pers":7495,"qj":7496,"making":7497,"Ġvoters":7498,"Ġvoted":7499,".-":7500,"Ġpayroll":7501,".'\"":7502,"uls":7503,"Ġinvolvement":7504,"Ġconvinc":7505,"Ġdat":7506,"Ġjustified":7507,"block":7508,"Ġlicensing":7509,"Ġsituations":7510,"display":7511,"Ġbuil":7512,"eth":7513,"Ġarose":7514,"Ġcommercially":7515,"Ġattempting":7516,"Ġvotes":7517,"half":7518,"iliar":7519,"ington":7520,"Ġ214":7521,"Ġnom":7522,"dv":7523,"issippi":7524,"aceut":7525,"Ġrehabilitation":7526,"Ġdenomin":7527,"Ġshar":7528,"Ġeconomy":7529,"regon":7530,"Ġtdi":7531,"Ġdouglas":7532,"plus":7533,"Ġ204":7534,"Ġtor":7535,"Ġsubsec":7536,"Ġburgl":7537,"Ġfault":7538,"Ġperfect":7539,"cop":7540,"rb":7541,"Ġdow":7542,"Ġconsists":7543,"Ġconstituting":7544,"Ġobviously":7545,"Ġturned":7546,"Ġcorrobor":7547,"Ġdept":7548,"aneously":7549,"hent":7550,"Ġbench":7551,"Ġ280":7552,"Ġconjunction":7553,"Ġ220":7554,"Ġoregon":7555,"Ġhence":7556,"Ġformat":7557,"Ġattacks":7558,"Ġhearsay":7559,"Ġswingline":7560,"Ġsuperint":7561,"Ġmarine":7562,"Ġwhereof":7563,"iche":7564,"Ġ147":7565,"Ġperhaps":7566,"ontin":7567,"Ġcooperation":7568,"Ġmt":7569,"utsche":7570,"Ġapple":7571,"Ġrevision":7572,"Ġintr":7573,"Ġnuclear":7574,"ĠĠĠĠĠĠĠĠĠĠĠĠĠĠĠĠĠĠĠĠĠĠĠĠĠĠĠĠĠĠĠĠĠĠĠĠĠĠĠĠĠĠĠĠĠĠĠĠĠĠĠĠĠĠĠĠĠĠĠĠĠĠĠĠĠĠĠĠĠĠĠĠĠĠĠĠĠĠĠĠĠĠĠĠ":7575,"idence":7576,"Ġ512":7577,"Ġenhancement":7578,"Ġsponsor":7579,"Ġ159":7580,"vent":7581,"Ġhandled":7582,"Ġlabel":7583,"org":7584,"Ġreversal":7585,"Ġprejudiced":7586,"Ġwild":7587,"Ġwol":7588,"Ġprotest":7589,"Ġemphas":7590,"vestment":7591,"Ġdor":7592,"Ġcontempor":7593,"Ġhandling":7594,"night":7595,"Ġbirth":7596,"ï¬":7597,"Ġimper":7598,"nees":7599,"Ġgall":7600,"Ġri":7601,"Ġinvestigations":7602,"Ġfamilies":7603,"Ġtdiu":7604,"Ġbridge":7605,"Ġanniversary":7606,"Ġoperational":7607,"ining":7608,"Ġintox":7609,"ressive":7610,"Ġwish":7611,"Ġdise":7612,"igent":7613,"icate":7614,"Ġfraction":7615,"itus":7616,"Ġ1967":7617,"Ġfitness":7618,"fig":7619,"Ġhor":7620,"Ġcontended":7621,"1976":7622,"Ġextraordinary":7623,"Ġ145":7624,"Ġkill":7625,"Ġstar":7626,"Ġguns":7627,"301":7628,"aceutical":7629,"Ġmistake":7630,"Ġplatform":7631,"Ġ________":7632,"without":7633,"second":7634,"looking":7635,"Ġgrade":7636,"Ġlc":7637,"Ġ218":7638,"reason":7639,"Ġhedge":7640,"Ġdenies":7641,"Ġinterfere":7642,"itors":7643,"gar":7644,"Ġbodily":7645,"Ġadvise":7646,"Ġrh":7647,"Ġcreating":7648,"Ġ210":7649,"hq":7650,"nv":7651,"adelph":7652,"Ġsanction":7653,"Ġauthorizing":7654,"Ġdistricts":7655,"Ġ211":7656,"Ġrober":7657,"Ġslight":7658,"Ġfisher":7659,"Ġmississippi":7660,"Ġ142":7661,"Ġ206":7662,"his":7663,"1978":7664,"Ġron":7665,"Ġphill":7666,"Ġexplicitly":7667,"Ġenjoin":7668,"Ġscientific":7669,"oph":7670,"Ġ139":7671,"ulations":7672,"bon":7673,"Ġchase":7674,"Ġforced":7675,"adelphia":7676,"si":7677,"you":7678,"plete":7679,"ableness":7680,"********":7681,"Ġobjects":7682,"Ġhomes":7683,"Ġpleaded":7684,"Ġcd":7685,"Ġmel":7686,"Ġ170":7687,"Ġhit":7688,"Ġdeprec":7689,"Ġpromise":7690,"Ġround":7691,"Ġimplemented":7692,"Ġsignatures":7693,"Ġexternal":7694,"fact":7695,"Ġradio":7696,"about":7697,"Ġabnormal":7698,"Ġcounties":7699,"nare":7700,"reek":7701,"Ġconcluding":7702,"applicable":7703,"rain":7704,"hi":7705,"Ġextensions":7706,"Ġdivided":7707,"Ġexclusively":7708,"Ġ190":7709,"Ġapprovals":7710,"Ġreckless":7711,"abor":7712,"Ġconfine":7713,"Ġ165":7714,"welling":7715,"Ġrepeatedly":7716,"place":7717,"win":7718,"Ġbeneficially":7719,"Ġfacilitate":7720,"Ġwkh":7721,"Ġabst":7722,"Ġenglish":7723,"Ġredacted":7724,"Ġdisbursements":7725,"Ġwithdrawn":7726,"ita":7727,"Ġqualification":7728,"paign":7729,"Ġconsistently":7730,"Ġcole":7731,"Ġwaters":7732,"admin":7733,"hereinafter":7734,"ala":7735,"ronically":7736,"Ġlocations":7737,"iating":7738,"Ġdistinction":7739,"establis":7740,"Ġsplit":7741,"Ġforty":7742,"ples":7743,"Ġidaho":7744,"Ġsurety":7745,"Ġshin":7746,"ese":7747,"Ġsurrounding":7748,"Ġconsultation":7749,"Ġ449":7750,"Ġdocumented":7751,"tered":7752,"âĢĿ:":7753,"Ġauthorizes":7754,"Ġ158":7755,"Ġcenters":7756,"Ġ358":7757,"toc":7758,"general":7759,"tenn":7760,"Ġstephen":7761,"Ġvaluable":7762,"Ġ152":7763,"iami":7764,"Ġreliability":7765,"Ġspecifications":7766,"sic":7767,"rier":7768,"Ġstan":7769,"Ġbott":7770,"Ġconsequence":7771,"Ġ149":7772,"Ġbry":7773,"Ġsupplies":7774,"ots":7775,"Ġdimin":7776,"Ġdefective":7777,"super":7778,"Ġ800":7779,"Ġuntrue":7780,"Ġtribunal":7781,"Ġimposing":7782,"ucky":7783,"Ġ161":7784,"Ġregularly":7785,"ches":7786,"Ġballots":7787,"ĠĠĠĠĠĠĠĠĠĠĠĠĠĠĠĠĠĠĠĠĠĠĠĠĠĠĠĠĠĠĠĠĠĠĠĠĠĠĠĠĠĠĠĠĠĠĠĠĠĠĠĠĠĠĠĠĠĠĠĠĠĠĠĠĠĠĠĠĠĠĠĠĠĠĠĠĠĠĠĠĠĠĠĠĠĠĠĠ":7788,"Ġshel":7789,"bro":7790,"ades":7791,"ĠĠĠĠĠĠĠĠĠĠĠĠĠĠĠĠĠĠĠĠĠĠĠĠĠĠĠĠĠĠĠĠĠĠĠĠĠĠĠĠĠĠĠĠĠĠĠĠĠĠĠĠĠĠĠĠĠĠĠĠĠĠĠĠĠĠĠĠĠĠĠĠĠĠĠĠĠĠĠĠĠĠĠĠĠĠĠĠĠĠĠĠĠĠ":7792,"Ġdispositive":7793,"Ġgenerated":7794,"Ġsister":7795,"load":7796,"Ġcook":7797,"Ġinitiated":7798,"Ġcertifying":7799,"etheless":7800,"Ġfolder":7801,"Ġannually":7802,"Ġindemnifying":7803,"Ġdissenting":7804,"Ġstolen":7805,"Ġast":7806,"Ġlacked":7807,"Ġrestaur":7808,"Ġhealthcare":7809,"Ġchoose":7810,"Ġware":7811,"amation":7812,"md":7813,"lj":7814,"Ġeliminate":7815,"Ġsort":7816,"Ġpermitting":7817,"01187":7818,"ologist":7819,"Ġirrelevant":7820,"Ġaggravation":7821,"Ġtroub":7822,"Ġschedular":7823,"jury":7824,"Ġmisdeme":7825,"nhave":7826,"perform":7827,"Ġadult":7828,"ians":7829,"Ġdistinguish":7830,"Ġfargo":7831,"Ġrecovered":7832,"Ġlived":7833,"Ġcontracting":7834,"Ġetiology":7835,"Ġjoined":7836,"Ġstrength":7837,"Ġcab":7838,"Ġmeasured":7839,"Ġfrancisco":7840,"Ġsums":7841,"Ġtas":7842,"Ġdkt":7843,"Ġpassenger":7844,"Ġ900":7845,"Ġrulings":7846,"Ġappreciation":7847,"Ġjournal":7848,"vance":7849,"ara":7850,"Ġinvesting":7851,"ounter":7852,"Ġgonz":7853,"Ġendorsement":7854,"Ġsharing":7855,"life":7856,"Ġmotiv":7857,"Ġmunitions":7858,"mot":7859,"Ġye":7860,"Ġdiseases":7861,"Ġ148":7862,"Ġ153":7863,"Ġperiodic":7864,"Ġsun":7865,"Ġidea":7866,"Ġmisrepresentation":7867,"020":7868,"Ġenjoy":7869,"Ġnorm":7870,"ĠĠĠĠĠĠĠĠĠĠĠĠĠĠĠĠĠĠĠĠĠĠĠĠĠĠĠĠĠĠĠĠĠĠĠĠĠĠĠĠĠĠĠĠĠĠĠĠĠĠĠĠĠĠĠĠĠĠĠĠĠĠĠĠĠĠĠĠĠĠĠĠĠĠĠĠĠĠĠĠĠĠĠĠĠĠ":7871,"ertain":7872,"mor":7873,"Ġnonetheless":7874,"Ġphiladelphia":7875,"Ġsovere":7876,"Ġscore":7877,")),":7878,"Ġderivative":7879,"900":7880,"Ġhire":7881,"Ġmitchell":7882,"Ġindependently":7883,"Ġpharmaceutical":7884,"filed":7885,"Ġextremity":7886,"Ġaa":7887,"Ġmeant":7888,"Ġauthent":7889,"Ġprobate":7890,"Ġ166":7891,"Ġstra":7892,"Â°":7893,"odes":7894,"war":7895,"Ġ213":7896,"Ġlacks":7897,"Ġproving":7898,"Ġbeach":7899,"Ġartic":7900,"Ġ154":7901,"Ġgre":7902,"750":7903,"Ġoak":7904,"Ġsector":7905,"iorari":7906,"Ġsuperintendent":7907,"Ġkan":7908,"jd":7909,"aly":7910,"Ġreaching":7911,"108":7912,"Ġknowing":7913,"Ġ208":7914,"Ġaccelerated":7915,"Ġneurolog":7916,"Ġ?":7917,"Ġdomin":7918,"Ġheirs":7919,"subsection":7920,"Ġparticipated":7921,"Ġthorough":7922,"Ġ163":7923,"cw":7924,"Ġfamiliar":7925,"elig":7926,"Ġevidencing":7927,"Ġlane":7928,"dqg":7929,"Ġcham":7930,"ondon":7931,"formation":7932,"Ġadvoc":7933,"Ġcontradict":7934,"Ġphysicians":7935,"Ġweigh":7936,"Ġlin":7937,"Ġmiami":7938,"cribe":7939,"Ġadams":7940,"who":7941,"ura":7942,"ĠĠĠĠĠĠĠĠĠĠĠĠĠĠĠĠĠĠĠĠĠĠĠĠĠĠĠĠĠĠĠĠĠĠĠĠĠĠĠĠĠĠĠĠĠĠĠĠĠĠĠĠĠĠĠĠĠĠĠĠĠĠĠĠĠĠĠĠĠĠĠĠĠĠĠĠĠĠĠĠĠĠĠĠĠ":7943,"aming":7944,"Ġsupplier":7945,"Ġupdate":7946,"Ġ1965":7947,"Ġcontrast":7948,"resident":7949,"Ġarbitrary":7950,"rich":7951,"Ġtam":7952,"Ġ216":7953,"Ġstores":7954,"Ġfranklin":7955,"Ġgoes":7956,"whg":7957,"stone":7958,"Ġdemoc":7959,"Ġreveals":7960,"Ġrub":7961,"Ġexpans":7962,"abb":7963,"Ġcommunities":7964,"008":7965,"Ġtur":7966,"eline":7967,"Ġdomain":7968,"Ġdisposal":7969,"Ġfrequently":7970,"Ġ223":7971,"Ġbru":7972,"Ġ205":7973,"Ġwel":7974,"Ġanalog":7975,"opard":7976,"002":7977,"Ġvendor":7978,"Ġquestioned":7979,"Ġbaker":7980,"Ġunpublished":7981,"Ġreporter":7982,"Ġtaxation":7983,"Ġsolicitation":7984,"Ġunderstands":7985,"Ġaccountants":7986,"dom":7987,"Ġ405":7988,"Ġnu":7989,"restrict":7990,"321":7991,"Ġ1155":7992,"Ġsecre":7993,"Ġorganiz":7994,"insured":7995,"Ġelev":7996,"Ġpresently":7997,"Ġresource":7998,"Ġforb":7999,"Ġ169":8000,"Ġcites":8001,"Ġreferenced":8002,"kee":8003,"icking":8004,"Ġdecreased":8005,"Ġ151":8006,"Ġseventh":8007,"Ġrepealed":8008,"Ġec":8009,"Ġreviews":8010,"available":8011,"drigue":8012,"Ġnewly":8013,"Ġprime":8014,"Ġasbest":8015,"Ġclot":8016,"level":8017,"Äĳ":8018,"Ġtreating":8019,"Ġmorris":8020,"Ġflood":8021,"021":8022,"Ġclosely":8023,"amus":8024,"1977":8025,"Ġparcel":8026,"Ġpend":8027,"Ġroutine":8028,"Ġuseful":8029,"Ġexpertise":8030,"Ġalien":8031,"rix":8032,"Ġ171":8033,"ncom":8034,"Ġguarantees":8035,"Ġbail":8036,"Ġtherapy":8037,"Ġcertiorari":8038,"olit":8039,"Ġacquiring":8040,"Ġsummons":8041,"Ġharassment":8042,"Ġpit":8043,"Ġhistorical":8044,"Ġcomplainant":8045,"006":8046,"Ġmissing":8047,"Ġacceleration":8048,"Ġconvincing":8049,"Ġanalyz":8050,"Ġassumptions":8051,"118":8052,"Ġmarital":8053,"Ġcommented":8054,"Ġrestrictive":8055,"Ġcm":8056,"Ġbreached":8057,"Ġ222":8058,"income":8059,"Ġtranche":8060,"Ġhired":8061,"Ġlists":8062,"Ġmcdon":8063,"254":8064,"Ġvision":8065,"Ġdigital":8066,"Ġusually":8067,"Ġgilbert":8068,"driguez":8069,"Ġincremental":8070,"302":8071,"Ġunauthorized":8072,"Ġhyd":8073,"anger":8074,"Ġmarried":8075,"Ġefficient":8076,"mont":8077,"Ġframework":8078,"Ġninety":8079,"Ġmatthe":8080,"Ġsample":8081,"ifiable":8082,"Ġdesc":8083,"Ġhousehold":8084,"Ġhttp":8085,"Ġappraisal":8086,"Ġemp":8087,"Ġkelly":8088,"Ġevans":8089,"Ġminim":8090,"Ġstrick":8091,"Ġthreats":8092,"opher":8093,"Ġintegrity":8094,"919":8095,"Ġaustin":8096,"Ġtwice":8097,"kers":8098,"commun":8099,"utation":8100,"Ġsupervised":8101,"Ġreasonableness":8102,"Ġencourage":8103,"Ġtel":8104,"Ġexamples":8105,"ierarch":8106,"Ġtank":8107,"Ġunjust":8108,"Ġrecl":8109,"Ġelectronically":8110,"Ġ167":8111,"Ġdistress":8112,"Ġvale":8113,"\"/":8114,"ko":8115,"mann":8116,"utors":8117,"Ġtransmit":8118,"my":8119,"Ġsynthe":8120,"Ġsubscription":8121,"Ġjul":8122,"Ġinvestigate":8123,"Ġcampaign":8124,"Ġseized":8125,"Ġhoward":8126,"Ġretaliation":8127,"Ġsor":8128,"604":8129,"Ġinmates":8130,"good":8131,"Ġ229":8132,"Ġdistance":8133,"Ġpermissible":8134,"Ġutah":8135,"Ġplanned":8136,"Ġqualifying":8137,"Ġpackage":8138,"Ġproducing":8139,"204":8140,"Ġvillage":8141,"Ġconstructive":8142,"Ġol":8143,"Ġ466":8144,")-":8145,"Ġruss":8146,"Ġfourteenth":8147,"nde":8148,"aling":8149,"lap":8150,"Ġpattern":8151,"Ġ164":8152,"Ġ304":8153,"115":8154,"Ġstruck":8155,"tery":8156,"Ġlump":8157,"Ġengaging":8158,"Ġready":8159,"Ġped":8160,"Ġfrequent":8161,"Ġwhit":8162,"sch":8163,"Ġwaivers":8164,"Ġhu":8165,"Ġsimult":8166,"Ġceo":8167,"Ġcompelling":8168,"Ġtowards":8169,"Ġconstruct":8170,"Ġjeopard":8171,"Ġdiscussions":8172,"549":8173,"Ġserves":8174,"Ġaspects":8175,"Ġforma":8176,"Ġshooting":8177,"Ġuncond":8178,"Ġjeffrey":8179,"Ġqualifications":8180,"Ġcooperative":8181,"Ġorth":8182,"ding":8183,"Ġtreaty":8184,"Ġdisposed":8185,"'ll":8186,"Ġbatter":8187,"Ġconfinement":8188,"Ġdonald":8189,"Ġ175":8190,"Ġapart":8191,"Ġ523":8192,"Ġors":8193,"Ġ221":8194,"009":8195,"Ġ424":8196,".âĢĻâĢĿ":8197,"Ġflight":8198,"Ġviews":8199,"Ġrefuse":8200,"Ġconceded":8201,"Ġhenry":8202,"Ġburd":8203,"Ġcreek":8204,"Ġintends":8205,"rete":8206,"Ġpredecess":8207,"owned":8208,"idal":8209,"Ġburglary":8210,"Ġdefender":8211,"Ġimpossible":8212,"Ġroyalty":8213,">\\":8214,"Ġlam":8215,"Ġtypically":8216,"issue":8217,"Ġ217":8218,"Ġgulf":8219,"Ġgrievance":8220,"Ġ242":8221,"cco":8222,"xml":8223,"wal":8224,"Ġ314":8225,"Ġbecoming":8226,"Ġ226":8227,"pathy":8228,"Ġupdated":8229,"Ġfunctioning":8230,"Ġnoise":8231,"Ġ503":8232,"unch":8233,"310":8234,"borrow":8235,"Ġæ":8236,"Ġassertions":8237,"ĠÃ":8238,"ai":8239,"Ġdiscontin":8240,"Ġreadily":8241,"Ġliquidity":8242,"Ġmandamus":8243,"ierarchy":8244,"475":8245,"Ġconstant":8246,"âĢ¦âĢ¦âĢ¦âĢ¦":8247,"----------":8248,"Ġross":8249,"Ġcorps":8250,"161":8251,"].)":8252,"Ġcontested":8253,"Ġ____________________________________________":8254,"Ġbern":8255,"Ġviolating":8256,"Ġ526":8257,"Ġpractical":8258,"Ġimproved":8259,"Ġtangible":8260,"Ġconservation":8261,"profit":8262,"Ħ¢":8263,"Ġordinarily":8264,"Ġsuccessfully":8265,"Ġscr":8266,"del":8267,"Ġreleases":8268,"Ġdys":8269,"minent":8270,"Ġvalidly":8271,"viii":8272,"Ġnavy":8273,"Ġ477":8274,"Ġsites":8275,"Ġfeatures":8276,"Ġremote":8277,"Ġcandidate":8278,"figure":8279,"Ġky":8280,"ensed":8281,"Ġnl":8282,"hedular":8283,"Ġmovant":8284,"Ġ181":8285,"Ġexceptional":8286,"203":8287,"Ġgray":8288,"Ġfeed":8289,"Ġperpet":8290,"Ġboston":8291,"Ġwheel":8292,"Ġlooked":8293,"Ġ305":8294,"Ġcharacteristics":8295,"Ġdifferences":8296,"Ġattn":8297,"Ġnoting":8298,"Ġ312":8299,"Ġ440":8300,"Ġtownship":8301,"Ġdepreciation":8302,"Ġelsewhere":8303,"Ġexceeding":8304,"Ġrd":8305,"Ġinstallation":8306,"anim":8307,"Ġabandoned":8308,"gom":8309,"Ġ473":8310,"Ġ219":8311,"Ġreferring":8312,"Ġdistributor":8313,"Ġprohibits":8314,"Ġinvention":8315,"Ġ308":8316,"Ġoccupation":8317,"Ġmedicaid":8318,"ball":8319,"Ġ529":8320,"Ġfinger":8321,"cla":8322,"business":8323,"Ġtools":8324,"Ġmisdemeanor":8325,"Ġcorrections":8326,"Ġsettle":8327,"Ġeffected":8328,"##":8329,"soft":8330,"fac":8331,"Ġ525":8332,"Ġairport":8333,"Ġgent":8334,"Ġeverything":8335,"Ġfulfill":8336,"Ġstored":8337,"Ġdeep":8338,"cape":8339,"Ġconveyed":8340,"Ġhabit":8341,"Ġbylaws":8342,"Ġconsiders":8343,"ĠĠĠĠĠĠĠĠĠĠĠĠĠĠĠĠĠĠĠĠĠĠĠĠĠĠĠĠĠĠĠĠĠĠĠĠĠĠĠĠĠĠĠĠĠĠĠĠĠĠĠĠĠĠĠĠĠĠĠĠĠĠĠĠĠĠĠĠĠĠĠĠĠĠĠĠĠĠĠĠĠĠĠĠĠĠĠĠĠ":8344,"hd":8345,"Ġrot":8346,"Ġkentucky":8347,"Ġstrategies":8348,"Ġgard":8349,"Ġ[*]":8350,"continued":8351,"ux":8352,"Ġvary":8353,"Ġmine":8354,"Ġcausation":8355,"mart":8356,"munition":8357,"Ġanth":8358,"first":8359,"Ġproven":8360,"eman":8361,"Ġtrier":8362,"Ġ186":8363,"Ġdiagnoses":8364,"Ġkim":8365,"Ġfish":8366,"Ġusual":8367,"Ġenum":8368,"Ġappropriately":8369,"Ġherewith":8370,"Ġprotoc":8371,"sume":8372,"Ġtenn":8373,"Ġ307":8374,"inez":8375,"Ġcomparison":8376,"Ġparte":8377,"Ġ187":8378,"advis":8379,"Ġ435":8380,"Ġkir":8381,"Ġ228":8382,"Ġice":8383,"209":8384,"ius":8385,"foot":8386,"Ġcarter":8387,"asm":8388,"Ġchallenging":8389,"Ġdatab":8390,"Ġverified":8391,"Ġantit":8392,"Ġaccepting":8393,"Ġundertaking":8394,"cellaneous":8395,",'":8396,"call":8397,"Ġraising":8398,"vention":8399,"Ġspoke":8400,"pract":8401,"Ġissuable":8402,"termination":8403,"ĠĠĠĠĠĠĠĠĠĠĠĠĠĠĠĠĠĠĠĠĠĠĠĠĠĠĠĠĠĠĠĠĠĠĠĠĠĠĠĠĠĠĠĠĠĠĠĠĠĠĠĠĠĠĠĠĠĠĠĠĠĠĠĠĠĠĠĠĠĠĠĠĠĠĠĠĠĠĠĠĠĠĠĠĠĠĠĠĠĠ":8404,"Ġsuspic":8405,"Ġmellitus":8406,"Ġbd":8407,"seki":8408,"Ġtion":8409,"Ġpetitions":8410,"Ġprevented":8411,"Ġstrain":8412,"tel":8413,"clock":8414,"Ġ207":8415,"Ġweighted":8416,"otal":8417,"gomery":8418,"rous":8419,"Ġinappropriate":8420,"Ġshinseki":8421,"Ġtrusts":8422,"110":8423,"Ġattendance":8424,"Ġgift":8425,"Ġtraded":8426,"Ġaccomplished":8427,"dist":8428,"Ġprecluded":8429,"Ġswitch":8430,"athan":8431,"Ġban":8432,"Ġbrit":8433,"Ġinclusion":8434,"Ġinitiative":8435,"Ġ\"`":8436,"Ġrose":8437,"Ġvoter":8438,"administr":8439,"leum":8440,"Ġlondon":8441,"ipher":8442,"Ġcontinuity":8443,"Ġucc":8444,"Ġanton":8445,"Ġarkansas":8446,"Ġ268":8447,"Ġunrelated":8448,"Ġawarding":8449,"Ġpresiding":8450,"Ġrecre":8451,"itect":8452,"Ġ247":8453,"Ġ550":8454,"Ġamortization":8455,"ĠĠĠĠĠĠĠĠĠĠĠĠĠĠĠĠĠĠĠĠĠĠĠĠĠĠĠĠĠĠĠĠĠĠĠĠĠĠĠĠĠĠĠĠĠĠĠĠĠĠĠĠĠĠĠĠĠĠĠĠĠĠĠĠĠĠĠĠĠĠĠĠĠĠĠĠĠĠĠĠĠĠĠĠĠĠĠĠĠĠĠ":8456,"Ġvs":8457,"Ġexactly":8458,"Ġchest":8459,"Ġfocused":8460,"Ġammunition":8461,"Ġtab":8462,"ivan":8463,"Ġabsolutely":8464,"Ġtrauma":8465,"Ġreliable":8466,"iqu":8467,"Ġshop":8468,"Ġcontribute":8469,"Ġdict":8470,"1975":8471,"ioned":8472,"Ġexplo":8473,"Ġhan":8474,"Ġchristopher":8475,"account":8476,"Ġ185":8477,"Ġvariety":8478,"Ġprinted":8479,"Ġinstallment":8480,"Ġwors":8481,"Ġquantity":8482,"itionally":8483,"Ġneighbor":8484,"Ġmagn":8485,"Ġpossessed":8486,"Ġ492":8487,"fw":8488,"206":8489,"âĦ¢":8490,"Ġpul":8491,"Ġ350":8492,"Ġlevy":8493,"Ġlives":8494,"Ġrig":8495,"inking":8496,"Ġinvested":8497,"bul":8498,"Ġaffects":8499,"employer":8500,"Ġvoice":8501,".\").":8502,"Ġdispar":8503,"Ġrape":8504,"Ġwatch":8505,"Ġroberts":8506,"Ġsynthetic":8507,"Ġebit":8508,"Ġdefects":8509,"Ġfres":8510,"vested":8511,"Ġpostal":8512,"Ġjacob":8513,"raud":8514,"Ġib":8515,"Ġunderw":8516,"Ġpassage":8517,"Ġminority":8518,"ptive":8519,"Ġala":8520,"aren":8521,"Ġappealable":8522,"ola":8523,"Ġwid":8524,"Ġinnov":8525,"ifts":8526,"Ġissuers":8527,"direct":8528,"Ġproximate":8529,"Ġthousands":8530,"ho":8531,"rical":8532,"pc":8533,"Ġrepairs":8534,"Ġvalued":8535,"Ġutilities":8536,"Ġeasement":8537,"Ġonset":8538,"Ġlots":8539,"federal":8540,"Ġtenants":8541,"Ġprevention":8542,"Ġdeparture":8543,"Ġfd":8544,"Ġdepends":8545,"nnot":8546,"Ġconsc":8547,"Ġherself":8548,"Ġ[Â¶":8549,"Ġreopened":8550,"Ġapplicability":8551,"Ġjen":8552,"Ġperfected":8553,"Ġcontacted":8554,"center":8555,"Ġconcurring":8556,"Ġbringing":8557,"Ġ1966":8558,"othy":8559,"ser":8560,"owner":8561,"Ġcareful":8562,"Ġ402":8563,"015":8564,"nat":8565,"Ġshell":8566,"Ġcharacterized":8567,"Ġ1822":8568,"Ġ209":8569,"americ":8570,"success":8571,"Ġguide":8572,"Ġincidents":8573,"Ġcharging":8574,"Ġdiffer":8575,"Ġmontgomery":8576,"Ġbreat":8577,"Ġ188":8578,"Ġgate":8579,"Ġix":8580,"Ġreducing":8581,"Ġrealty":8582,"Ġsuffering":8583,"Ġborder":8584,"insurance":8585,"Ġappropriations":8586,"Ġtraditional":8587,"Ġpec":8588,"hon":8589,"Ġvacation":8590,"Ġ245":8591,"Ġdestruction":8592,"Ġ196":8593,"Ġaver":8594,"326":8595,"Ġmedium":8596,"Ġtransp":8597,"Ġproposals":8598,"Ġdefines":8599,"ÏŃ":8600,"ographic":8601,"Ġspr":8602,"Æ¶":8603,"Ġlateral":8604,"Ġdental":8605,"Ġod":8606,"Ġdefinite":8607,"ompet":8608,"Ġ174":8609,"Ġheight":8610,"arcia":8611,"Ġherb":8612,"Ġdiversity":8613,"Ġagricultural":8614,"Ġfracture":8615,"Ġclay":8616,"Ġdiscriminatory":8617,"Ġ415":8618,"Ġmans":8619,"vs":8620,"Ġorange":8621,"sofar":8622,"Ġsuitable":8623,"Ġnormally":8624,"Ġcomputed":8625,"Ġ436":8626,"Ġprescription":8627,"iling":8628,"Ġcult":8629,"Ġmarshall":8630,"Ġentertain":8631,"Ġalternate":8632,"Ġ173":8633,"Ġ238":8634,"Ġopposing":8635,"Ġunanim":8636,"Ġsubcommittee":8637,"assign":8638,"Ġdescribing":8639,"Ġwoman":8640,"Ġlarger":8641,"Ġcogn":8642,"Ġbrian":8643,"Ġcompromise":8644,"Ġ275":8645,"Ġrussell":8646,"eligible":8647,"Ġ182":8648,"tte":8649,"Ġopened":8650,"Ġpreparing":8651,"Ġisol":8652,"Ġ193":8653,"Ġomit":8654,"Ġzone":8655,"Ġfab":8656,"Ġviolent":8657,"Ġmap":8658,"fo":8659,"Ġeventually":8660,"while":8661,"endum":8662,"Ġrural":8663,"uk":8664,"mons":8665,"Ġoptional":8666,"Ġ................................":8667,"cash":8668,"ros":8669,"Ġinstituted":8670,"finding":8671,"Ġarchitect":8672,"Ġnort":8673,"Ġweig":8674,"Ġfight":8675,"illo":8676,"Ġobserve":8677,"Ġdestroyed":8678,"Ġrapid":8679,"hart":8680,"Ġdeploy":8681,"vv":8682,"cj":8683,"Ġrestruct":8684,"tim":8685,"Ġmortgagee":8686,"Ġcreates":8687,"Ġsovereign":8688,"quarter":8689,"rez":8690,"Ġ1964":8691,"Ġbou":8692,"Ġgib":8693,"Ġ176":8694,"Ġoath":8695,"Ġrefinancing":8696,"Ġforfeited":8697,"Ġ384":8698,"Ġorganizational":8699,"Ġasbestos":8700,"Ġdirecting":8701,"Ġros":8702,":Â·":8703,"within":8704,"hn":8705,"closed":8706,"Ġcraig":8707,"Ġexpansion":8708,"ancial":8709,"Ġdefine":8710,"Ġcoron":8711,"Ġ195":8712,"Ġtrigger":8713,"Ġ725":8714,"Ġconfidence":8715,"Ġacquit":8716,"Ġ177":8717,"Ġstewart":8718,"Ġexecuting":8719,"Ġcitations":8720,"Ġdisallow":8721,"proper":8722,"Ġnelson":8723,"Ġcampbell":8724,"Ġfbi":8725,"Ġundertaken":8726,"Ġafric":8727,"Ġsworn":8728,"Ġ178":8729,"Ġpray":8730,"Ġsin":8731,"Ġquestioning":8732,"Ġphillips":8733,"Ġmurphy":8734,"Ġpreempt":8735,"1974":8736,"Ġmcl":8737,"Ġ194":8738,"Ġsick":8739,"Ġgender":8740,"Ġappearing":8741,"Ġpublis":8742,"140":8743,"));":8744,"Ġproceeded":8745,"roup":8746,"Ġmood":8747,"875":8748,"Ġprint":8749,"signature":8750,"Ġdirective":8751,"inco":8752,"Ġtot":8753,"Ġpier":8754,"ded":8755,"Ġrestoration":8756,"Ġaccred":8757,"Ġ172":8758,"Ġmeth":8759,"member":8760,"Ġaccomplish":8761,"ĠĠĠĠĠĠĠĠĠĠĠĠĠĠĠĠĠĠĠĠĠĠĠĠĠĠĠĠĠĠĠĠĠĠĠĠĠĠĠĠĠĠĠĠĠĠĠĠĠĠĠĠĠĠĠĠĠĠĠĠĠĠĠĠĠĠĠĠĠĠĠĠĠĠĠĠĠĠĠĠĠĠĠĠĠĠĠĠĠĠĠĠ":8762,"ache":8763,"html":8764,"Ġdeferral":8765,"Ġdoesn":8766,"Ġsilver":8767,"Ġpetroleum":8768,"Ġwound":8769,"Ġdefe":8770,"Ġchain":8771,"restricted":8772,"Ġanthony":8773,"Ġpromises":8774,"deal":8775,"Ġcalling":8776,"Ġenl":8777,"Ġenterprises":8778,"Ġplaus":8779,"Ġcontracted":8780,"ichever":8781,"Ġrecognizes":8782,"Ġ179":8783,"sett":8784,"long":8785,"respect":8786,"Ġ191":8787,"Ġcommodity":8788,"Ġot":8789,"Ġ425":8790,"ided":8791,"Ġnj":8792,"Ġdeclarations":8793,"Ġtracking":8794,"Ġdiscover":8795,"Ġ273":8796,"Ġtaxpayers":8797,"atch":8798,"accur":8799,"utral":8800,"pdf":8801,"Ġperipher":8802,"Ġ189":8803,"Ġalia":8804,"Ġphotographs":8805,"Ġgang":8806,"Ġdelinquent":8807,"hibit":8808,"180":8809,"Ġlaboratory":8810,")</":8811,"Ġ235":8812,"Ġmeasurement":8813,"Ġinsofar":8814,"Ġsuspicion":8815,"icular":8816,"Ġ362":8817,"Ġkle":8818,"free":8819,"Ġsubmitting":8820,"Ġformation":8821,"Ġproff":8822,"fh":8823,"Ġpret":8824,"Ġnur":8825,"Ġtribal":8826,"Ġconsultants":8827,"Ġ192":8828,"zen":8829,"Ġlawyers":8830,"Ġmiscellaneous":8831,"Ġbattery":8832,"Ġconflicting":8833,"urities":8834,"Ġlod":8835,"Ġadvers":8836,"ucc":8837,"Ġcouple":8838,"ran":8839,"nandez":8840,"Ġ232":8841,"Ġdeprived":8842,"olis":8843,"Ġminn":8844,"Ġforesee":8845,"Ġdar":8846,"Ġconsented":8847,"Ġang":8848,"Ġhal":8849,"Ġmanufactured":8850,"icit":8851,"Ġglass":8852,"114":8853,"Ġstocks":8854,"Ġsac":8855,"Ġlad":8856,"Ġmutually":8857,"ards":8858,"Ġauditors":8859,"bel":8860,"bri":8861,"Ġambiguous":8862,"Ġefficiency":8863,"Ġirrevocable":8864,"Ġantitrust":8865,"due":8866,"gas":8867,"Ġ502":8868,"Ġinfer":8869,"atell":8870,"Ġtested":8871,"market":8872,"wd":8873,"iro":8874,"?#":8875,"Ġjudic":8876,"Ġburdens":8877,"Ġassignor":8878,"txt":8879,"Ġbriefing":8880,"nyou":8881,"Ġheavy":8882,"Â±":8883,"Ġwalk":8884,"fg":8885,"bre":8886,"Ġkar":8887,"Ġrodriguez":8888,"Ġhawa":8889,"Ġearning":8890,"Ġdear":8891,"mist":8892,"Ġmoment":8893,"Ġadjudicated":8894,"Ġundue":8895,"Ġkilled":8896,"Ġmeaningful":8897,"Ġconfession":8898,"Ġgentle":8899,"Ġnationwide":8900,"Ġjunior":8901,"Ġresponsive":8902,"stream":8903,"mill":8904,"Ġparker":8905,"ensable":8906,"Ġdna":8907,"Ġbab":8908,"Ġreputation":8909,"Ġ700":8910,"Ġ504":8911,"Ġrelator":8912,"\";":8913,"Ġspect":8914,"Ġinstallments":8915,"iance":8916,"Ġfrequency":8917,"Ġheadings":8918,"Ġens":8919,"Ġlove":8920,"bankr":8921,"stated":8922,"Ġfelon":8923,"noting":8924,"Ġtren":8925,"Ġebitda":8926,"1973":8927,"Ġnations":8928,"Ġ412":8929,"Ġdepartments":8930,"Ġearn":8931,"Ġdrove":8932,"Ġmanufacturers":8933,"Ġeasily":8934,"Ġretired":8935,"Ġchanging":8936,"Ġ239":8937,"Ġtouch":8938,"zi":8939,"Ġbman":8940,"Ġmortgaged":8941,"Ġnursing":8942,"iet":8943,"Ġ248":8944,"Ġprotections":8945,"Ġpiece":8946,"Ġcyber":8947,"jan":8948,"Ġ1961":8949,"address":8950,"Ġcart":8951,"leg":8952,"Ġleadership":8953,"Ġresort":8954,"Ġdemonstrating":8955,"Ġgal":8956,"Ġholl":8957,"205":8958,"liers":8959,"Ġfeas":8960,"Ġwhichever":8961,"Ġpossibly":8962,"Ġinvoice":8963,"Ġaddendum":8964,"management":8965,"Ġincurrence":8966,"Ġconferred":8967,"Ġminimal":8968,"ti":8969,"Ġjon":8970,"Ġprofessionals":8971,"Ġpermanently":8972,"Ġhug":8973,"121":8974,"Ġjefferson":8975,"Ġinaccur":8976,"Ġupheld":8977,"xb":8978,"116":8979,"nen":8980,"Ġjustification":8981,"Ġbushm":8982,"liest":8983,"Ġviii":8984,"Ġdemur":8985,"volous":8986,"Ġsubstituted":8987,"Ġapplicants":8988,"Ġ1963":8989,"Ġunderwent":8990,"Ġmiranda":8991,"practice":8992,"Ġneuropathy":8993,"Ġtribe":8994,"irable":8995,"Ġcurt":8996,"Ġjudicata":8997,"Ġindef":8998,"Ġtelevision":8999,"gel":9000,"Ġbushmaster":9001,"Ġdetain":9002,"Ġ319":9003,"unless":9004,"Ġfired":9005,"Ġ414":9006,"anging":9007,"oln":9008,"Ġleasing":9009,"gical":9010,"osen":9011,"lyn":9012,"Ġassure":9013,"Ġrevoke":9014,"Ġbis":9015,"Ġsci":9016,"Ġsignal":9017,"llivan":9018,"Ġachieved":9019,"Ġrestraint":9020,"Ġtun":9021,"Ġperipheral":9022,"Ġenhanced":9023,"Ġ253":9024,"Ġ321":9025,"Ġnull":9026,"mic":9027,"Ġincidental":9028,"Ġ457":9029,"Ġvisitation":9030,"Ġhamilton":9031,"bra":9032,"Ġ406":9033,"Ġrendering":9034,"Ġ453":9035,"Ġ233":9036,"apr":9037,"Ġsubscriber":9038,"Ġprocurement":9039,"Ġ327":9040,"Ġfairness":9041,"Ġlawrence":9042,"Ġstrictly":9043,"ishing":9044,"Ġembod":9045,"Ġ299":9046,"Ġillustr":9047,"Ġ311":9048,"oresaid":9049,"Ġdeficient":9050,"Ġincomplete":9051,"notice":9052,"Ġcalculations":9053,"350":9054,"former":9055,"Ġobservation":9056,"Ġdepository":9057,"Ġdamaged":9058,"ses":9059,"Ġcot":9060,"Ġrejection":9061,"child":9062,"oz":9063,"gc":9064,"parable":9065,"Ġrecital":9066,"compass":9067,"Ġprong":9068,"Ġepisodes":9069,"Ġ444":9070,"Ġsimultaneously":9071,"Ġcars":9072,"sup":9073,"Ġconfusion":9074,"Ġwarren":9075,"aug":9076,"Ġreed":9077,"ogle":9078,"Ġnegotiated":9079,"Ġresolving":9080,"erto":9081,"lock":9082,"Ġsubstitution":9083,"Ġliquidated":9084,"Ġexamining":9085,"Ġcards":9086,"Ġearliest":9087,"Ġ................":9088,"Ġlapse":9089,"Ġnewspa":9090,"Ġgarcia":9091,"ruit":9092,"Ġaforesaid":9093,"Ġoutpatient":9094,"Ġdiscipline":9095,"Ġrevoked":9096,"otic":9097,"Ġ274":9098,"Ġsave":9099,"Ġadmitting":9100,"Ġpendency":9101,"Ġimage":9102,"Ġ313":9103,"Ġ281":9104,"Ġspecification":9105,"Ġ231":9106,"Ġjim":9107,"Ġhardship":9108,"Ġalexander":9109,"[]":9110,"Ġdelivering":9111,"Ġ184":9112,"%.":9113,"Ġusd":9114,"Ġcry":9115,"Ġreferral":9116,"Ġaccrue":9117,"Ġcondemnation":9118,"Ġyouth":9119,"Ġcable":9120,"Ġverify":9121,"Ġutilized":9122,"Ġfutures":9123,"Ġ450":9124,"Ġ322":9125,"Ġcentury":9126,"astic":9127,"Ġresale":9128,"1972":9129,"low":9130,"has":9131,"Ġalaska":9132,"Ġcalculating":9133,"Ġ505":9134,"Ġsolid":9135,"Ġstory":9136,"asion":9137,"Ġreasoned":9138,"fall":9139,"Ġ236":9140,"Ġleon":9141,"Ġsolution":9142,"crim":9143,"Ġ317":9144,"Ġ325":9145,"Ġterminates":9146,"Ġstressor":9147,"Ġcarp":9148,"respondent":9149,"Ġrogers":9150,"Ġhospitalization":9151,"Ġcompensate":9152,"Ġ252":9153,"Ġsmaller":9154,"Ġwon":9155,"Ġnamely":9156,"Ġimpression":9157,"sk":9158,"vation":9159,"Ġwalking":9160,"Ġcompare":9161,"Ġ1131":9162,"Ġrear":9163,"united":9164,"notes":9165,"Ġinure":9166,"Ġ271":9167,"hand":9168,"Ġphysically":9169,"Ġdeleted":9170,"Ġdealers":9171,"Ġ310":9172,"Ġencompass":9173,"defense":9174,"Ġovernight":9175,"grant":9176,"Ġmerc":9177,"Ġshift":9178,"Ġperry":9179,"Ġconsiderable":9180,"Ġmartinez":9181,"Ġcareer":9182,"laughter":9183,"includ":9184,"Ġmedicine":9185,"Ġassessing":9186,"bridge":9187,"Ġislands":9188,"Ġgi":9189,"Ġappreciate":9190,"otics":9191,"Ġcoordination":9192,"Ġdesires":9193,"Ġaccurately":9194,"Ġnumb":9195,"Ġ330":9196,"Ġundertake":9197,"third":9198,",[":9199,"âĤ¬,":9200,"Ġoperates":9201,"Ġreveal":9202,"Ġti":9203,"Ġpatter":9204,"Ġapproving":9205,"Ġ................................................................................":9206,"Ġnarc":9207,"Ġ251":9208,"Ġwhereby":9209,"Ġtalked":9210,"Ġpi":9211,"Ġsafeguard":9212,"Ġamericans":9213,"274":9214,"120919":9215,"Ġknows":9216,"Ġadvertise":9217,"Ġdraf":9218,"Ġlen":9219,"Ġgriff":9220,"Ġpredict":9221,"113":9222,"Ġrenewed":9223,"Ġrestaurant":9224,"Ġdescribes":9225,"Ġbuck":9226,"excluding":9227,"Ġcv":9228,"Ġ524":9229,"ilian":9230,"Ġ316":9231,"Ġrestructuring":9232,"Ġcp":9233,"Ġ363":9234,"Ġ456":9235,"rum":9236,"bullet":9237,"Ġbol":9238,"Ġ323":9239,"rances":9240,"Ġnond":9241,"Ġconformity":9242,"Ġapportion":9243,"Ġpipeline":9244,"ĠĠĠĠĠĠĠĠĠĠĠĠĠĠĠĠĠĠĠĠĠĠĠĠĠĠĠĠĠĠĠĠĠĠĠĠĠĠĠĠĠĠĠĠĠĠĠĠĠĠĠĠĠĠĠĠĠĠĠĠĠĠĠĠĠĠĠĠĠĠĠĠĠĠĠĠĠĠĠĠĠĠĠĠĠĠĠĠĠĠĠĠĠĠĠĠĠĠ":9245,"Ġ422":9246,"Ġlose":9247,"Ġsecrets":9248,"Ġcontacts":9249,"Ġatlanta":9250,"Ġconditional":9251,"mentioned":9252,"Ġcarriers":9253,"Ġmone":9254,"gent":9255,"ria":9256,"Ġ408":9257,"Ġ265":9258,"Ġ246":9259,"ush":9260,"Ġaoj":9261,"amine":9262,"Ġluc":9263,"Ġoig":9264,"coll":9265,"Ġbia":9266,"Ġturner":9267,"Ġstem":9268,"Ġclinic":9269,"Ġmortgages":9270,"Ġwindow":9271,"Ġexceeded":9272,"Ġ506":9273,"Ġ340":9274,"aves":9275,"Ġsuppliers":9276,"lt":9277,"jpg":9278,"lev":9279,"Ġmitigating":9280,"oming":9281,"Ġaccumulated":9282,"Ġfly":9283,"Ġskill":9284,"007":9285,"Ġgovernments":9286,"Ġedwards":9287,"Ĺı":9288,"Ġload":9289,"lands":9290,"Ġboards":9291,"nsh":9292,"Ġtom":9293,"Ġfash":9294,"ntr":9295,"Ġventures":9296,"nhe":9297,"Ġcomplies":9298,"enter":9299,"Ġpersuasive":9300,"Ġleverage":9301,"burn":9302,"Ġauth":9303,"Ġsullivan":9304,"Ġnerve":9305,"Ġpron":9306,"Ġreads":9307,"Ġintegrated":9308,"avorable":9309,"Ġdeference":9310,"hierarchy":9311,"Ġrestraining":9312,"Ġtow":9313,"evid":9314,"ications":9315,"Ġopposite":9316,"check":9317,"Ġapproximate":9318,"defin":9319,"Ġprinting":9320,"Ġmas":9321,"014":9322,"Ġdrawing":9323,"ĠĠĠĠĠĠĠĠĠĠĠĠĠĠĠĠĠĠĠĠĠĠĠĠĠĠĠĠĠĠĠĠĠĠĠĠĠĠĠĠĠĠĠĠĠĠĠĠĠĠĠĠĠĠĠĠĠĠĠĠĠĠĠĠĠĠĠĠĠĠĠĠĠĠĠĠĠĠĠĠĠĠĠĠĠĠĠĠĠĠĠĠĠ":9324,"Ġ328":9325,"Ġdry":9326,"Ġcapabilities":9327,"Ġlaid":9328,"Ġsubjective":9329,"Ġverification":9330,"Ġmitigation":9331,"bacco":9332,"Ġenforcing":9333,"Ġcarl":9334,"Ġwarehouse":9335,"Ġdepending":9336,"Ġwholes":9337,"Ġtox":9338,"wy":9339,"124":9340,"Ġgov":9341,"Ġseverally":9342,"rary":9343,"Ġsucceeding":9344,"apan":9345,"Ġendors":9346,"Ġnoticed":9347,"ceived":9348,"Ġfiler":9349,"Ġ266":9350,"Ġunemployment":9351,"ĠâĢľ(":9352,"Ġconstitutionally":9353,"Ġelectrical":9354,"Ġsupervisors":9355,"Ġpromotion":9356,"ario":9357,"Ġfullest":9358,"Ġmale":9359,"oes":9360,"Ġcured":9361,"Ġsensitive":9362,"Ġ241":9363,"nne":9364,"Ġskills":9365,"Ġdirections":9366,"Ġstatist":9367,"Ġquickly":9368,"\");":9369,"Ġcommunicate":9370,"Ġprojected":9371,"Ġbrokerage":9372,"Ġthorac":9373,"Ġxm":9374,"shall":9375,"lc":9376,"Ġuk":9377,"Ġreadjudic":9378,"isis":9379,"Â«":9380,"aching":9381,"Ġlinc":9382,"Ġinterior":9383,"Ġassumes":9384,"Ġreimbursed":9385,"icidal":9386,"Ġ____________":9387,"assess":9388,"Ġsurplus":9389,"Ġhun":9390,"Ġintervention":9391,"Ġconfront":9392,"Ġjeopardy":9393,"Ġeag":9394,"Ġtrafficking":9395,"fus":9396,"Ġ260":9397,"Ġversus":9398,"Ġ374":9399,"Ġ416":9400,"acit":9401,"Ġdesignee":9402,"Ġconcurrently":9403,"Ġcontemporaneous":9404,"Ġoutlined":9405,"Ġpatrick":9406,"Ġcustoms":9407,"Ġlearning":9408,"Ġsubstantiating":9409,"nag":9410,"ares":9411,"oring":9412,"rp":9413,"Ġsegment":9414,"Ġhomeland":9415,"Ġ488":9416,"Ġcollections":9417,"Ġcodified":9418,"Ġgone":9419,"Ġbeck":9420,"Ġchosen":9421,"Ġpilot":9422,"Ġflat":9423,"Ġ[]":9424,"Ġextremities":9425,"Ġ465":9426,"Ġexemptions":9427,"Ġallstate":9428,"Ġstamp":9429,"arian":9430,"angers":9431,"Ġgp":9432,"illance":9433,"rill":9434,"Ġmond":9435,"Ġ................................................":9436,"ylosis":9437,"Ġinstability":9438,"]\\":9439,"Ġbrokers":9440,"Ġtool":9441,"Ġ1962":9442,"Ġ430":9443,"pez":9444,"Ġacquisitions":9445,"Ġfurtherance":9446,"Ġ320":9447,"Ġanc":9448,"government":9449,"Ġkeeping":9450,"Ġelects":9451,"Ġ633":9452,"Ġcollins":9453,"Ġ234":9454,"Ġ315":9455,"âĢĿ;":9456,"nar":9457,"Ġ606":9458,"Ġinstrumental":9459,"missibility":9460,"Ġregulated":9461,"Â²":9462,"Ġsomewhat":9463,"Ġsegreg":9464,"quote":9465,"ete":9466,"Ġrespir":9467,"Ġquoting":9468,"Ġsequ":9469,"provided":9470,"Ġryan":9471,"Ġ306":9472,"Ġdog":9473,"Ġdepositions":9474,"Ġdak":9475,"013":9476,"Ġ370":9477,"Ġroute":9478,"Ġmodern":9479,"Ġspecies":9480,"Ġdepositor":9481,"sf":9482,"closing":9483,"Ġstarting":9484,"1971":9485,"orpor":9486,"Ġattributed":9487,"Ġanim":9488,"owners":9489,"xbf":9490,"Ġnurse":9491,"Ġpartially":9492,"record":9493,"Ġ254":9494,"mistak":9495,"Ġcharl":9496,"utin":9497,"Ġextremely":9498,"Ġvague":9499,"shore":9500,"ups":9501,"Ġundermin":9502,"Ġdisqual":9503,"Ġchose":9504,"amm":9505,"Ġweekly":9506,"unk":9507,"Ġbilling":9508,"nse":9509,"Ġunderwriter":9510,"abeth":9511,"Ġwishes":9512,"Ġbona":9513,"Ġtobacco":9514,"Ġkevin":9515,"Â´":9516,"Ġpsychological":9517,"Ġexcise":9518,"exec":9519,"Ġ257":9520,"Ġfide":9521,"Ġscale":9522,"Ġmotive":9523,"Ġdeducted":9524,"Ġmm":9525,"Ġkore":9526,"Ġ243":9527,"Ġ750":9528,"fi":9529,"common":9530,"aschedular":9531,"Ġcounseling":9532,"Ġmig":9533,"Ġcomplic":9534,"rid":9535,"hh":9536,"actions":9537,"Ġinformal":9538,"nedy":9539,"Ġnlrb":9540,"Ġstayed":9541,"Ġcorrectional":9542,"\"/><":9543,"Ġ326":9544,"Ġessence":9545,"Ġcrow":9546,"Ġprotecting":9547,"306":9548,"Ġmarc":9549,"Ġextraschedular":9550,"117":9551,"[.]":9552,"neth":9553,"existing":9554,"Ġcandidates":9555,"dkt":9556,"Ġunfavorable":9557,"Ġsn":9558,"Ġtransit":9559,"Ġunmistak":9560,"Ġlawfully":9561,"Ġ249":9562,"union":9563,"ounsel":9564,"Ġ309":9565,"amend":9566,"Ġoutwe":9567,"Ġdesired":9568,"Ġ1956":9569,",]":9570,"Ġ295":9571,"Ġseason":9572,"Ġ459":9573,"Ġretroactive":9574,"Ġ443":9575,"Ġaw":9576,"Ġtenth":9577,"Ġlargest":9578,"208":9579,"Ġplacing":9580,"Ġsubsections":9581,"efore":9582,"olds":9583,"affili":9584,"Ġsamp":9585,"Ġgary":9586,"function":9587,"together":9588,"icks":9589,"Ġ423":9590,"Ġeyes":9591,"Ġ270":9592,"Ġadm":9593,"Ġvul":9594,"Ġspeculation":9595,"Ġmaybe":9596,"Ġordering":9597,"Ġchap":9598,"Ġunderwriters":9599,"zer":9600,"Ġmontana":9601,"Ġsignificance":9602,"ament":9603,"Ġ285":9604,"Ġ\\\\":9605,"Ġinconsist":9606,"]:":9607,"Ġhaw":9608,"Ġhiring":9609,"Ġgast":9610,"jm":9611,"134":9612,"Ġintroduce":9613,"controll":9614,"Ġdemanded":9615,"Ġ237":9616,"stock":9617,"Ġsund":9618,"Ġdatabase":9619,"fk":9620,"Ġmadison":9621,"Ġdemocr":9622,"\":":9623,"Ġimpart":9624,"Ġassured":9625,"Ġsurgical":9626,"80176":9627,"Ġengineer":9628,"Ġbart":9629,"Ġpuerto":9630,"Ġ780":9631,"Ġterry":9632,"Ġ475":9633,"Ġeleventh":9634,"pur":9635,"Ġ________________________":9636,"keep":9637,"istan":9638,"Ġspeaking":9639,"Ġsuppression":9640,"Ġcircumstantial":9641,"Ġdeliberate":9642,"409":9643,"aco":9644,").)":9645,"Ġinformant":9646,"Ġdiscussing":9647,"Ġlargely":9648,"Ġsubjected":9649,"pen":9650,"Ġcorner":9651,"Ġcaution":9652,"Ġsolicit":9653,"Ġstanley":9654,"Ġterminating":9655,"Ġ334":9656,"Ï¯":9657,"Ġwag":9658,"305":9659,"Ġ256":9660,"Ġalternatives":9661,"Ġstrongly":9662,"Ġpainful":9663,"Ġ296":9664,"Ġsending":9665,"Ġpreservation":9666,"Ġ259":9667,"Ġmethodology":9668,"andem":9669,"Ġisra":9670,"Ġeliz":9671,"pping":9672,"box":9673,"Ġ359":9674,"Ġ287":9675,"quez":9676,"Ġmalpractice":9677,"Ġdifficulties":9678,"currency":9679,"Ġasst":9680,"nia":9681,"Ġattended":9682,"Ġ341":9683,"cli":9684,"Ġactively":9685,"Ġappropriated":9686,"Ġtu":9687,"Ġplural":9688,"Ġpassing":9689,"Ġrelieve":9690,"hetical":9691,"Ġstraight":9692,"Ġssa":9693,"Ġ411":9694,"Ġster":9695,"Ġalternatively":9696,"Ġmerchand":9697,"Ġmetal":9698,"Ġfro":9699,"hel":9700,"inations":9701,"Ġbottom":9702,"Ġevening":9703,"loyd":9704,"Ġ................................................................................................":9705,"Ġdistinguished":9706,"Ġshaw":9707,"Ġ433":9708,"Ġ255":9709,"Ġbuilt":9710,"Ġconfig":9711,"Ġweather":9712,"orp":9713,"priority":9714,"215":9715,"Ġrice":9716,"Ġmortgag":9717,"Ġpt":9718,"Ġsupposed":9719,"Ġaim":9720,"Ġgeneration":9721,"Ġ601":9722,"Ġextending":9723,"Ġirreparable":9724,"Ġstone":9725,"405":9726,"Ġlincoln":9727,"Ġoperative":9728,"Ġhills":9729,"inite":9730,"Ġadequacy":9731,"Ġfi":9732,"Ġheck":9733,"Ġpc":9734,"apolis":9735,"through":9736,"Ġgregory":9737,";\\":9738,"nind":9739,"Ġcb":9740,"Ġ552":9741,"Ġ324":9742,"Ġ455":9743,"Ġrelatively":9744,"Ġ261":9745,"iday":9746,"Ġsuggestion":9747,"Ġä":9748,"spective":9749,"judgment":9750,"Ġpledgor":9751,"docket":9752,"Ġsurveillance":9753,"Ġsupervisory":9754,"Ġ345":9755,"izon":9756,"Ġprosecuting":9757,"rate":9758,"Ġauditor":9759,"Ġker":9760,"Ġuns":9761,"Ġ511":9762,"Ġpublish":9763,"Ġlynch":9764,"Ġconcentration":9765,"unaudited":9766,"Ġ380":9767,"Ġka":9768,"Ġcitizenship":9769,"Ġonto":9770,"Ġcompelled":9771,"Ġvisits":9772,"uw":9773,"employment":9774,"vens":9775,"Ġadministrators":9776,"Ġexploration":9777,"Ġscrutin":9778,"ifer":9779,"Ġunamb":9780,"uge":9781,"div":9782,"Ġ318":9783,"Ġ499":9784,"Ġsubmits":9785,"jections":9786,"Ġterrorism":9787,"Ġgod":9788,"Ġreservation":9789,"Ġantonio":9790,"Ġuntime":9791,"Ġfirms":9792,"Ġexcuse":9793,"Ġimpacts":9794,"Ġeric":9795,"Ġlt":9796,"Ġinsurers":9797,"Ġvisited":9798,"Ġmessages":9799,"Ġcorrected":9800,"Ġborn":9801,"Ġmachin":9802,"Ġ290":9803,"because":9804,"Ġentries":9805,"tenant":9806,"Ġhighlight":9807,"tection":9808,"document":9809,"Ġcohen":9810,"Ġinduce":9811,"etime":9812,"Ġreconc":9813,"affirm":9814,"Ġoccupancy":9815,"Ġserge":9816,"0004":9817,"Ġslip":9818,"current":9819,"Ġcertainty":9820,"Ġtotally":9821,"itative":9822,"Ġdakota":9823,"amount":9824,"Ġwi":9825,"Ġbias":9826,"Éĸ":9827,"Ġdevelo":9828,"Ġpra":9829,"Ġstructures":9830,"ĠÂ©":9831,"aterial":9832,"Ġreflecting":9833,"Ġdean":9834,"Ġplc":9835,"Ġhappen":9836,"iously":9837,"Ġmatthew":9838,"Ġcs":9839,"Ġresponding":9840,"Ġrescind":9841,"Ġ263":9842,"Ġfrivolous":9843,"Ġfashion":9844,"Ġbroadcast":9845,"cul":9846,"Ġpatrol":9847,"Ġtrials":9848,"gree":9849,"wards":9850,"rh":9851,"incre":9852,"Ġperjury":9853,"ema":9854,"155":9855,"noff":9856,"Ġstein":9857,"Ġstake":9858,"Ġagriculture":9859,"Ġbalances":9860,"Ġadmissions":9861,"Ġcollision":9862,"Ġ262":9863,"Ġ522":9864,"Ġconstr":9865,"material":9866,"opathy":9867,"Ġaudits":9868,"many":9869,"Ġcharitable":9870,"Ġ282":9871,"moving":9872,"Ġtelling":9873,"Ġreversible":9874,"Ġdrilling":9875,"rousky":9876,"Ġkutsche":9877,"Ġnorinco":9878,"derson":9879,"Ġkutscherousky":9880,"177":9881,"Ġ283":9882,"htm":9883,"support":9884,"Ġdca":9885,"Ġni":9886,"laps":9887,"Ġprosecute":9888,"priv":9889,"Ġordinances":9890,"Ġmanifestations":9891,"Ġambigu":9892,"would":9893,"Ġstream":9894,"275":9895,"ortun":9896,"Ġbren":9897,"erald":9898,"Ġton":9899,"Ġ410":9900,"Ġtrump":9901,"Ġincompet":9902,"Ġfloating":9903,"Ġcig":9904,"Ġgame":9905,"Ġbargain":9906,"credit":9907,"Ġimpeach":9908,"Ġalimony":9909,"Ġserver":9910,"ordan":9911,"riend":9912,"Ġencumbrances":9913,"Ġintermitt":9914,"Ġ292":9915,"Ġ356":9916,"Ġsummer":9917,"ĠĠĠĠĠĠĠĠĠĠĠĠĠĠĠĠĠĠĠĠĠĠĠĠĠĠĠĠĠĠĠĠĠĠĠĠĠĠĠĠĠĠĠĠĠĠĠĠĠĠĠĠĠĠĠĠĠĠĠĠĠĠĠĠĠĠĠĠĠĠĠĠĠĠĠĠĠĠĠĠĠĠĠĠĠĠĠĠĠĠĠĠĠĠĠĠĠĠĠĠĠĠĠĠĠĠĠĠĠĠĠĠĠĠĠĠĠĠĠĠĠĠĠĠĠĠĠĠĠĠĠĠĠĠĠĠĠĠĠĠĠĠĠĠĠĠĠĠĠĠĠĠĠĠĠĠĠĠĠĠĠĠĠĠĠĠĠĠĠĠĠĠĠĠĠĠĠĠĠĠĠĠĠĠĠĠĠĠĠĠĠĠĠĠĠĠĠĠĠĠĠĠĠĠĠĠĠĠĠĠĠĠĠĠĠĠĠĠĠĠĠĠĠĠĠĠĠĠĠĠĠĠĠĠĠĠĠĠĠĠĠĠĠĠĠĠĠĠĠĠĠĠĠĠĠĠĠĠĠĠĠĠĠĠĠĠĠĠĠĠĠĠĠĠĠĠĠĠĠĠĠĠĠĠĠĠĠĠĠĠĠĠĠĠĠĠĠĠĠĠĠĠĠĠĠĠĠĠĠĠĠĠĠĠĠĠĠĠĠĠĠĠĠĠĠĠĠĠĠĠĠĠĠĠĠĠĠĠĠĠĠĠĠĠĠĠĠĠĠĠĠĠĠĠĠĠĠĠĠĠĠĠĠĠĠĠĠĠĠĠĠĠĠĠĠĠĠĠĠĠĠĠĠĠ":9918,"Ġfigures":9919,"Ġrents":9920,"Ġsurviv":9921,"Ġdetri":9922,"heast":9923,"Ġcold":9924,"Ġwasn":9925,"Ġsatisfies":9926,"Ġwed":9927,"Ġdesirable":9928,"oped":9929,"fx":9930,"Ġahead":9931,"Ġimposes":9932,"Ġtransmitted":9933,"Ġom":9934,"established":9935,"Ġ(Â§":9936,"Ġadmits":9937,"Ġ480":9938,"Ġfast":9939,"Ġ298":9940,"160":9941,"ĠâĹı":9942,"stating":9943,"Ġfemale":9944,"Ġ426":9945,"Ġapproached":9946,"umatic":9947,"Ġneutral":9948,"Ġmayor":9949,"lose":9950,"625":9951,"communications":9952,"018":9953,"240":9954,"reserv":9955,"Ġchat":9956,"âĢĶâĢĶ":9957,"Ġguess":9958,"daq":9959,"Ġshield":9960,"Ġexpression":9961,"rated":9962,"Ġnegotiation":9963,"ĠĠĠĠĠĠĠĠĠĠĠĠĠĠĠĠĠĠĠĠĠĠĠĠĠĠĠĠĠĠĠĠĠĠĠĠĠĠĠĠĠĠĠĠĠĠĠĠĠĠĠĠĠĠĠĠĠĠĠĠĠĠĠĠĠĠĠĠĠĠĠĠĠĠĠĠĠĠĠĠĠĠĠĠĠĠĠĠĠĠĠĠĠĠĠ":9964,"acent":9965,"Ġkennedy":9966,"Ġ244":9967,"Ġ337":9968,"Ġtrademarks":9969,"123":9970,"only":9971,"Ġconstructed":9972,"Ġassigning":9973,"particip":9974,"Ġconversations":9975,"Ġhelpful":9976,"nwas":9977,"Ġtrouble":9978,"Ġ407":9979,"alez":9980,"Ġ484":9981,"136":9982,"Ġnc":9983,"Ġmol":9984,"regular":9985,"Ġfixt":9986,"Ġbegins":9987,"Ġenab":9988,"Ġwait":9989,"Ġdeeds":9990,"Â¿":9991,"Ġolder":9992,"Ġ507":9993,"Ġmonies":9994,"Ġincarceration":9995,"appeal":9996,"Ġrod":9997,"exhibit":9998,"606":9999,"...........":10000,"Ġaudited":10001,"Ġcausal":10002,"Ġ527":10003,"Ġ___,":10004,"Ġuniversal":10005,"oud":10006,"Ġft":10007,"veland":10008,"Ġ267":10009,"âĢŁ":10010,"Ġ451":10011,"Ġbullet":10012,"Ġprivileged":10013,"ĠĠĠĠĠĠĠĠĠĠĠĠĠĠĠĠĠĠĠĠĠĠĠĠĠĠĠĠĠĠĠĠĠĠĠĠĠĠĠĠĠĠĠĠĠĠĠĠĠĠĠĠĠĠĠĠĠĠĠĠĠĠĠĠĠĠĠĠĠĠĠĠĠĠĠĠĠĠĠĠĠĠĠĠĠĠĠĠĠĠĠĠĠĠĠĠĠ":10014,"terior":10015,"Ġinadmissible":10016,"Ġ469":10017,"Ġgrounded":10018,"Ġexplos":10019,"1970":10020,"Ġadmissibility":10021,"Ġpreventing":10022,"Ġ388":10023,"iciary":10024,"Ġkenneth":10025,"Ġyeah":10026,"Ġurban":10027,"Ġcustodial":10028,"Ġjustices":10029,"1967":10030,"------":10031,"019":10032,"Ġinterrogatories":10033,"Ġcu":10034,"Ġanimal":10035,"Ġobstruct":10036,"total":10037,"Ġdisag":10038,"Ġsuspend":10039,"Ġdisbursement":10040,"Ġoo":10041,"Ġbrain":10042,"clause":10043,"Ġwit":10044,"Ġdelays":10045,"lack":10046,"Ġconstrue":10047,"ordon":10048,"Ġcapac":10049,"Ġjpm":10050,"Ġ284":10051,"although":10052,"Ġfines":10053,"Ġenumerated":10054,"Ġsexually":10055,"eer":10056,"Ġovertime":10057,"Ġ269":10058,"Ġpurport":10059,"Ġintim":10060,"ounded":10061,"Ġsanta":10062,"hetamine":10063,"Ġgeneric":10064,"Ġintermediary":10065,"Ġscen":10066,"Ġborrowed":10067,"Ġacute":10068,"Ġremarks":10069,"Ġgrace":10070,"Ġinvalidity":10071,"nprogram":10072,"Ġdenominated":10073,"::":10074,"Ġinstalled":10075,"Ġkat":10076,"Ġ555":10077,"Ġcw":10078,"Ġincon":10079,"Ġdisclaim":10080,"Ġoc":10081,"Ġkit":10082,"Ġpeters":10083,"had":10084,"Ġfred":10085,"Ġregarded":10086,"Ġconcrete":10087,"Ġjapan":10088,"Ġwayne":10089,"Ġos":10090,"Ġ297":10091,"Ġtasks":10092,"Ġexpended":10093,"Ġ1947":10094,"Ġscan":10095,"quire":10096,"benef":10097,"Ġescape":10098,"Ġones":10099,"Ġakorn":10100,"termined":10101,"Ġsubrog":10102,"Ġabb":10103,"Ġinapplicable":10104,"Ġrecourse":10105,"Ġpartnerships":10106,"Ġmcdonald":10107,"Ġusage":10108,"ician":10109,"Ġmistrial":10110,"Ġfluct":10111,"Ġteachers":10112,"Ġvulner":10113,"esign":10114,"vx":10115,"????":10116,"Ġiron":10117,"ĠâĢĿ":10118,"two":10119,"umbered":10120,"Ġ445":10121,"Ġunfortun":10122,"Ġcong":10123,"Ġmortgagor":10124,"Ġmoneys":10125,"Ġunclear":10126,"olitan":10127,"Ġcos":10128,"Ġding":10129,"Ġuntimely":10130,"Ġ279":10131,"..........":10132,"Ġhedging":10133,"----\\":10134,"Ġintangible":10135,"Ġfields":10136,"ongress":10137,"Ġengland":10138,"acer":10139,"Ġmos":10140,"Ġridge":10141,"cost":10142,"Ġcommitting":10143,"Ġcommonly":10144,"timore":10145,"pled":10146,"Ġmalicious":10147,"locutory":10148,"Ġaccommodation":10149,"Ġlifetime":10150,"client":10151,"Ġrepaid":10152,"oral":10153,"Ġmultiplied":10154,"yyyy":10155,"imp":10156,"Ġensuring":10157,"parent":10158,"Ġoste":10159,"Ġauction":10160,"Ġ490":10161,"inese":10162,"Ġvaccine":10163,"Ġvisual":10164,"225":10165,"Ġgraham":10166,"Ġadditions":10167,"Ġcities":10168,"Ġholid":10169,"icul":10170,"Ġprohibiting":10171,"Ġcancelled":10172,"Ġterminal":10173,"ĠĠĠĠĠĠĠĠĠĠĠĠĠĠĠĠĠĠĠĠĠĠĠĠĠĠĠĠĠĠĠĠĠĠĠĠĠĠĠĠĠĠĠĠĠĠĠĠĠĠĠĠĠĠĠĠĠĠĠĠĠĠĠĠĠĠĠĠĠĠĠĠĠĠĠĠĠĠĠĠĠĠĠĠĠĠĠĠĠĠĠĠĠĠĠĠĠĠĠĠĠ":10174,"Ġexpire":10175,"016":10176,"ĠâĢĲ":10177,"collateral":10178,"175":10179,"Ġ264":10180,"Ġoccupied":10181,"Ġ375":10182,"Ġwrist":10183,"phold":10184,"Ġjos":10185,"Ġdefinitive":10186,"atisf":10187,"Ġexpectation":10188,"liqu":10189,"Ġinfection":10190,"Ġinvestigative":10191,"Ġsud":10192,"Ġspeedy":10193,"Ġvital":10194,"Ġ364":10195,".....":10196,"Ġliquor":10197,"Ġcrack":10198,"Ġ431":10199,"Ġovert":10200,"Ġgoogle":10201,"inst":10202,"iques":10203,"Ġ(âĢľ[":10204,"ascular":10205,"Ġurged":10206,"Ġ329":10207,"Ġdirects":10208,"nper":10209,"Ġhydro":10210,"ids":10211,"Ġunex":10212,"Ġborrowings":10213,"endence":10214,"Ġstrickland":10215,"214":10216,"approved":10217,"lia":10218,"inder":10219,"Ġaltered":10220,"Ġslow":10221,"Ġsd":10222,"Ġmonday":10223,"additional":10224,"Ġremedial":10225,"Ġends":10226,"Ġtech":10227,"Ġcancel":10228,"Ġzip":10229,"Ġ376":10230,"Ġappropriation":10231,"Ġspous":10232,"omer":10233,"Ġrcw":10234,"Ġgainful":10235,"alized":10236,"specific":10237,"Ġcrisis":10238,"Ġscheduling":10239,"Ġtact":10240,"Ġ291":10241,"Ġcolumn":10242,"Ġ470":10243,"mj":10244,"owski":10245,"Ġvoc":10246,"Ġlung":10247,"Ġclarify":10248,"Ġsilent":10249,"reasonable":10250,"Ġpros":10251,"Ġpersistent":10252,"Ġmediation":10253,"Ġmetrop":10254,"126":10255,"Ġ346":10256,"Ġpredecessor":10257,"Ġfilled":10258,"Ġiraq":10259,"sur":10260,"Ġpounds":10261,"Ġ439":10262,"Ġblvd":10263,"Ġvent":10264,"amily":10265,"Ġ1960":10266,"207":10267,"Ġ288":10268,"Ġspending":10269,"Ġexpectations":10270,"Ġconcedes":10271,"Ġpreserved":10272,"urally":10273,"Ġ258":10274,"170":10275,"Ġcad":10276,"Ġplainly":10277,"tes":10278,"arest":10279,"Ġengagement":10280,"Ġrespiratory":10281,"Ġticket":10282,"Ġcolon":10283,"Ġcompleting":10284,"Ġ460":10285,"Ġronald":10286,"strong":10287,"Ġfacebook":10288,"ĠĠĠĠĠĠĠĠĠĠĠĠĠĠĠĠĠĠĠĠĠĠĠĠĠĠĠĠĠĠĠĠĠĠĠĠĠĠĠĠĠĠĠĠĠĠĠĠĠĠĠĠĠĠĠĠĠĠĠĠĠĠĠĠĠĠĠĠĠĠĠĠĠĠĠĠĠĠĠĠĠĠĠĠĠĠĠĠĠĠĠĠĠĠĠĠĠĠĠĠĠĠĠĠĠĠĠĠĠĠĠĠĠĠĠĠĠĠĠĠĠĠĠĠĠĠĠĠĠĠĠĠĠĠĠ":10289,"Ġintegral":10290,"semin":10291,"Ġdw":10292,"Ġpays":10293,"Ġaz":10294,"Ġcox":10295,"Ġdrivers":10296,"illary":10297,"charge":10298,"Ġfox":10299,"nea":10300,"Ġunavailable":10301,"qr":10302,"Ġsetoff":10303,"Ġprotocol":10304,"Ġexpenditure":10305,"Ġ293":10306,"nk":10307,"Ġcomprising":10308,"Ġelizabeth":10309,"Ġroof":10310,"Ġmerchandise":10311,"oen":10312,"Ġ556":10313,"================":10314,"Ġ498":10315,"Ġ272":10316,"Ġexaminers":10317,"503":10318,"Ġbrow":10319,"Ġfaced":10320,"amble":10321,"Ġpresumptive":10322,"Ġsanders":10323,"nu":10324,"Ġ509":10325,"Ġtendered":10326,"eree":10327,"Ġadjacent":10328,"rench":10329,"Ġinclusive":10330,"degree":10331,"Ġhepat":10332,"Ġexpires":10333,"Ġ701":10334,"wru":10335,"Ġdriven":10336,"Ġrecurrent":10337,"roller":10338,"Ġwatson":10339,"bold":10340,"etitive":10341,"Ġ294":10342,"Ġtheories":10343,"ality":10344,"Ġ**":10345,"Ġunw":10346,"performance":10347,"Ġfellow":10348,"Ġshorter":10349,"Ġadversary":10350,"Ġ338":10351,"har":10352,"Ġtaxing":10353,"Ġrecitals":10354,"confidential":10355,"Ġ544":10356,"Ġ289":10357,"iment":10358,"hers":10359,"Ġtres":10360,"ja":10361,"Ġclos":10362,"Ġ528":10363,"Ġenters":10364,"\\'\\'":10365,"Ġinspections":10366,".........":10367,"Ġpowell":10368,"Ġstatistical":10369,"amphetamine":10370,"Ġ336":10371,"Ġmachines":10372,"Ġ386":10373,"213":10374,"Ġreturning":10375,"Ġsharp":10376,"Ġpear":10377,"copy":10378,"Ġreinstatement":10379,"Ġ446":10380,"Ġdies":10381,"Ġtransferor":10382,"Ġminister":10383,"Ġ^":10384,"Ġindefinite":10385,"criptions":10386,"init":10387,"Ġcompensated":10388,"reed":10389,"Ġ348":10390,"Ġ1954":10391,"Ġ377":10392,"Ġcomposition":10393,"Ġworkforce":10394,"reyfus":10395,"Ġaccredited":10396,"Ġ1955":10397,"Ġsergeant":10398,"Ġadjud":10399,"Ġ335":10400,"Ġtimber":10401,"Ġdefaulted":10402,"ĠĠĠĠĠĠĠĠĠĠĠĠĠĠĠĠĠĠĠĠĠĠĠĠĠĠĠĠĠĠĠĠĠĠĠĠĠĠĠĠĠĠĠĠĠĠĠĠĠĠĠĠĠĠĠĠĠĠĠĠĠĠĠĠĠĠĠĠĠĠĠĠĠĠĠĠĠĠĠĠĠĠĠĠĠĠĠĠĠĠĠĠĠĠĠĠĠĠĠĠĠĠĠĠĠĠ":10403,"urances":10404,"Ġwaiting":10405,"Ġabstract":10406,"rg":10407,"Ġporn":10408,"Ġexplaining":10409,"Ġ1101":10410,"Ġ361":10411,"ya":10412,"Ġ342":10413,"Ġ447":10414,"Ġorthoped":10415,"Ġdrain":10416,"Ġrif":10417,"Ġcompensatory":10418,"vo":10419,"Ġincapacit":10420,"loan":10421,"Ġ331":10422,"Ġmile":10423,"Ġauthorizations":10424,"Ġdemurrer":10425,"Ġ520":10426,"ops":10427,"hz":10428,"Ġtoxic":10429,"xon":10430,"Ġjoinder":10431,"Ġsab":10432,"legal":10433,"Ġmandated":10434,"pi":10435,"Ġ____________________________":10436,"Ġ278":10437,"Ġaggravating":10438,"ila":10439,"Ġdishon":10440,"velopment":10441,"Ġ276":10442,"Ġ349":10443,"Ġnoteholders":10444,"Ġestates":10445,"Ġcorrective":10446,"Ġpaint":10447,"hire":10448,"Ġ277":10449,"Ġ371":10450,"fair":10451,"Ġthinking":10452,"Ġreorganized":10453,"hc":10454,"Ġdefraud":10455,"Ġband":10456,"Ġguideline":10457,"Ġdistributing":10458,"liquid":10459,"402":10460,"Ġliter":10461,"Ġservs":10462,"Ġ368":10463,"Ġgather":10464,"Ġnerv":10465,"Ġvic":10466,"ym":10467,"supported":10468,"Ġbernard":10469,"Ġbaltimore":10470,"review":10471,"Ġharbor":10472,"Ġacademic":10473,"Ġdoctors":10474,"Ġredeemed":10475,"llc":10476,"Ġ286":10477,"Ġregulate":10478,"financial":10479,"......":10480,"limited":10481,"Ġfreight":10482,"license":10483,"Ġreclass":10484,"Ġ5102":10485,"Ġ________________________________________________":10486,"Ġgrowing":10487,"quarters":10488,"Ġjoe":10489,"Ġspecifying":10490,"appellants":10491,"defendants":10492,"uca":10493,"Ġsi":10494,"Ġconditioned":10495,"Ġthence":10496,"Ġseriously":10497,"Ġforeseeable":10498,"Ġdiction":10499,"308":10500,"128":10501,"Ġ1959":10502,"Ġpayee":10503,"Ġspeculative":10504,"ils":10505,"Ġnetworks":10506,"Ġreductions":10507,"Ġwildlife":10508,"ora":10509,"Ġexperiences":10510,"Ġovercome":10511,"?\"":10512,"Ġ__":10513,"Ġaccessible":10514,"Ġbva":10515,"Ġvariance":10516,"jk":10517,"umin":10518,"Ġexchanged":10519,"compl":10520,"Ġmemorial":10521,"Ġknees":10522,"Ġcapacities":10523,"Ġlopez":10524,"Ġhartford":10525,"ere":10526,"Ġbind":10527,"Ġpostage":10528,"Ġ381":10529,"Ġplants":10530,"Ġ841":10531,"Ġtemper":10532,"debt":10533,"Ġadvisable":10534,"Ġankylosis":10535,"Ġven":10536,"Ġhypothetical":10537,"Ġkil":10538,"Ġsearches":10539,"0197":10540,"ule":10541,"Ġshipping":10542,"capital":10543,"Ġmetropolitan":10544,"look":10545,"onym":10546,"Ġsorry":10547,"commission":10548,"Ġdhs":10549,"Ġresent":10550,"ried":10551,"Ġcleveland":10552,"Ġfcc":10553,"nthere":10554,"xef":10555,"Ġconclusively":10556,"Ġmills":10557,"omatic":10558,"Ġraw":10559,"Ġ489":10560,"Ġ413":10561,"Ġfriday":10562,"Ġmachinery":10563,"Ġmechanism":10564,"ani":10565,"Â³":10566,"grini":10567,"eek":10568,"four":10569,"Ġdenver":10570,"144":10571,"509":10572,"Ġgill":10573,"Ġpregn":10574,"Ġeliminated":10575,"ystem":10576,"Ġcus":10577,"Ġquestionna":10578,"Ġremoving":10579,"Ġjoints":10580,"Ġfib":10581,"star":10582,"iru":10583,"Ġtestifying":10584,"Ġparticipations":10585,"vcaa":10586,"property":10587,"Ġring":10588,"Ġlatest":10589,"whel":10590,"Ġ513":10591,"Ġcraw":10592,"Ġexecutives":10593,"ĠĠĠĠĠĠĠĠĠĠĠĠĠĠĠĠĠĠĠĠĠĠĠĠĠĠĠĠĠĠĠĠĠĠĠĠĠĠĠĠĠĠĠĠĠĠĠĠĠĠĠĠĠĠĠĠĠĠĠĠĠĠĠĠĠĠĠĠĠĠĠĠĠĠĠĠĠĠĠĠĠĠĠĠĠĠĠĠĠĠĠĠĠĠĠĠĠĠĠĠĠĠ":10594,"Ġannot":10595,"ography":10596,"Ġnut":10597,"Ġ494":10598,"abil":10599,"401":10600,"Ġwireless":10601,"antly":10602,"Ġconsisted":10603,"Ġundi":10604,"Ġ438":10605,"Ġvendors":10606,"Ġij":10607,"Ġcamera":10608,"..............":10609,"Ġpursuing":10610,"rieved":10611,"Ġprocessed":10612,"Ġ541":10613,"Ġ462":10614,"Ġhandle":10615,"Ġsells":10616,"Ġ339":10617,"Ġconsp":10618,"creditor":10619,"Ġsupplements":10620,"dered":10621,"usive":10622,"211":10623,"Ġsewer":10624,"roit":10625,"lie":10626,"Ġide":10627,"Ġspok":10628,"Ġaccountant":10629,"Ġconfined":10630,"Ġsea":10631,"ĠâĢ¦":10632,"Ġhospitals":10633,"rig":10634,"Ġunderwriting":10635,"default":10636,"Ġeeoc":10637,"Ġtruly":10638,"Ġlegend":10639,"Ġdefaults":10640,"Ġjordan":10641,"ners":10642,"Ġdispro":10643,"rin":10644,"Ġ554":10645,"princip":10646,"Ġdeadly":10647,"505":10648,"Ġinvestigating":10649,"210":10650,"Ġrid":10651,"did":10652,"Ġincumb":10653,"Ġdisaster":10654,"Ġmes":10655,"econ":10656,"Ġsurpr":10657,"Ġinterpreting":10658,"oxley":10659,"Ġhawaii":10660,"Ġwalked":10661,"Ġgordon":10662,"Ġ.\"":10663,"Ġ429":10664,"omic":10665,"Ġmountain":10666,"entered":10667,"Ġ560":10668,"incorpor":10669,"sored":10670,"1968":10671,"Ġmethamphetamine":10672,"1100":10673,"Ġ353":10674,"Ġ547":10675,"1969":10676,"Ġkoch":10677,"Ġinsul":10678,"Ġcontra":10679,"Ġseverability":10680,"Ġnarcotics":10681,"Ġcourtroom":10682,"Ġinvestigator":10683,"Ġrecipients":10684,"Ġbroken":10685,"Ġidentifies":10686,"Ġ343":10687,"bby":10688,"ira":10689,"ï¬ģ":10690,"appellees":10691,"Ġminus":10692,"Ġstevens":10693,"Ġworse":10694,"Ġie":10695,"Ġ421":10696,"Ġutilize":10697,"Ġafore":10698,"Ġ373":10699,"Ġranking":10700,"Ġshut":10701,"elity":10702,"nfrom":10703,"census":10704,"Ġnegotiate":10705,"Ġdevelopments":10706,"nwould":10707,"Ġkilling":10708,"ĪĴ":10709,"Ġ468":10710,"Ġneurological":10711,"Ġgoodwill":10712,"Ġseeing":10713,"Ġtechniques":10714,"Ġerroneously":10715,"Ġ924":10716,"Ġ467":10717,"wv":10718,"uous":10719,"pocket":10720,"Ġquarters":10721,"Ġ1946":10722,"Ġsubpart":10723,"ncomp":10724,"260":10725,"noon":10726,"Ġ1957":10727,"Â·Â·":10728,"oup":10729,"Ġoce":10730,"Ġimplicit":10731,"mg":10732,"ucker":10733,"Ġpronoun":10734,"Ġconcess":10735,"Ġfatigue":10736,"Ġmechanical":10737,"135":10738,"Ġvanguard":10739,"Ġannouncement":10740,"Ġcapability":10741,"Ġ420":10742,"Ġ392":10743,"Ġhepatitis":10744,"Ġaffirmatively":10745,"Ġ344":10746,"yp":10747,"Ġconceal":10748,"Ġ[*":10749,".............":10750,"Ġadjour":10751,"Ġ366":10752,"Ġdiscloses":10753,"Ġ379":10754,"Ġbrothers":10755,"Ġced":10756,"Ġtape":10757,"Ġsuggesting":10758,"Ġchinese":10759,"Ġ604":10760,"nunder":10761,"Ġuncon":10762,"Ġcivilian":10763,"Ġsuspected":10764,"Ġimpartial":10765,"Ġ434":10766,"Ġattract":10767,"Ġ347":10768,"Ġcow":10769,"feas":10770,"Ġnominee":10771,"Ġpipe":10772,"Ġsubordinate":10773,"Ġ____________________":10774,"kl":10775,"Ġ1951":10776,"Ġnash":10777,"Ġcay":10778,"Ġaccepts":10779,"Ġstable":10780,"Ġacre":10781,"Ġproximately":10782,"Ġbron":10783,"cers":10784,"quential":10785,"Ġmicrosoft":10786,"Ġcomputation":10787,"Ġcompeting":10788,"Ġcompt":10789,"Ġdispositions":10790,"Ġ458":10791,"Ġfurnishing":10792,"Ġavoided":10793,"Ġinnocent":10794,"Ġstrengthe":10795,"ĠâĢľâĢĺ":10796,"iliation":10797,"Ġdissemin":10798,"Ġ418":10799,"Ġcompact":10800,"Ġmedically":10801,"....\"":10802,"Ġboundaries":10803,"Ġrsus":10804,"Ġreconsider":10805,"Ġbuyers":10806,"Ġ395":10807,"Ġpitts":10808,"224":10809,"Ġrichardson":10810,"Ġbelonging":10811,"Ġtimothy":10812,"Ġwet":10813,"Ġcommunicated":10814,"Ġ441":10815,"legrini":10816,"Ġfabric":10817,"Ġ464":10818,"Ġaccountability":10819,"istol":10820,"ĠÂ¨":10821,"Ġterrorist":10822,"Ġspir":10823,"Ġabr":10824,"Ġresolutions":10825,"Ġ514":10826,"Ġ546":10827,"Ġyell":10828,"called":10829,"Ġorient":10830,"Ġjpmorgan":10831,"Ġinfra":10832,"2897":10833,"bound":10834,"Ġsubjects":10835,"Ġ352":10836,"Ġfarmers":10837,"Ġ461":10838,"uj":10839,"Ġfresh":10840,"Ġlq":10841,"Ġentrance":10842,"ogen":10843,"Ġprofessor":10844,"Ġ391":10845,"Ġps":10846,"Ġpulled":10847,"Ġtrespass":10848,"Ġceases":10849,"Ġgenerate":10850,"inea":10851,"written":10852,"Ġsinus":10853,"coming":10854,"Ġpollution":10855,"Ġconstitutionality":10856,"Ġ911":10857,"Ġadapt":10858,"Ġracial":10859,"Ġtier":10860,"ĠĠĠĠĠĠĠĠĠĠĠĠĠĠĠĠĠĠĠĠĠĠĠĠĠĠĠĠĠĠĠĠĠĠĠĠĠĠĠĠĠĠĠĠĠĠĠĠĠĠĠĠĠĠĠĠĠĠĠĠĠĠĠĠĠĠĠĠĠĠĠĠĠĠĠĠĠĠĠĠĠĠĠĠĠĠĠĠĠĠĠĠĠĠĠĠĠĠĠĠĠĠĠĠĠĠĠĠĠĠĠĠĠĠĠĠĠĠĠĠĠĠĠĠĠĠĠĠĠĠĠĠĠĠ":10861,"Ġmaker":10862,"Ġplausible":10863,"mother":10864,"Ġ394":10865,"Ġ548":10866,"Ġ351":10867,"Ġbever":10868,"ĠĠĠĠĠĠĠĠĠĠĠĠĠĠĠĠĠĠĠĠĠĠĠĠĠĠĠĠĠĠĠĠĠĠĠĠĠĠĠĠĠĠĠĠĠĠĠĠĠĠĠĠĠĠĠĠĠĠĠĠĠĠĠĠĠĠĠĠĠĠĠĠĠĠĠĠĠĠĠĠĠĠĠĠĠĠĠĠĠĠĠĠĠĠĠĠĠĠĠ":10869,"Ġclothing":10870,"ĠĠĠĠĠĠĠĠĠĠĠĠĠĠĠĠĠĠĠĠĠĠĠĠĠĠĠĠĠĠĠĠĠĠĠĠĠĠĠĠĠĠĠĠĠĠĠĠĠĠĠĠĠĠĠĠĠĠĠĠĠĠĠĠĠĠĠĠĠĠĠĠĠĠĠĠĠĠĠĠĠĠĠĠĠĠĠĠĠĠĠĠĠĠĠĠĠĠĠĠ":10871,"Ġ515":10872,"warrant":10873,"026":10874,"Ġethics":10875,"Ġeffectuate":10876,"rely":10877,"Ġcompetitors":10878,"Ġunemployability":10879,"Ġcigare":10880,"129":10881,"Ġ367":10882,"Ġpresenting":10883,"Ġ483":10884,"Ġgovernance":10885,"Ġmedications":10886,"Ġhonest":10887,"jur":10888,"Ġgonzalez":10889,".\"[":10890,"Ġdreyfus":10891,"Ġcompetency":10892,"Ġ357":10893,"Ġfewer":10894,"Ġburns":10895,"inct":10896,"Ġcomptroller":10897,"Ġcapr":10898,"Ġmason":10899,"Ġinches":10900,"Ġdrinking":10901,"504":10902,"Ġdick":10903,"Ġminute":10904,"Ġunmistakable":10905,"amendment":10906,"ceptive":10907,"traumatic":10908,"127":10909,"Ġ530":10910,"232":10911,"Ġvessels":10912,"Ġunlawfully":10913,"Ġwarnings":10914,"Ġposting":10915,"...............":10916,"Ġdiego":10917,"âĢĳ":10918,"Ġeighteen":10919,"Ġlibrary":10920,"guarant":10921,"Ġuncertainty":10922,"Ġcogniz":10923,"Ġabsentee":10924,"respective":10925,"Ġ417":10926,"Ġalbert":10927,"Ġbes":10928,"Ġsignatory":10929,"Ġdisregarded":10930,"Ġ389":10931,"Ġascert":10932,"izer":10933,"Ġimmaterial":10934,"rays":10935,"sent":10936,"ati":10937,"Ġreplied":10938,"Ġheading":10939,"transfer":10940,"Ġdifferently":10941,"Ġscores":10942,"Ġrests":10943,"Ġfoods":10944,"Ġeagle":10945,"404":10946,"Ġchev":10947,"grade":10948,"Ġtotality":10949,"Ġcoleman":10950,"Ġ1953":10951,"Ġattending":10952,"Ġprecisely":10953,"Ġscars":10954,"lick":10955,"Ġ589":10956,"fp":10957,"Ġrare":10958,"Ġfdic":10959,"lapsed":10960,"motion":10961,"Ġ479":10962,"Ġought":10963,"igently":10964,"Ġeurocurrency":10965,"Ġasks":10966,"Ġnotary":10967,"Ġinnocence":10968,"Ġboundary":10969,"Ġanalogous":10970,"keeping":10971,"Ġprojections":10972,"Ġstreets":10973,"Ġflare":10974,"122":10975,"Ġalliance":10976,"Ġheat":10977,"rc":10978,"Ġbriefly":10979,"Ġble":10980,"Ġdevis":10981,"Ã°":10982,"425":10983,"Ġ801":10984,"Ġ----------------":10985,"illy":10986,"Ġcarbon":10987,"Ġ372":10988,"Ġroth":10989,"148":10990,"Ġoverse":10991,"Ġpeer":10992,"Ġarn":10993,"Ġexculp":10994,"Ġ378":10995,"ias":10996,"ghan":10997,"Ġscreening":10998,"229":10999,"Ġhans":11000,"Ġatlantic":11001,"Ġrosen":11002,"Ġinterlocutory":11003,"inf":11004,"Ġdeductible":11005,"Ġpf":11006,"Ġcoerc":11007,"Ġdeprive":11008,"ller":11009,"Ġdennis":11010,"bow":11011,"Ġtear":11012,"Ġseattle":11013,"080":11014,"bour":11015,"188":11016,"irt":11017,"Ġsubcontractor":11018,"Ġrailway":11019,"Ġ537":11020,"Ġnasdaq":11021,"Ġpostpon":11022,"Ġinitiate":11023,"Ġtrip":11024,"question":11025,"Ġ906":11026,"Ġlinked":11027,"recogn":11028,"Ġstability":11029,",,":11030,"Ġ802":11031,"arial":11032,"Ġintersection":11033,"Ġscrutiny":11034,"Ġverbal":11035,"corpor":11036,"Ġendorsed":11037,"Ġassurances":11038,"Ġ471":11039,"Ġthereupon":11040,"inity":11041,"Ġdrop":11042,"Ġ481":11043,"Ġilleg":11044,"Ġbradley":11045,"Ġ519":11046,"Ġunsuccess":11047,"Ġnaval":11048,"Ġ354":11049,"risk":11050,"build":11051,"Ġcomplying":11052,"duction":11053,"must":11054,"Ġbodies":11055,"borrower":11056,"ady":11057,"Ġusc":11058,"vl":11059,"Ġbrings":11060,"Ġ521":11061,"Ġdisclosing":11062,"Ġ518":11063,"Ġhenderson":11064,"Ġdd":11065,"search":11066,"Ġhostile":11067,"Ġfol":11068,"138":11069,"Ġentertainment":11070,"Ġ1945":11071,"specified":11072,"Ġ419":11073,"Ġcomputing":11074,"Ġarthur":11075,"jks":11076,"Ġsubordination":11077,"Ġroyalties":11078,"28970197":11079,"Ġpharmaceuticals":11080,"pton":11081,"Ġunlikely":11082,"Ġpb":11083,"Ġgav":11084,"Ġsurvival":11085,"Ġhernandez":11086,"Ġreyn":11087,"Ġallowable":11088,"Ġintegration":11089,"Ġ486":11090,"feb":11091,"Ġsides":11092,"Ġoverwhel":11093,"Ġ540":11094,"Ġcomplains":11095,"Ġ476":11096,"iser":11097,"Ġexercises":11098,"nthey":11099,"Ġtrailer":11100,"Ġdictionary":11101,"Ġspan":11102,"Ġhaven":11103,"280":11104,"same":11105,"Ġ609":11106,"Ġ19728970197":11107,"Ġoverrule":11108,"Ġample":11109,"Ġindiff":11110,"Ġ5109":11111,"Ġroy":11112,"Ġalan":11113,"Ġuncont":11114,"Ġdebentures":11115,"Ġtenderness":11116,"Ġgaf":11117,"Ġtorts":11118,"oa":11119,"ports":11120,"Ġrevise":11121,"Ġintermediate":11122,"Ġxx":11123,"efendant":11124,"Ġhudson":11125,"403":11126,"Ġascribed":11127,"Ġresides":11128,"216":11129,"Ġeveryone":11130,"Ġbroader":11131,"bk":11132,"ager":11133,"Ġdim":11134,"estone":11135,"Ġfidelity":11136,"Ġalert":11137,"165":11138,"Ġnative":11139,"Ġincorporate":11140,"ensity":11141,"Ġ332":11142,"Ġincarcerated":11143,"Ġspecialty":11144,"Ġpocket":11145,"oted":11146,"Ġ702":11147,"Ġcalculate":11148,"Ġnewspaper":11149,"Ġemails":11150,"Ġbruce":11151,"Ġbrooks":11152,"ĠâĢĺâĢĺ":11153,"Ġsatur":11154,"iu":11155,"Ġcontinental":11156,".......":11157,"elect":11158,"orship":11159,"got":11160,"Ġfrench":11161,"Ġbiological":11162,"Ġhr":11163,"Ġhod":11164,"Ġarre":11165,"Ġ437":11166,"Ġ427":11167,"Ġ20549":11168,"nve":11169,"Ġhughes":11170,"Ġ428":11171,"Ġparks":11172,"Ġprudent":11173,"Ġvirtually":11174,"Ġ390":11175,"Ġpatri":11176,"Ġ474":11177,"Ġwyoming":11178,"ividual":11179,"Ġregards":11180,"145":11181,"llor":11182,"Ġ551":11183,"duced":11184,"Ġsamples":11185,"Ġdistinguishable":11186,"Ġbreath":11187,"Ġproffered":11188,"lation":11189,"Ġsalaries":11190,"050":11191,"Ġorthopedic":11192,"Ġalteration":11193,"Ġcertifies":11194,"Ġ383":11195,"Ġgrams":11196,"Ġadopting":11197,"Ġretroact":11198,"Ġspend":11199,"Ġemerging":11200,"oned":11201,"Ġhero":11202,"Ġmgmt":11203,"Ġsb":11204,"Ġ(.":11205,"Ġinvoices":11206,"leans":11207,"Ġbailey":11208,"Ġswe":11209,"Ġè":11210,"Ġinterpretations":11211,"Ġbull":11212,"nwill":11213,"Ġnol":11214,"Ġsearched":11215,"Ġfeature":11216,"Ġinaccurate":11217,"Ġviewing":11218,"Ġnd":11219,"away":11220,"Ġdetroit":11221,").[":11222,"Ġdelegated":11223,"Ġ485":11224,"Ġbought":11225,"none":11226,"Ġsmart":11227,"Ġmack":11228,"Ġjudiciary":11229,"131":11230,"Ġquotations":11231,"Ġreferee":11232,"Ġreality":11233,"Ġattachments":11234,"Ġ1958":11235,"Ġbars":11236,"Ġhat":11237,"030":11238,"Ġwearing":11239,"Ġspecialist":11240,"Ġbarr":11241,"Ġmoral":11242,"Ġbutler":11243,"Ġdealt":11244,"nour":11245,"Ġlumber":11246,"advant":11247,"ffer":11248,"Ġ442":11249,"cust":11250,"high":11251,"Ġsky":11252,"Ġ533":11253,"Ġ463":11254,"[,]":11255,"Ġposed":11256,"real":11257,"Ġax":11258,"346":11259,"Ġ542":11260,"Ġ398":11261,"Ġkell":11262,"operative":11263,"Ġconsummate":11264,"Ġwants":11265,"Ġ545":11266,"Ġhut":11267,"Ġtap":11268,"Ġclearing":11269,"Ġ1112":11270,"special":11271,"bara":11272,"Ġprescribe":11273,"bury":11274,"uated":11275,"monary":11276,"Ġ397":11277,"Ġvolat":11278,"Ġadjudicate":11279,"Ġ1950":11280,"Ġsuicidal":11281,"Ġbedroom":11282,"Ġ495":11283,"Ġcourier":11284,"rock":11285,"Ġ636":11286,"Ġemissions":11287,"Ġearth":11288,"Ġmanip":11289,"Ġvit":11290,"Ġcritic":11291,"Ġtransferring":11292,"icer":11293,"Ġregistrar":11294,"Ġexpanded":11295,"Ġtestator":11296,"Ġoppose":11297,"Ġ7112":11298,"nte":11299,"Ġmillions":11300,"hour":11301,"Ġcher":11302,"Ġ396":11303,"602":11304,"ĠĠĠĠĠĠĠĠĠĠĠĠĠĠĠĠĠĠĠĠĠĠĠĠĠĠĠĠĠĠĠĠĠĠĠĠĠĠĠĠĠĠĠĠĠĠĠĠĠĠĠĠĠĠĠĠĠĠĠĠĠĠĠĠĠĠĠĠĠĠĠĠĠĠĠĠĠĠĠĠĠĠĠĠĠĠĠĠĠĠĠĠĠĠĠĠĠĠĠĠĠĠĠ":11305,"Ġintermittent":11306,"Ġputting":11307,"Ġcrossing":11308,"Ġexecutor":11309,"Ġmode":11310,"Ġemphasis":11311,"Ġimped":11312,"bral":11313,"securities":11314,"Ġsev":11315,"Ġperfection":11316,"Ġguest":11317,"Ġdefeat":11318,"502":11319,"Ġindicted":11320,"inced":11321,"Ġ668":11322,"Ġstructural":11323,"sex":11324,"Ġhertz":11325,"Ġseparated":11326,"Ġdecib":11327,"Ġentitle":11328,".*":11329,"they":11330,"Ġ581":11331,"Ġintervene":11332,"pace":11333,"Ġ706":11334,"Ġedge":11335,"Ġrejecting":11336,"these":11337,"istance":11338,"isen":11339,"133":11340,"Ġkirk":11341,"Ġmixed":11342,"Â½":11343,"Ġparame":11344,"Ġrenders":11345,"banes":11346,"Ġtypical":11347,"alysis":11348,"Ġinventions":11349,"Ġdial":11350,"itime":11351,"Ġilcs":11352,"âĤ¬\"":11353,"Ġ922":11354,"Ġ478":11355,"Ġexcell":11356,"Ġpin":11357,"333":11358,"Ġ508":11359,"Ġprepetition":11360,"Ġmerchant":11361,"Ġ549":11362,"Ġ621":11363,"Ġbrady":11364,"fy":11365,"Ġafternoon":11366,"999":11367,"Ġreconst":11368,"acqu":11369,"control":11370,"Ġaustral":11371,"niture":11372,"Ġenrollment":11373,"Ġswelling":11374,"Ġorleans":11375,"Ġ811":11376,"Ġunconditionally":11377,"Ġ387":11378,"Ġfleet":11379,"Ġexports":11380,"Ġachievement":11381,"Ġadjudged":11382,"Ġ553":11383,"Ġ611":11384,"zo":11385,"Ġwoods":11386,"Ġusdc":11387,"Ġdingess":11388,"Ġprepayments":11389,"Ġturning":11390,"Ġ382":11391,"Ġquart":11392,"Ġcontinuously":11393,"Ġ487":11394,"Ġencumbrance":11395,"Ġprisoners":11396,"Ġanalyze":11397,"Ġassisted":11398,"Ġderivatives":11399,"Ġradiation":11400,"Ġpsychiatrist":11401,"Ġdeficit":11402,"Ġunrealized":11403,"roe":11404,"Ġfurniture":11405,"Ġconsummated":11406,"Ġhair":11407,"Ġdysfunction":11408,"Ġmalice":11409,"gee":11410,"Ġ7105":11411,"Ġcomprised":11412,"site":11413,"Ġmike":11414,"duly":11415,"Ġlevied":11416,"Ġç":11417,".''":11418,"Ġpd":11419,"Ġambiguity":11420,"investment":11421,"nserv":11422,"Ġ516":11423,"Ġsj":11424,"Ġleaves":11425,"Ġeu":11426,"Ġbip":11427,"judicial":11428,"Ġforens":11429,"Ġmurray":11430,"Ġheadquarters":11431,"Ġmall":11432,"Ġ625":11433,"chen":11434,"Ġbennett":11435,"Ġ538":11436,"Ġharrison":11437,"Ġaforementioned":11438,"Ġchancellor":11439,"accept":11440,"Ġtemporarily":11441,"Ġvirtual":11442,"Ġiran":11443,"Ġ517":11444,"outs":11445,"Ġpes":11446,"Ġbea":11447,"Ġhoff":11448,"Ġcycle":11449,"hw":11450,"Ġirrit":11451,"agues":11452,"Ġheckler":11453,"vided":11454,"iant":11455,"Ġknife":11456,"Ġ432":11457,"Ġxi":11458,"Ġformerly":11459,"Ġsusan":11460,"Ġellis":11461,"385":11462,".âĢĿ);":11463,"Ġ454":11464,"Ġplate":11465,"Ġexchanges":11466,"Ġcompete":11467,"Ġdomic":11468,"Ġcant":11469,"325":11470,"Ġadul":11471,"Â»Â®":11472,"Ġ496":11473,"190":11474,"etic":11475,"Ġ1939":11476,"lender":11477,"dealer":11478,"Ġpelegrini":11479,"Ġprovince":11480,"inary":11481,"Ġ5350":11482,"Ġsummarized":11483,"011":11484,"Ġnm":11485,"test":11486,"Ġpanic":11487,"Ġspecially":11488,"Ġsessions":11489,"jamin":11490,"Ġdependents":11491,"Ġquestionnaire":11492,"Ġconfirms":11493,"oria":11494,"fail":11495,"Ġtelecommunications":11496,"Ġmcg":11497,"227":11498,"Ġrelocation":11499,"wes":11500,"htt":11501,"Ġbreaches":11502,"Ġoccasional":11503,"Ġmull":11504,"js":11505,"mw":11506,"eck":11507,"Ġdelegate":11508,"andemic":11509,"Ġ385":11510,"Ġque":11511,"Ġ393":11512,"llll":11513,"ndep":11514,"Ġisrael":11515,"nacc":11516,"Ġnoncompensable":11517,"ube":11518,"Ġmyers":11519,"Ġsnow":11520,"Ġsports":11521,"Ġlearn":11522,"Ġinterviewed":11523,"post":11524,"Ġuphold":11525,"Ġemphasized":11526,"Ġomn":11527,"Ġfm":11528,"Ġvag":11529,"hered":11530,"Ġunexp":11531,"Ġcapit":11532,"169":11533,"Ġdiam":11534,"Ġpree":11535,"Ġaccorded":11536,"conc":11537,"even":11538,"Ġdisrupt":11539,"Ġhunter":11540,"agent":11541,"Ġspot":11542,"iner":11543,"Ġstring":11544,"Ġfaa":11545,"Ġcontingency":11546,"Ġblind":11547,"Ġreynolds":11548,"Ġmotors":11549,"burgh":11550,"Ġoperators":11551,"Ġstructured":11552,"Ġconstruing":11553,"040":11554,"Ġfootnote":11555,"ato":11556,"aware":11557,"Ġreceivers":11558,"Ġ775":11559,"ao":11560,"Ġsarbanes":11561,"Ġanalyzed":11562,"Ġ452":11563,"Ġtree":11564,"Ġdelegation":11565,"Ġ707":11566,"Ġjay":11567,"illion":11568,"Ġabandonment":11569,"Ġleasehold":11570,"Ġrefrain":11571,"Ġcensus":11572,"Ġsubrogation":11573,"exempt":11574,"Ġheretofore":11575,"mington":11576,"type":11577,"Ġ1949":11578,"ĠĠĠĠĠĠĠĠĠĠĠĠĠĠĠĠĠĠĠĠĠĠĠĠĠĠĠĠĠĠĠĠĠĠĠĠĠĠĠĠĠĠĠĠĠĠĠĠĠĠĠĠĠĠĠĠĠĠĠĠĠĠĠĠĠĠĠĠĠĠĠĠĠĠĠĠĠĠĠĠĠĠĠĠĠĠĠĠĠĠĠĠĠĠĠĠĠĠĠĠĠĠĠĠĠĠĠĠĠĠĠĠĠĠĠĠĠĠĠĠĠĠĠĠĠĠĠĠĠĠĠĠĠ":11579,"Ġmaxim":11580,"Ġelectricity":11581,"Ġpcra":11582,"226":11583,"Ġinduced":11584,"idden":11585,"Ġimproving":11586,"Ġunambiguous":11587,"heim":11588,"Ġrs":11589,"Ġgeographic":11590,"Ġstands":11591,"Ġpara":11592,"Ġallied":11593,"Ġencounter":11594,"vide":11595,"Ġdemocratic":11596,"Ġwear":11597,"some":11598,"anchez":11599,"ads":11600,"450":11601,"Ġplaza":11602,"oting":11603,"Ġtour":11604,"Ġdeceptive":11605,"Ġthanks":11606,"Ġdistributors":11607,"iman":11608,"704":11609,"139":11610,"Ġtraumatic":11611,"attorne":11612,"Ġpredicate":11613,"Ġkingdom":11614,"run":11615,"Ġpropriety":11616,"027":11617,"Ġlies":11618,"opping":11619,"oct":11620,"npart":11621,"Ġ1925":11622,"Ġancillary":11623,"Ġenvelop":11624,"Ġinflict":11625,"Ġhelped":11626,"Ġ399":11627,"lington":11628,"gments":11629,"Ġ2255":11630,"help":11631,"Ġaccrual":11632,"Ġlisa":11633,"before":11634,"Ġaffirming":11635,"Ġdwelling":11636,"Ġvocational":11637,"Ġrealize":11638,"312":11639,"ican":11640,"Ġunderstandings":11641,"Ġmyself":11642,"ĠĠĠĠĠĠĠĠĠĠĠĠĠĠĠĠĠĠĠĠĠĠĠĠĠĠĠĠĠĠĠĠĠĠĠĠĠĠĠĠĠĠĠĠĠĠĠĠĠĠĠĠĠĠĠĠĠĠĠĠĠĠĠĠĠĠĠĠĠĠĠĠĠĠĠĠĠĠĠĠĠĠĠĠĠĠĠĠĠĠĠĠĠĠĠĠĠĠĠĠĠĠĠĠĠ":11643,"Ġimportantly":11644,"Ġsummarize":11645,"six":11646,"empl":11647,"Ġsem":11648,"Ġenrolled":11649,"Ġdrawings":11650,"Ġcue":11651,"Ġaviation":11652,"Ġsouthwest":11653,"endo":11654,"Ġjane":11655,"Ġinsolvent":11656,"Ġbot":11657,"Ġrivers":11658,"Ġsettlements":11659,"Ġadministering":11660,"Ġacquittal":11661,"john":11662,"âĢĶ(":11663,"ĠĠĠĠĠĠĠĠĠĠĠĠĠĠĠĠĠĠĠĠĠĠĠĠĠĠĠĠĠĠĠĠĠĠĠĠĠĠĠĠĠĠĠĠĠĠĠĠĠĠĠĠĠĠĠĠĠĠĠĠĠĠĠĠĠĠĠĠĠĠĠĠĠĠĠĠĠĠĠĠĠĠĠĠĠĠĠĠĠĠĠĠĠĠĠĠĠĠĠĠĠĠĠĠ":11664,"Ġlumb":11665,"Ġinputs":11666,"Ġinterrogation":11667,"Ġobservations":11668,"Ġconfron":11669,"Ġfixtures":11670,"023":11671,"agency":11672,"147":11673,"Â¬":11674,"mid":11675,"Ġengineers":11676,"Ġchambers":11677,"1966":11678,"bin":11679,"olf":11680,"Ġanalyst":11681,"Ġmisrepresentations":11682,"Ġ482":11683,"ivoc":11684,"Ġcondensed":11685,"Ġlawsuits":11686,"prin":11687,"Ġmanslaughter":11688,"Ġ497":11689,"Ġunfortunately":11690,"iels":11691,"Ġmatching":11692,"Ġhomest":11693,"Ġprofile":11694,"Ġcovers":11695,"Ġbraz":11696,"inqu":11697,"Ġintercreditor":11698,"Ġsunday":11699,"Ġdominion":11700,"ylum":11701,"ÃĹ":11702,"Ġmisc":11703,"Ġpandemic":11704,"cles":11705,"nwork":11706,"bol":11707,"berry":11708,"Ġlig":11709,"Ġhac":11710,"Ġconvinced":11711,"Ġamending":11712,"Ġ590":11713,"Ġherbicide":11714,"157":11715,"Ġbonuses":11716,"Ġpromised":11717,"Ġranch":11718,"Ġtrooper":11719,"Ġreprodu":11720,"ificant":11721,",âĢĻ":11722,"Ġsemi":11723,"Ġsaturday":11724,"Ġkorea":11725,"Ġrider":11726,"Ġrelevance":11727,"01254":11728,"oline":11729,"247":11730,"kc":11731,"Ġplayed":11732,"-----------\\":11733,"Ġparish":11734,"iac":11735,"Ġ535":11736,"Ġborne":11737,"Ġduplication":11738,"Ġwolf":11739,"Ġpulmonary":11740,"Ġ678":11741,"incent":11742,"Ġexcludes":11743,"Ġjenn":11744,"Ġcontributory":11745,"Ġgab":11746,"insic":11747,"Ġleads":11748,"Ġdefending":11749,"Ġlying":11750,"Ġraymond":11751,"Ġinitiatives":11752,"Ġtraveling":11753,"icating":11754,"Ġcounted":11755,"Ġforthwith":11756,"Ġpharmacy":11757,"Ġbarbara":11758,"jg":11759,"Ġmaritime":11760,"houston":11761,"Ġpel":11762,"Ġblocks":11763,"Ġpredicated":11764,"Ġinquiries":11765,"Ġfulfilled":11766,"Ġlarry":11767,"Ġfishing":11768,"Ġunilateral":11769,"---------------------------------------------------------------------------\\":11770,"phone":11771,"Ġfinder":11772,"Ġdocumentary":11773,"146":11774,"itated":11775,"ancies":11776,"Ġacknowledgment":11777,"substantial":11778,"Ġcollecting":11779,"Ġox":11780,"brook":11781,"invest":11782,"Ġcrew":11783,"group":11784,"Ġsherman":11785,"base":11786,"Ġunequ":11787,"Ġgoverns":11788,"Ġdeprivation":11789,"Ġroads":11790,"uu":11791,"Ġ----":11792,"Ġheavily":11793,"Ġlegality":11794,"Ġ703":11795,"Ġwholesale":11796,"Ġinception":11797,"lux":11798,"nme":11799,"025":11800,"Ġbenjamin":11801,"Ġwalter":11802,"Ġclarification":11803,"cial":11804,"234":11805,"Ġmathe":11806,"cas":11807,"Ġ543":11808,"508":11809,"Ġunaudited":11810,"Ġ605":11811,"Ġurges":11812,"oenix":11813,"Ġvig":11814,"Ġisn":11815,"Ġwilmington":11816,"Ġreligion":11817,"Ġpus":11818,"Ġpreex":11819,"earing":11820,"Ġhourly":11821,"183":11822,"Ġinterrogatory":11823,"Ġ610":11824,"Ġnonprofit":11825,"Ġafrican":11826,"nie":11827,"Ġsuffers":11828,"Ġmiche":11829,"raft":11830,"jo":11831,"Ġkin":11832,"gt":11833,"Ġ________________________________________________________________":11834,"dale":11835,"Ġtail":11836,"317":11837,"ardo":11838,"Ġjonathan":11839,"Ġweaknesses":11840,"220":11841,"137":11842,"195":11843,"Ġspeaker":11844,"Ġ666":11845,"Ġcommits":11846,"Ġlinda":11847,"Ġbasically":11848,"aboration":11849,"qh":11850,"osa":11851,"Ġintoxicated":11852,"Ġocean":11853,"Ġpierce":11854,"Ġjew":11855,"Ġextends":11856,"Ġprosecuted":11857,"olumbar":11858,"user":11859,"nact":11860,"Ġfourteen":11861,"Ġpatterson":11862,"Ġinvoke":11863,"Ġgriffin":11864,"132":11865,"Ġasylum":11866,"irus":11867,"principal":11868,"Ġ534":11869,"Ġneighborhood":11870,"raine":11871,"reserved":11872,"Ġdiamond":11873,"Ġhomicide":11874,"iral":11875,"Ġconfrontation":11876,"166":11877,"Ġreinvestment":11878,"Ġlowest":11879,"Ġquas":11880,"ominium":11881,"unded":11882,"236":11883,"151":11884,"Ġsons":11885,"Ġceased":11886,"Ġfalling":11887,"Ġgibson":11888,"iler":11889,"Ġfractional":11890,"Ġexperiencing":11891,"uration":11892,"Ġkinds":11893,"Ġdirectives":11894,"bbbb":11895,"orters":11896,"Ġ564":11897,"Ġbryant":11898,"Ġguo":11899,"essional":11900,"Ġpersuaded":11901,"Ġcub":11902,"Ġfactually":11903,"Ġsuicide":11904,"141":11905,"issuer":11906,"Ġmetro":11907,"Ġeleven":11908,"Ġbarnes":11909,"Ġsublease":11910,"Ġinserted":11911,"Ġpriorities":11912,"Ġdebenture":11913,"Ġdent":11914,"riers":11915,"unc":11916,"Ġconsumption":11917,"Ġremin":11918,"auer":11919,"Ġconfirming":11920,"quoted":11921,"Ġprofession":11922,"152":11923,"Ġdynam":11924,"Ġcomparative":11925,"Ġ602":11926,"Ġimages":11927,"Ġcrawford":11928,"Ġexhausted":11929,"dan":11930,"Ġwarden":11931,"Ġbates":11932,"Ġhi":11933,"Ġ532":11934,"Ġdecibels":11935,"rad":11936,"Ġsudden":11937,"Ġwallace":11938,"rage":11939,"Ġhomestead":11940,"hill":11941,"sl":11942,"Ġdisqualified":11943,"Ġ--------------------------------":11944,"Ġrepeal":11945,"Ġgm":11946,"Ġ570":11947,"ibles":11948,"Ġ569":11949,"Ġthoracolumbar":11950,"Ġunconsc":11951,"142":11952,"Ġsuccessive":11953,"ĠĠĠĠĠĠĠĠĠĠĠĠĠĠĠĠĠĠĠĠĠĠĠĠĠĠĠĠĠĠĠĠĠĠĠĠĠĠĠĠĠĠĠĠĠĠĠĠĠĠĠĠĠĠĠĠĠĠĠĠĠĠĠĠĠĠĠĠĠĠĠĠĠĠĠĠĠĠĠĠĠĠĠĠĠĠĠĠĠĠĠĠĠĠĠĠĠĠĠĠĠĠĠĠĠĠĠĠĠĠĠĠĠĠĠĠĠĠĠĠĠĠĠĠĠĠĠĠĠĠĠĠĠĠĠĠĠĠĠĠĠĠĠĠĠĠĠĠĠĠĠĠĠĠĠĠĠĠĠĠĠĠĠĠĠĠĠĠĠĠĠĠĠĠĠĠĠĠĠĠĠĠĠĠĠĠĠĠĠĠĠĠĠĠĠĠĠĠĠĠĠĠĠĠĠĠĠĠĠĠĠĠĠĠĠĠĠĠĠĠĠĠĠĠĠĠĠĠĠĠĠĠĠĠĠĠĠĠĠĠĠĠĠĠĠĠĠĠĠĠĠĠĠĠĠĠĠĠĠĠĠĠĠĠĠĠĠĠĠĠĠĠĠĠĠĠĠĠĠĠĠĠĠĠĠĠĠĠĠĠĠĠĠĠĠĠĠĠĠĠĠĠĠĠĠĠĠĠĠĠĠĠĠĠĠĠĠĠĠĠĠĠĠĠĠĠĠĠĠĠĠĠĠĠĠĠĠĠĠĠĠĠĠĠĠĠĠĠĠĠĠĠĠĠĠĠĠĠĠĠĠĠĠĠĠĠĠĠĠĠĠĠĠĠĠĠĠĠĠĠĠĠĠĠĠĠĠĠĠĠĠĠĠĠĠĠĠĠĠĠĠĠĠĠĠĠĠĠĠĠĠĠĠĠĠĠĠĠĠĠĠĠĠĠĠĠĠĠĠĠĠĠĠĠĠĠĠĠĠĠĠĠĠĠĠĠĠĠĠĠĠĠĠĠĠĠĠĠĠĠĠĠĠĠĠĠĠĠĠĠĠĠĠĠĠĠĠĠĠĠĠĠĠĠĠĠĠĠĠĠĠĠĠĠĠĠĠĠĠĠĠĠĠĠĠĠĠĠĠĠĠĠ":11954,"table":11955,"Ġsubtitle":11956,"born":11957,"Ġinferred":11958,"Ġ740":11959,"Ġchemicals":11960,"Ġdiluted":11961,"suit":11962,"aton":11963,"lon":11964,"counsel":11965,"Ġgerman":11966,"viol":11967,"Ġforensic":11968,"Ġante":11969,"Ġ803":11970,"bed":11971,"Ġprolong":11972,"Ġwillfully":11973,"Ġpublishing":11974,"Â¢":11975,"Ġcapricious":11976,"Ġobligors":11977,"Ġradicul":11978,"Ġindependence":11979,"Ġaaa":11980,"Ġcoupled":11981,"Ġdisallowed":11982,"Ġwk":11983,"Ġci":11984,"Ġjuris":11985,"Ġinvoked":11986,"undering":11987,"Ġpretty":11988,"Ġpertains":11989,"Ġtiff":11990,"249":11991,"acral":11992,"Ġ536":11993,"Ġ493":11994,"dwlrq":11995,"ears":11996,"Ġpursued":11997,"Ġyard":11998,"unto":11999,"Ġfatal":12000,"235":12001,"nty":12002,"Ġrescission":12003,"Ġarnold":12004,"Ġhappening":12005,"406":12006,"Ð¸":12007,"Ġarticulated":12008,"Ġ727":12009,"Ġlogical":12010,"Ġrestore":12011,"Ġkeith":12012,"annual":12013,"Ġabl":12014,"Ġ1952":12015,"step":12016,"Ġassociations":12017,"168":12018,"Ġdisplayed":12019,"uv":12020,"Ġuh":12021,"indemn":12022,"Ġtargeted":12023,"nby":12024,"Ġpredomin":12025,"isms":12026,"218":12027,"Ġcategor":12028,"Ġkee":12029,"dp":12030,"Ġjason":12031,")-(":12032,"Ġalterations":12033,"154":12034,"ection":12035,"Ġ881":12036,"Ġextingu":12037,"Ġroman":12038,"Ġmerged":12039,"Ġig":12040,"Ġ559":12041,"Ġobjectively":12042,"Ġchecking":12043,"Ġcapitalization":12044,"Ġineligible":12045,"ulating":12046,"Ġirrespective":12047,"levard":12048,"Ġproportionate":12049,"Ġprecludes":12050,"228":12051,"definition":12052,"uson":12053,"Ġqualifies":12054,"walk":12055,"american":12056,"however":12057,"have":12058,"Ġ491":12059,"Ġunduly":12060,"Ġlicensor":12061,"Ġrobb":12062,"Ġcaption":12063,"Ġtrained":12064,"Ġ705":12065,"Ġthreatening":12066,"Ġ(\"[":12067,"00000":12068,"product":12069,"Ġcondominium":12070,"osacral":12071,"Ġperspective":12072,"Ġmitigate":12073,"Ġexit":12074,"Ġtargets":12075,"consolid":12076,"pan":12077,"Ġincorporates":12078,"Ġcommodities":12079,"comes":12080,"ibus":12081,"217":12082,"health":12083,"Ġgolden":12084,"ua":12085,"Ġdqg":12086,"Ġmilk":12087,"lay":12088,"Ġturns":12089,"Ġexh":12090,"berger":12091,"Ġhurt":12092,"xxx":12093,"Ġ531":12094,"149":12095,"Ġforwarded":12096,"Ġshap":12097,"lla":12098,"cca":12099,"Ġrhode":12100,".);":12101,"orial":12102,"Ġawareness":12103,"Ġff":12104,"Ġlocate":12105,"Ġdave":12106,"239":12107,"Ġ562":12108,"Ġunrestricted":12109,"Ġboulevard":12110,"Ġcontributing":12111,"rimination":12112,"rr":12113,"Ġpeterson":12114,"Ġrip":12115,"ensen":12116,"607":12117,"cut":12118,"Ġwouldn":12119,"Ġexhaustion":12120,"incorporated":12121,"itter":12122,"Ġorally":12123,"orum":12124,"017":12125,"Ġ704":12126,"Ġspac":12127,"Ġende":12128,"Ġfried":12129,"Ġredesign":12130,"Ġcul":12131,"Ġstro":12132,"Ġprospects":12133,"408":12134,"qf":12135,"Ġcusip":12136,"#:":12137,"techn":12138,"1965":12139,"evidence":12140,"Ġmistaken":12141,"ixed":12142,"were":12143,"san":12144,"Ġunsupported":12145,"final":12146,"Ġfacing":12147,"Ġrecreational":12148,"llo":12149,"Ġmodels":12150,"nother":12151,"uccio":12152,"Ġconcurred":12153,"Ġsanchez":12154,"Ġdetained":12155,"158":12156,"Ġregistrations":12157,"Ġsalt":12158,"Ġbrid":12159,"Ġstorm":12160,"last":12161,"Ã¦":12162,"Ġcoff":12163,"Ġassaul":12164,"Ġsecurit":12165,"hua":12166,"lett":12167,"atherine":12168,"Ġguardians":12169,"Ġelapsed":12170,"Ġparenting":12171,"Ġirregular":12172,"Ġnuis":12173,"650":12174,"Ġao":12175,"245":12176,"Ġcleaning":12177,"Ġpurely":12178,"Ġattest":12179,"Ġfounded":12180,"Ġ472":12181,"Ġpercentages":12182,"Ġlumbosacral":12183,"cribing":12184,"Ġspecialized":12185,"Ġwarn":12186,"Ġoverruling":12187,"ĠĠĠĠĠĠĠĠĠĠĠĠĠĠĠĠĠĠĠĠĠĠĠĠĠĠĠĠĠĠĠĠĠĠĠĠĠĠĠĠĠĠĠĠĠĠĠĠĠĠĠĠĠĠĠĠĠĠĠĠĠĠĠĠĠĠĠĠĠĠĠĠĠĠĠĠĠĠĠĠĠĠĠĠĠĠĠĠĠĠĠĠĠĠĠĠĠĠĠĠĠĠĠĠĠĠĠ":12188,"Ġdub":12189,"Ġfreely":12190,"``":12191,"lwk":12192,"Ġ1915":12193,"ador":12194,"Ġcompuls":12195,"Ġadam":12196,"Ġeasy":12197,"Ġ913":12198,"Ġpor":12199,"Ġinstrumentality":12200,"Ġ574":12201,"eda":12202,"222":12203,"Ġ573":12204,"Ġreside":12205,"Ġbulk":12206,"Ġhappy":12207,"fur":12208,"istence":12209,"Ġspringfield":12210,"Ġphoenix":12211,"Ġdepressed":12212,"Ġanalys":12213,"804":12214,"issuers":12215,"Ġtire":12216,"Ġfeasible":12217,"Ġradiculopathy":12218,"Ġdefining":12219,"design":12220,"Ġproport":12221,"Ġunexpired":12222,"Ġflag":12223,"hma":12224,"Ġmccl":12225,"Ġanticipate":12226,"Ġprerequ":12227,"143":12228,"feld":12229,"Ġconstitu":12230,"iers":12231,"courts":12232,"Ġamounted":12233,"278":12234,"Ġnearest":12235,"Ġbloom":12236,"coin":12237,"Ġ665":12238,"Ġapnea":12239,"Ġ708":12240,"idr":12241,"gcp":12242,"rape":12243,"Ġgober":12244,"283":12245,"usa":12246,"Ġ3000":12247,"akers":12248,")]":12249,"Ġsoil":12250,"liament":12251,"Ġquit":12252,"258":12253,"Ġbegun":12254,"Ġrelinqu":12255,"Ġgastro":12256,"Ġuncertain":12257,"Ġrecognizing":12258,"Ġhub":12259,"Ġrussia":12260,"Ġrt":12261,"ncomm":12262,".--":12263,"Ġevol":12264,"167":12265,"Ġwarner":12266,"Ġsomebody":12267,"Ġws":12268,"Ġ580":12269,"nstate":12270,"Ġperceived":12271,"Ġafghan":12272,"cin":12273,"Ġapt":12274,"Ġcanceled":12275,"vernon":12276,"nall":12277,"Ġerect":12278,"Ġsporter":12279,"Ġ575":12280,"ridge":12281,"Ġreopening":12282,"Ġrebuttal":12283,"Ġtodd":12284,"Ġcontamin":12285,"Ġstations":12286,"Ġdav":12287,"Ġshipment":12288,"Ġrichmond":12289,"Ġdepressive":12290,"164":12291,"Ġbroadly":12292,"Ġae":12293,"Ġsingular":12294,"Ġacademy":12295,"Ġproposes":12296,"icus":12297,"Ġvoir":12298,"Ġcotton":12299,"Ġarran":12300,"Ġbb":12301,"Ġnt":12302,"Ġrough":12303,"Ġheroin":12304,"Ġrepeat":12305,"Ġtv":12306,"card":12307,"Ġ---":12308,"Ġaudio":12309,"Ġfreder":12310,"Ġdetection":12311,"Ġnys":12312,"Ġ539":12313,"Ġ613":12314,"sept":12315,"Ġtissue":12316,"Ġculp":12317,"lib":12318,"248":12319,"Ġ1943":12320,"lar":12321,"avirus":12322,"Ġcertifications":12323,"Ġspectrum":12324,"Ġcourthouse":12325,"Ġdaw":12326,"Ġexecutory":12327,"Ġbeat":12328,"ĠĠĠĠĠĠĠĠĠĠĠĠĠĠĠĠĠĠĠĠĠĠĠĠĠĠĠĠĠĠĠĠĠĠĠĠĠĠĠĠĠĠĠĠĠĠĠĠĠĠĠĠĠĠĠĠĠĠĠĠĠĠĠĠĠĠĠĠĠĠĠĠĠĠĠĠĠĠĠĠĠĠĠĠĠĠĠĠĠĠĠĠĠĠĠĠĠĠĠĠĠĠĠĠĠĠĠĠ":12329,"Ġdeport":12330,"Ġ650":12331,"Ġcord":12332,"cat":12333,"Ġ................................................................................................................":12334,"Ġsealed":12335,"702":12336,"Ġsustaining":12337,"Ġmaine":12338,"exchange":12339,"Ġjean":12340,"Ġkeys":12341,"Ġspirit":12342,"plaintiffs":12343,"Ġseventy":12344,"Ġ694":12345,"foreign":12346,"Ġgreatest":12347,"Ġdot":12348,"162":12349,"1963":12350,"Ġsurge":12351,"Ġharmful":12352,"Ġaer":12353,"Ġoverpayment":12354,"153":12355,"Ġprisons":12356,"Ġcolleagues":12357,"Ġnervous":12358,"Ġnomination":12359,"Ġsubdivisions":12360,"mich":12361,"Ġsimmons":12362,"Ġporter":12363,"Ġdedicated":12364,"Ġmusic":12365,"Ġamd":12366,"eding":12367,"Ġassisting":12368,"Ġ903":12369,"Ġanywhere":12370,"Ġnic":12371,"185":12372,"wick":12373,"tebral":12374,"Ġofthe":12375,"Ġbath":12376,"Ġrecol":12377,"Ġincentives":12378,"alia":12379,"Ġnotifies":12380,"Ġsarah":12381,"Ġ877":12382,"Ġmoves":12383,"Ġliteral":12384,"Ġoffshore":12385,"Ġincumbent":12386,"uits":12387,"Ġrecoup":12388,"Ġcapitol":12389,"dwh":12390,"Ġradi":12391,"oul":12392,"Ġdisadvant":12393,"Ġpresume":12394,"Ġstatistics":12395,"counter":12396,"kle":12397,"Ġtribes":12398,"Ġjam":12399,"Ġyoun":12400,"Ġjennifer":12401,"Ġcel":12402,"Ġbeer":12403,"Ġhardware":12404,"Ġwrongdo":12405,"507":12406,"Ġdol":12407,"Ġlaundering":12408,"Ġsubmissions":12409,"Ġconfess":12410,"655":12411,"uct":12412,"Ġreaction":12413,"Ġalt":12414,"Æļs":12415,"230":12416,"Ġ902":12417,"255":12418,"Ġ566":12419,"Ġcargo":12420,"Ġhong":12421,"Ġadmiral":12422,"onymous":12423,"Ġretroactively":12424,"Ġtower":12425,"cover":12426,"Ġexecutors":12427,"Ġ557":12428,"mel":12429,"Ġ__________":12430,"Ġperem":12431,"iowa":12432,"ancery":12433,"rea":12434,"rw":12435,"Ġmerrill":12436,"atus":12437,"sing":12438,"Ġschiz":12439,"Ġasthma":12440,"Ġtransported":12441,"Ġcess":12442,"Ġ656":12443,"Ġstressors":12444,"administrative":12445,"anches":12446,"Ġorganic":12447,"amination":12448,"Ġincapacitating":12449,"Ġanimals":12450,"Ġtopic":12451,"506":12452,"nq":12453,"Ġpref":12454,"Ġshelf":12455,"256":12456,"Ġcomplaining":12457,"Ġunvested":12458,"Ġquartuccio":12459,"Ġclimate":12460,"Ġboat":12461,"Ġ607":12462,"Ġtaxed":12463,"433":12464,"Ġcayman":12465,"june":12466,"Ġmandates":12467,"engers":12468,"aro":12469,"Ġinquire":12470,"Ġog":12471,"Ġdividing":12472,"Ġdia":12473,"does":12474,"itext":12475,"Ġcompound":12476,"238":12477,"ek":12478,"Ġasia":12479,"Ġgenerality":12480,"nreg":12481,"Ġimmune":12482,"Ġminimize":12483,"Ġpresumably":12484,"Ġempow":12485,"Ġenem":12486,"Ġafl":12487,"Ġlegs":12488,"Ġ561":12489,"Ġchancery":12490,"event":12491,"Ġnotation":12492,"print":12493,"Ġincompetent":12494,"substant":12495,"290":12496,"spir":12497,"0101":12498,"nass":12499,"Ġairlines":12500,"Ġpent":12501,"Ġgarage":12502,"Ġ603":12503,"Ġbush":12504,"Ġparliament":12505,"redacted":12506,"243":12507,"earance":12508,"Ġowens":12509,"wau":12510,"Ġurge":12511,"Ġlakes":12512,"classified":12513,"sole":12514,"Ġvisa":12515,"257":12516,"Ġdrainage":12517,"Ġbids":12518,"Ġspinal":12519,"ĠÐ":12520,"Ġnv":12521,"personal":12522,"fficiency":12523,".âĪĻ":12524,"ricia":12525,"Ġgraph":12526,"dl":12527,"ingham":12528,"enda":12529,"Ġaar":12530,"Ġinadvert":12531,"Ġrandom":12532,"Ġvisible":12533,"Ġnotably":12534,"365":12535,"oman":12536,"aoj":12537,"Ġdebate":12538,"ainst":12539,"Ġ738":12540,"Ġflexibility":12541,"179":12542,"Ġparked":12543,"Ġgonzales":12544,"Ġchecked":12545,"iber":12546,"Ġaccruing":12547,"Ġregistry":12548,"Ġpromoting":12549,"ntrans":12550,"file":12551,"Ġanalyses":12552,"otte":12553,"Ġimminent":12554,"Ġenrich":12555,"rating":12556,"Ġ5100":12557,"Ġfinished":12558,"Ġsubmitter":12559,"Ġ810":12560,"Ġfitz":12561,"Ġgaming":12562,"Ġdavidson":12563,"lets":12564,"rals":12565,"ien":12566,"Ġomnibus":12567,"safe":12568,"Ġideas":12569,"Ġgasoline":12570,"Ġconclusory":12571,"gage":12572,"Ġ804":12573,"Ġalph":12574,"pert":12575,"Ġfence":12576,"407":12577,"Ġ.âĢĿ":12578,"Ġroche":12579,"week":12580,"Ġholmes":12581,"028":12582,"jj":12583,"Ġpractition":12584,"024":12585,"Ġdeveloper":12586,"Ġvaop":12587,"Ġdeterior":12588,"Ġconver":12589,"Ġcanal":12590,"Ġbaby":12591,"Ġ2254":12592,"ipped":12593,"Ġignored":12594,"345":12595,"expl":12596,"onic":12597,"Ġbp":12598,"Ġchannels":12599,"Ġgermany":12600,"ignment":12601,"Ġdemonstration":12602,"Ġuninsured":12603,"Ġoriginator":12604,"nut":12605,"Ġperempt":12606,"Ġcopyrights":12607,"Ġvirus":12608,"Ġnationally":12609,"hb":12610,"Ġindifference":12611,"uten":12612,"lak":12613,"Ġinterval":12614,"shares":12615,"Ġworkmen":12616,"cho":12617,"Ġ558":12618,"Ġslightly":12619,"Ġenclosed":12620,"discuss":12621,"april":12622,"Ġreinstated":12623,"Ġsequence":12624,"petitioner":12625,"Ġidref":12626,"Ġexempl":12627,"Ġbankers":12628,"Ġpictures":12629,"Ġinconven":12630,"haw":12631,"Ġsys":12632,"Ġwithdrew":12633,"Ġsep":12634,"Ġquote":12635,"Ġthresholds":12636,"Ġproductive":12637,"Ġhorse":12638,"Ġexpedited":12639,"Ġ1036":12640,"Ġnuisance":12641,"father":12642,"Ġ571":12643,"witness":12644,"umping":12645,"iae":12646,"Ġprevents":12647,"ceptible":12648,"Ġarranged":12649,"Ġsed":12650,"oli":12651,"Ġbancorp":12652,"Ġpaso":12653,"Ġ667":12654,"Ġconscious":12655,"tech":12656,"Ġstrugg":12657,"cation":12658,"189":12659,"Ġcomfort":12660,"uesday":12661,"px":12662,"Ġpater":12663,"Ġcamer":12664,"mary":12665,"Ġpossessing":12666,"Ġ7252":12667,"Ġ1941":12668,"Ġlobby":12669,"Ġarbitrators":12670,"Ġresentencing":12671,"Ġlv":12672,"ntheir":12673,"223":12674,"secution":12675,"Ġrack":12676,"186":12677,"Ġdiscounts":12678,"Ġattain":12679,"Ġboe":12680,"Ġ626":12681,"Ġ713":12682,"die":12683,"Ġimpract":12684,"Ġamaz":12685,"Ġdress":12686,"Ġdrafted":12687,"Ġtortious":12688,"Ġquantities":12689,"012":12690,"Ġsurrendered":12691,"320":12692,"Ġgifts":12693,"335":12694,"Ġ568":12695,"Ġcattle":12696,"formerly":12697,"Ġisolated":12698,"Ġmagaz":12699,"035":12700,"Ġpalm":12701,"Ġperez":12702,"Ġlacking":12703,"176":12704,"olar":12705,"âĢĻâĢĻ":12706,"Ġfrancis":12707,"vc":12708,"Ġconcealed":12709,"Ġaccommodations":12710,"Ġtag":12711,"urp":12712,"Ġoffenders":12713,"Ġ680":12714,"Ġtariff":12715,"nthese":12716,"ederal":12717,"Ġstyle":12718,"Ġgap":12719,"Ġdual":12720,"Ġwelcome":12721,"lb":12722,"Ġkath":12723,"Ġeditor":12724,"Ġnoncompliance":12725,"Ġmovements":12726,"Ġ825":12727,"oga":12728,"gcprec":12729,"Ġ565":12730,"Ġreb":12731,"cef":12732,"news":12733,"Ġ921":12734,"exact":12735,"1097":12736,"Ġ662":12737,"Ġpalmer":12738,"pts":12739,"letter":12740,"Ġrevolver":12741,"Ġlor":12742,"Ġ\"*":12743,"178":12744,"Ġbone":12745,"âĪĴ":12746,"waukee":12747,"Ġunaware":12748,"Ġ//":12749,"ibi":12750,"Ġ1948":12751,"determined":12752,"Ġcircuits":12753,"Ġindia":12754,"Ġjes":12755,"ĠÂ£":12756,"Ġbitcoin":12757,"Ġ4000":12758,"Ġguy":12759,"shot":12760,"Ġunconditional":12761,"july":12762,"360":12763,"ainties":12764,"prud":12765,"Ġnorthwest":12766,"Ġautomated":12767,"Ġyounger":12768,"governmental":12769,"Ġscot":12770,"Ġliterature":12771,"poss":12772,"Ġtrucks":12773,"Ġrecap":12774,"city":12775,"number":12776,"Ġsoliciting":12777,"Ġlang":12778,"029":12779,"Ġirr":12780,"244":12781,"atorium":12782,"341":12783,"uer":12784,"Ġdunn":12785,"abs":12786,"Ġire":12787,"Ġminors":12788,"Ġembra":12789,"Ġvaopgcprec":12790,"Ġunused":12791,"194":12792,"icians":12793,"Ġimpacted":12794,"Ġregions":12795,"Ġcoordinate":12796,"Ġweighing":12797,"Ġdiscrep":12798,"racted":12799,"Ġpreamble":12800,"Ġmonroe":12801,"Ġmotivated":12802,"Ġcomposite":12803,"193":12804,"ascr":12805,"510":12806,"Ġlengthy":12807,"Ġquash":12808,"washington":12809,"Ġcents":12810,"Ġsamuel":12811,"Ġcarroll":12812,"Ġ620":12813,"Ġpassengers":12814,"Ġlitigant":12815,"Ġbuying":12816,"Ġfron":12817,"060":12818,"Ġacquies":12819,"Ġconvenient":12820,"Ġpretext":12821,"1964":12822,"Ġfranchis":12823,"Ġsid":12824,"Ġcounterclaims":12825,"Ġfn":12826,"Ġparalle":12827,"Ġbritish":12828,"Ġhayes":12829,"Ġ627":12830,"--\\":12831,"Ġquorum":12832,"Ġenabling":12833,"Ġbio":12834,"Ġinforming":12835,"Ġinvited":12836,"Ġinnovation":12837,"three":12838,"Ġtables":12839,"Ġsimpson":12840,"Ġunsuccessful":12841,"Ġgh":12842,"Ġ1942":12843,"cies":12844,"Ġsincerely":12845,"Ġfoia":12846,"Ġ720":12847,"Ġlights":12848,"Ġ677":12849,"Ġidentifiable":12850,"Ġaccounted":12851,"Ġ1331":12852,"Ġ648":12853,"Ġflsa":12854,"Ġencouraged":12855,"Ġkidnapp":12856,"Ġâĸ":12857,"Ġallocate":12858,"Ġburning":12859,"Ġvt":12860,"teenth":12861,"Ġere":12862,"utorily":12863,"Ġprost":12864,"Ġea":12865,"gon":12866,"Ġensu":12867,"ista":12868,"Ġobsc":12869,"hens":12870,"Ġsubcontractors":12871,"Ġ576":12872,"Ġtuesday":12873,"acle":12874,"Ġpad":12875,"Ġ577":12876,"hal":12877,"Ġtherape":12878,"Ġ563":12879,"265":12880,"Ġinherently":12881,"Ġambul":12882,"Ġleaders":12883,"Ġvert":12884,"196":12885,"information":12886,"during":12887,"Ġdeals":12888,"Ġanswering":12889,"Ġbrun":12890,"Ġbalancing":12891,"Ġberry":12892,"permitted":12893,"Ġallocations":12894,"ĠĠĠĠĠĠĠĠĠĠĠĠĠĠĠĠĠĠĠĠĠĠĠĠĠĠĠĠĠĠĠĠĠĠĠĠĠĠĠĠĠĠĠĠĠĠĠĠĠĠĠĠĠĠĠĠĠĠĠĠĠĠĠĠĠĠĠĠĠĠĠĠĠĠĠĠĠĠĠĠĠĠĠĠĠĠĠĠĠĠĠĠĠĠĠĠĠĠĠĠĠĠĠĠĠĠĠĠĠĠ":12895,").\"":12896,"Ġtherapeut":12897,"Ġtoler":12898,"Ġtowns":12899,"Ġthoughts":12900,"arez":12901,"353":12902,"nwhich":12903,"valu":12904,"share":12905,"Ġ654":12906,"Ġimpairments":12907,"finder":12908,"Ġ805":12909,"Ġoutset":12910,"Ġretains":12911,"Ġabet":12912,"Ġsupersedes":12913,"Ġmisappropri":12914,"Ġay":12915,"Ġwebster":12916,"acies":12917,"Ġpatricia":12918,"Ġ615":12919,"Ġhouses":12920,"ignees":12921,"ih":12922,"estate":12923,"liquidated":12924,"Ġpreexisting":12925,"Ġkr":12926,"medical":12927,"Ġsf":12928,"Ġpose":12929,"Ġ3104":12930,"Ġmunicipalities":12931,"Ġnoteholder":12932,"argu":12933,"Ġuncertainties":12934,"Ġindus":12935,"Ġfals":12936,"Ġproducer":12937,"Ġplastic":12938,"Ġ608":12939,"Ġrespecting":12940,"Ġfc":12941,"311":12942,"nbecause":12943,"Ġ787":12944,"Ġtotaling":12945,"Ġdoub":12946,"Ġpsychologist":12947,"Ġdependency":12948,"Ġbilled":12949,"uper":12950,"Ġworkplace":12951,"Ġ632":12952,"Ġnondisc":12953,"Ġhundreds":12954,"Ġhc":12955,"lli":12956,"Ġcomputers":12957,"Ġobserves":12958,"Ġsponsored":12959,"Ġtunnel":12960,"Ġ617":12961,"Ġ824":12962,"ometric":12963,"uz":12964,"233":12965,"Ġviable":12966,"Ġpistol":12967,"Ġ926":12968,"Ġchi":12969,"Ġ888":12970,"Ġ614":12971,"Ġlynn":12972,"Ġremediation":12973,"Ġclearance":12974,"Ġace":12975,"aband":12976,"Ġ901":12977,"columni":12978,"uels":12979,"Ġdiminished":12980,"Ġeve":12981,"Ġintervening":12982,"Ġbryan":12983,"Ġinterface":12984,"Ġdiscontinued":12985,"hedul":12986,"182":12987,"dem":12988,"employees":12989,"Ġmae":12990,"otive":12991,"Ġ1935":12992,"Ġtrades":12993,"Ġeighty":12994,"family":12995,"ima":12996,"Ġ1113":12997,"commence":12998,"door":12999,"Ġtitles":13000,"backed":13001,"Ġdelta":13002,"Ġlun":13003,"809":13004,"kind":13005,"undant":13006,"Ġtemperature":13007,"kd":13008,"Ġmentally":13009,"icker":13010,"Ġminds":13011,"Ġcolo":13012,"Ġholiday":13013,"]).":13014,"Ġclosure":13015,"Ġpurportedly":13016,"owitz":13017,"Ġwaiving":13018,"appe":13019,"word":13020,"short":13021,"Ġpostconviction":13022,"xq":13023,"Ġjenkins":13024,"eds":13025,"270":13026,"Ġsout":13027,"pf":13028,"pin":13029,"cmte":13030,"list":13031,"paid":13032,"Ġmouth":13033,"Ġproducers":13034,"gered":13035,"Ġvermont":13036,"Ġts":13037,"Ġfrance":13038,"minn":13039,"Ġcomposed":13040,"Ġinfant":13041,"compliance":13042,"Ġhistoric":13043,"rophy":13044,"cker":13045,"Ġhandgun":13046,"Ġpersonality":13047,"changed":13048,"Ġillegally":13049,"covered":13050,"Ġoverseas":13051,"246":13052,"cence":13053,"Ġcourses":13054,"Ġrevisions":13055,"nbut":13056,"agan":13057,"Ġfinanced":13058,"wc":13059,"Ġconfronted":13060,"Ġdisproportion":13061,"adjust":13062,"Ġwise":13063,"xp":13064,"Ġremit":13065,"cels":13066,"Ġbare":13067,"Ġquiet":13068,"Ġimplication":13069,"Ġcer":13070,"Ġdisturbed":13071,"Ġtucker":13072,"Ġsteve":13073,"Ġpursuit":13074,"Ġsprings":13075,"acting":13076,"Ġmoratorium":13077,"nabout":13078,"Ġ629":13079,"Ġfluctu":13080,"608":13081,"415":13082,"Ġcontending":13083,"Ġrotation":13084,"Ġ624":13085,"Ġmayfield":13086,"Ġutilization":13087,"kinson":13088,"Ġgirls":13089,"Ġunanimously":13090,"executive":13091,"Ġ1938":13092,"Ġ726":13093,"767":13094,"****************":13095,"Ġ1350":13096,"Ġcarr":13097,"Ġwished":13098,"Ġdeutsche":13099,"Ġ687":13100,"okes":13101,"036":13102,"istry":13103,"Ġyours":13104,"ifting":13105,"Ġpropose":13106,"mem":13107,"Ġtan":13108,"ncourt":13109,"course":13110,"sale":13111,"imon":13112,"Ġbudge":13113,"hlc":13114,"consolidated":13115,"Ġpathology":13116,"Ġelli":13117,"Ġmilwaukee":13118,"Ġdefamation":13119,"Ġminerals":13120,"Ġpackaging":13121,"economic":13122,"Ġphoto":13123,"Ġanders":13124,"rington":13125,"ĠÂ«":13126,"277":13127,"Ġgentlemen":13128,"Ġath":13129,"Ġnumbness":13130,"Ġactu":13131,"Ġpreemption":13132,"len":13133,"Ġprolonged":13134,"Ġwidow":13135,"Ġ3553":13136,"front":13137,"Ġleonard":13138,"344":13139,"Ġdeclaring":13140,"Ġstabil":13141,".âĢĿ)":13142,"olicy":13143,"acts":13144,"Ġexplains":13145,"Ġenvelope":13146,"Ġlac":13147,"Ġcollector":13148,"Ġgran":13149,"subsid":13150,"Ġcontainer":13151,"Ġamicus":13152,"Ġfalsely":13153,"abbed":13154,"Ġprostate":13155,"Ġboxes":13156,"esty":13157,"197":13158,"Ġkong":13159,"Ġacquires":13160,"Ġpenet":13161,"Ġoverwhelming":13162,"value":13163,"Ġ674":13164,"Ġjoshua":13165,"ologically":13166,"Ġ599":13167,"Ġtravelers":13168,"Ġmarshal":13169,"Ġharvey":13170,"Ġforeclose":13171,"192":13172,"287":13173,"Ġcollaboration":13174,"Ġreimbursements":13175,"Ġprayer":13176,"Ġabatement":13177,"Ġ1937":13178,"Ġwang":13179,"Ġfacial":13180,"Ġoutput":13181,"181":13182,"Ġ612":13183,"Ġimplications":13184,"Ġtone":13185,"Ġretiring":13186,"ishop":13187,"Ġ587":13188,"Ġ820":13189,"Ġosteo":13190,"oto":13191,"174":13192,"Ġinterviews":13193,"343":13194,"231":13195,"Ġreadjudicate":13196,"commencement":13197,"294":13198,"version":13199,"Ġhog":13200,"Ġimag":13201,"iw":13202,"ninformation":13203,"nunited":13204,"enas":13205,"285":13206,"gÆĮ":13207,"Ġreplacing":13208,"Ġexclusions":13209,"Ġvegas":13210,"Ġcells":13211,"Ġdeform":13212,"rehend":13213,"bls":13214,"Ġrecruit":13215,"Ġmotorist":13216,"237":13217,">?#":13218,"163":13219,"Ġgavhlc":13220,"Ġcondu":13221,".\");":13222,"Ġdeliberations":13223,"Ġsla":13224,"Ġeasements":13225,"/\\":13226,"link":13227,"issued":13228,"Ġignore":13229,"Ġapportionment":13230,"Ġenrichment":13231,"Ġ572":13232,"Ġlaunch":13233,"Ġinsight":13234,"bat":13235,"pling":13236,"Ġimmun":13237,"Ġ854":13238,"Ġ[**]":13239,"Ġadvising":13240,"Ġrecited":13241,"Ġweighed":13242,"Çģ":13243,"nimp":13244,"Ġcarries":13245,"Ġpittsburgh":13246,"Ġexcused":13247,"Ġ920":13248,"Ġappointing":13249,"initial":13250,"Ġhighways":13251,"Ġhob":13252,"djh":13253,"ieve":13254,"Ġadvocate":13255,"Ġcontraband":13256,"Ġ631":13257,"Ġcruel":13258,"Ġclarified":13259,"805":13260,"Ġcontroller":13261,"vt":13262,"Ġkaren":13263,"consent":13264,"Ġchris":13265,"ĠĠĠĠĠĠĠĠĠĠĠĠĠĠĠĠĠĠĠĠĠĠĠĠĠĠĠĠĠĠĠĠĠĠĠĠĠĠĠĠĠĠĠĠĠĠĠĠĠĠĠĠĠĠĠĠĠĠĠĠĠĠĠĠĠĠĠĠĠĠĠĠĠĠĠĠĠĠĠĠĠĠĠĠĠĠĠĠĠĠĠĠĠĠĠĠĠĠĠĠĠĠĠĠĠĠĠĠĠĠĠĠĠĠĠĠĠ":13266,"Ġvacancy":13267,"Ġ846":13268,"Ġ310410":13269,"Ġteaching":13270,"295":13271,"Ġlogistics":13272,"Ġconsequential":13273,"controlled":13274,"Ġperemptory":13275,"resol":13276,"Ġbarriers":13277,"Ġjuan":13278,"Ġmateriality":13279,"Ġconve":13280,"asmuch":13281,"ocon":13282,"ishment":13283,"Ġdealings":13284,"Ġtrave":13285,"Ġshed":13286,"Ġinher":13287,"351":13288,"Ġfederally":13289,"Ġintimid":13290,"origin":13291,"Ġportland":13292,"296":13293,"both":13294,"Ġsars":13295,"master":13296,"Ġpollut":13297,"Ġaccus":13298,"Ġfarms":13299,"Ġ585":13300,"jt":13301,"Ġ______":13302,"850":13303,"nsu":13304,"nox":13305,"Ġinfringe":13306,"Ġeur":13307,"Ġdale":13308,"Ġlooks":13309,"Ġhoffman":13310,"Ġdram":13311,"Ġfreeman":13312,"Ġ586":13313,"Ġstrip":13314,"Ġliv":13315,"being":13316,"754":13317,"Ġpremature":13318,"Ġrecreation":13319,"Ġscha":13320,"Ġ619":13321,"Ġvideot":13322,"Ġtes":13323,"Ġagreeing":13324,
[...]
